{
  "version": "1.0",
  "truncation": null,
  "padding": {
    "strategy": "BatchLongest",
    "direction": "Right",
    "pad_to_multiple_of": null,
    "pad_id": 0,
    "pad_type_id": 0,
    "pad_token": "<pad>"
  },
  "added_tokens": [
    {
      "id": 0,
      "content": "<pad>",
      "single_word": false,
      "lstrip": false,
      "rstrip": false,
      "normalized": false,
      "special": true
    },
    {
      "id": 1,
      "content": "</s>",
      "single_word": false,
      "lstrip": false,
      "rstrip": false,
      "normalized": false,
      "special": true
    },
    {
      "id": 2,
      "content": "<unk>",
      "single_word": false,
      "lstrip": false,
      "rstrip": false,
      "normalized": false,
      "special": true
    },
    {
      "id": 30000,
      "content": "<extra_id_0>",
      "single_word": false,
      "lstrip": false,
      "rstrip": false,
      "normalized": false,
      "special": true
    },
    {
      "id": 30001,
      "content": "<extra_id_1>",
      "single_word": false,
      "lstrip": false,
      "rstrip": false,
      "normalized": false,
      "special": true
    },
    {
      "id": 30002,
      "content": "<extra_id_2>",
      "single_word": false,
      "lstrip": false,
      "rstrip": false,
      "normalized": false,
      "special": true
    },
    {
      "id": 30003,
      "content": "<extra_id_3>",
      "single_word": false,
      "lstrip": false,
      "rstrip": false,
      "normalized": false,
      "special": true
    },
    {
      "id": 30004,
      "content": "<extra_id_4>",
      "single_word": false,
      "lstrip": false,
      "rstrip": false,
      "normalized": false,
      "special": true
    },
    {
      "id": 30005,
      "content": "<extra_id_5>",
      "single_word": false,
      "lstrip": false,
      "rstrip": false,
      "normalized": false,
      "special": true
    },
    {
      "id": 30006,
      "content": "<extra_id_6>",
      "single_word": false,
      "lstrip": false,
      "rstrip": false,
      "normalized": false,
      "special": true
    },
    {
      "id": 30007,
      "content": "<extra_id_7>",
      "single_word": false,
      "lstrip": false,
      "rstrip": false,
      "normalized": false,
      "special": true
    },
    {
      "id": 30008,
      "content": "<extra_id_8>",
      "single_word": false,
      "lstrip": false,
      "rstrip": false,
      "normalized": false,
      "special": true
    },
    {
      "id": 30009,
      "content": "<extra_id_9>",
      "single_word": false,
      "lstrip": false,
      "rstrip": false,
      "normalized": false,
      "special": true
    },
    {
      "id": 30010,
      "content": "<extra_id_10>",
      "single_word": false,
      "lstrip": false,
      "rstrip": false,
      "normalized": false,
      "special": true
    },
    {
      "id": 30011,
      "content": "<extra_id_11>",
      "single_word": false,
      "lstrip": false,
      "rstrip": false,
      "normalized": false,
      "special": true
    },
    {
      "id": 30012,
      "content": "<extra_id_12>",
      "single_word": false,
      "lstrip": false,
      "rstrip": false,
      "normalized": false,
      "special": true
    },
    {
      "id": 30013,
      "content": "<extra_id_13>",
      "single_word": false,
      "lstrip": false,
      "rstrip": false,
      "normalized": false,
      "special": true
    },
    {
      "id": 30014,
      "content": "<extra_id_14>",
      "single_word": false,
      "lstrip": false,
      "rstrip": false,
      "normalized": false,
      "special": true
    },
    {
      "id": 30015,
      "content": "<extra_id_15>",
      "single_word": false,
      "lstrip": false,
      "rstrip": false,
      "normalized": false,
      "special": true
    },
    {
      "id": 30016,
      "content": "<extra_id_16>",
      "single_word": false,
      "lstrip": false,
      "rstrip": false,
      "normalized": false,
      "special": true
    },
    {
      "id": 30017,
      "content": "<extra_id_17>",
      "single_word": false,
      "lstrip": false,
      "rstrip": false,
      "normalized": false,
      "special": true
    },
    {
      "id": 30018,
      "content": "<extra_id_18>",
      "single_word": false,
      "lstrip": false,
      "rstrip": false,
      "normalized": false,
      "special": true
    },
    {
      "id": 30019,
      "content": "<extra_id_19>",
      "single_word": false,
      "lstrip": false,
      "rstrip": false,
      "normalized": false,
      "special": true
    },
    {
      "id": 30020,
      "content": "<extra_id_20>",
      "single_word": false,
      "lstrip": false,
      "rstrip": false,
      "normalized": false,
      "special": true
    },
    {
      "id": 30021,
      "content": "<extra_id_21>",
      "single_word": false,
      "lstrip": false,
      "rstrip": false,
      "normalized": false,
      "special": true
    },
    {
      "id": 30022,
      "content": "<extra_id_22>",
      "single_word": false,
      "lstrip": false,
      "rstrip": false,
      "normalized": false,
      "special": true
    },
    {
      "id": 30023,
      "content": "<extra_id_23>",
      "single_word": false,
      "lstrip": false,
      "rstrip": false,
      "normalized": false,
      "special": true
    },
    {
      "id": 30024,
      "content": "<extra_id_24>",
      "single_word": false,
      "lstrip": false,
      "rstrip": false,
      "normalized": false,
      "special": true
    },
    {
      "id": 30025,
      "content": "<extra_id_25>",
      "single_word": false,
      "lstrip": false,
      "rstrip": false,
      "normalized": false,
      "special": true
    },
    {
      "id": 30026,
      "content": "<extra_id_26>",
      "single_word": false,
      "lstrip": false,
      "rstrip": false,
      "normalized": false,
      "special": true
    },
    {
      "id": 30027,
      "content": "<extra_id_27>",
      "single_word": false,
      "lstrip": false,
      "rstrip": false,
      "normalized": false,
      "special": true
    },
    {
      "id": 30028,
      "content": "<extra_id_28>",
      "single_word": false,
      "lstrip": false,
      "rstrip": false,
      "normalized": false,
      "special": true
    },
    {
      "id": 30029,
      "content": "<extra_id_29>",
      "single_word": false,
      "lstrip": false,
      "rstrip": false,
      "normalized": false,
      "special": true
    },
    {
      "id": 30030,
      "content": "<extra_id_30>",
      "single_word": false,
      "lstrip": false,
      "rstrip": false,
      "normalized": false,
      "special": true
    },
    {
      "id": 30031,
      "content": "<extra_id_31>",
      "single_word": false,
      "lstrip": false,
      "rstrip": false,
      "normalized": false,
      "special": true
    },
    {
      "id": 30032,
      "content": "<extra_id_32>",
      "single_word": false,
      "lstrip": false,
      "rstrip": false,
      "normalized": false,
      "special": true
    },
    {
      "id": 30033,
      "content": "<extra_id_33>",
      "single_word": false,
      "lstrip": false,
      "rstrip": false,
      "normalized": false,
      "special": true
    },
    {
      "id": 30034,
      "content": "<extra_id_34>",
      "single_word": false,
      "lstrip": false,
      "rstrip": false,
      "normalized": false,
      "special": true
    },
    {
      "id": 30035,
      "content": "<extra_id_35>",
      "single_word": false,
      "lstrip": false,
      "rstrip": false,
      "normalized": false,
      "special": true
    },
    {
      "id": 30036,
      "content": "<extra_id_36>",
      "single_word": false,
      "lstrip": false,
      "rstrip": false,
      "normalized": false,
      "special": true
    },
    {
      "id": 30037,
      "content": "<extra_id_37>",
      "single_word": false,
      "lstrip": false,
      "rstrip": false,
      "normalized": false,
      "special": true
    },
    {
      "id": 30038,
      "content": "<extra_id_38>",
      "single_word": false,
      "lstrip": false,
      "rstrip": false,
      "normalized": false,
      "special": true
    },
    {
      "id": 30039,
      "content": "<extra_id_39>",
      "single_word": false,
      "lstrip": false,
      "rstrip": false,
      "normalized": false,
      "special": true
    },
    {
      "id": 30040,
      "content": "<extra_id_40>",
      "single_word": false,
      "lstrip": false,
      "rstrip": false,
      "normalized": false,
      "special": true
    },
    {
      "id": 30041,
      "content": "<extra_id_41>",
      "single_word": false,
      "lstrip": false,
      "rstrip": false,
      "normalized": false,
      "special": true
    },
    {
      "id": 30042,
      "content": "<extra_id_42>",
      "single_word": false,
      "lstrip": false,
      "rstrip": false,
      "normalized": false,
      "special": true
    },
    {
      "id": 30043,
      "content": "<extra_id_43>",
      "single_word": false,
      "lstrip": false,
      "rstrip": false,
      "normalized": false,
      "special": true
    },
    {
      "id": 30044,
      "content": "<extra_id_44>",
      "single_word": false,
      "lstrip": false,
      "rstrip": false,
      "normalized": false,
      "special": true
    },
    {
      "id": 30045,
      "content": "<extra_id_45>",
      "single_word": false,
      "lstrip": false,
      "rstrip": false,
      "normalized": false,
      "special": true
    },
    {
      "id": 30046,
      "content": "<extra_id_46>",
      "single_word": false,
      "lstrip": false,
      "rstrip": false,
      "normalized": false,
      "special": true
    },
    {
      "id": 30047,
      "content": "<extra_id_47>",
      "single_word": false,
      "lstrip": false,
      "rstrip": false,
      "normalized": false,
      "special": true
    },
    {
      "id": 30048,
      "content": "<extra_id_48>",
      "single_word": false,
      "lstrip": false,
      "rstrip": false,
      "normalized": false,
      "special": true
    },
    {
      "id": 30049,
      "content": "<extra_id_49>",
      "single_word": false,
      "lstrip": false,
      "rstrip": false,
      "normalized": false,
      "special": true
    },
    {
      "id": 30050,
      "content": "<extra_id_50>",
      "single_word": false,
      "lstrip": false,
      "rstrip": false,
      "normalized": false,
      "special": true
    },
    {
      "id": 30051,
      "content": "<extra_id_51>",
      "single_word": false,
      "lstrip": false,
      "rstrip": false,
      "normalized": false,
      "special": true
    },
    {
      "id": 30052,
      "content": "<extra_id_52>",
      "single_word": false,
      "lstrip": false,
      "rstrip": false,
      "normalized": false,
      "special": true
    },
    {
      "id": 30053,
      "content": "<extra_id_53>",
      "single_word": false,
      "lstrip": false,
      "rstrip": false,
      "normalized": false,
      "special": true
    },
    {
      "id": 30054,
      "content": "<extra_id_54>",
      "single_word": false,
      "lstrip": false,
      "rstrip": false,
      "normalized": false,
      "special": true
    },
    {
      "id": 30055,
      "content": "<extra_id_55>",
      "single_word": false,
      "lstrip": false,
      "rstrip": false,
      "normalized": false,
      "special": true
    },
    {
      "id": 30056,
      "content": "<extra_id_56>",
      "single_word": false,
      "lstrip": false,
      "rstrip": false,
      "normalized": false,
      "special": true
    },
    {
      "id": 30057,
      "content": "<extra_id_57>",
      "single_word": false,
      "lstrip": false,
      "rstrip": false,
      "normalized": false,
      "special": true
    },
    {
      "id": 30058,
      "content": "<extra_id_58>",
      "single_word": false,
      "lstrip": false,
      "rstrip": false,
      "normalized": false,
      "special": true
    },
    {
      "id": 30059,
      "content": "<extra_id_59>",
      "single_word": false,
      "lstrip": false,
      "rstrip": false,
      "normalized": false,
      "special": true
    },
    {
      "id": 30060,
      "content": "<extra_id_60>",
      "single_word": false,
      "lstrip": false,
      "rstrip": false,
      "normalized": false,
      "special": true
    },
    {
      "id": 30061,
      "content": "<extra_id_61>",
      "single_word": false,
      "lstrip": false,
      "rstrip": false,
      "normalized": false,
      "special": true
    },
    {
      "id": 30062,
      "content": "<extra_id_62>",
      "single_word": false,
      "lstrip": false,
      "rstrip": false,
      "normalized": false,
      "special": true
    },
    {
      "id": 30063,
      "content": "<extra_id_63>",
      "single_word": false,
      "lstrip": false,
      "rstrip": false,
      "normalized": false,
      "special": true
    },
    {
      "id": 30064,
      "content": "<extra_id_64>",
      "single_word": false,
      "lstrip": false,
      "rstrip": false,
      "normalized": false,
      "special": true
    },
    {
      "id": 30065,
      "content": "<extra_id_65>",
      "single_word": false,
      "lstrip": false,
      "rstrip": false,
      "normalized": false,
      "special": true
    },
    {
      "id": 30066,
      "content": "<extra_id_66>",
      "single_word": false,
      "lstrip": false,
      "rstrip": false,
      "normalized": false,
      "special": true
    },
    {
      "id": 30067,
      "content": "<extra_id_67>",
      "single_word": false,
      "lstrip": false,
      "rstrip": false,
      "normalized": false,
      "special": true
    },
    {
      "id": 30068,
      "content": "<extra_id_68>",
      "single_word": false,
      "lstrip": false,
      "rstrip": false,
      "normalized": false,
      "special": true
    },
    {
      "id": 30069,
      "content": "<extra_id_69>",
      "single_word": false,
      "lstrip": false,
      "rstrip": false,
      "normalized": false,
      "special": true
    },
    {
      "id": 30070,
      "content": "<extra_id_70>",
      "single_word": false,
      "lstrip": false,
      "rstrip": false,
      "normalized": false,
      "special": true
    },
    {
      "id": 30071,
      "content": "<extra_id_71>",
      "single_word": false,
      "lstrip": false,
      "rstrip": false,
      "normalized": false,
      "special": true
    },
    {
      "id": 30072,
      "content": "<extra_id_72>",
      "single_word": false,
      "lstrip": false,
      "rstrip": false,
      "normalized": false,
      "special": true
    },
    {
      "id": 30073,
      "content": "<extra_id_73>",
      "single_word": false,
      "lstrip": false,
      "rstrip": false,
      "normalized": false,
      "special": true
    },
    {
      "id": 30074,
      "content": "<extra_id_74>",
      "single_word": false,
      "lstrip": false,
      "rstrip": false,
      "normalized": false,
      "special": true
    },
    {
      "id": 30075,
      "content": "<extra_id_75>",
      "single_word": false,
      "lstrip": false,
      "rstrip": false,
      "normalized": false,
      "special": true
    },
    {
      "id": 30076,
      "content": "<extra_id_76>",
      "single_word": false,
      "lstrip": false,
      "rstrip": false,
      "normalized": false,
      "special": true
    },
    {
      "id": 30077,
      "content": "<extra_id_77>",
      "single_word": false,
      "lstrip": false,
      "rstrip": false,
      "normalized": false,
      "special": true
    },
    {
      "id": 30078,
      "content": "<extra_id_78>",
      "single_word": false,
      "lstrip": false,
      "rstrip": false,
      "normalized": false,
      "special": true
    },
    {
      "id": 30079,
      "content": "<extra_id_79>",
      "single_word": false,
      "lstrip": false,
      "rstrip": false,
      "normalized": false,
      "special": true
    },
    {
      "id": 30080,
      "content": "<extra_id_80>",
      "single_word": false,
      "lstrip": false,
      "rstrip": false,
      "normalized": false,
      "special": true
    },
    {
      "id": 30081,
      "content": "<extra_id_81>",
      "single_word": false,
      "lstrip": false,
      "rstrip": false,
      "normalized": false,
      "special": true
    },
    {
      "id": 30082,
      "content": "<extra_id_82>",
      "single_word": false,
      "lstrip": false,
      "rstrip": false,
      "normalized": false,
      "special": true
    },
    {
      "id": 30083,
      "content": "<extra_id_83>",
      "single_word": false,
      "lstrip": false,
      "rstrip": false,
      "normalized": false,
      "special": true
    },
    {
      "id": 30084,
      "content": "<extra_id_84>",
      "single_word": false,
      "lstrip": false,
      "rstrip": false,
      "normalized": false,
      "special": true
    },
    {
      "id": 30085,
      "content": "<extra_id_85>",
      "single_word": false,
      "lstrip": false,
      "rstrip": false,
      "normalized": false,
      "special": true
    },
    {
      "id": 30086,
      "content": "<extra_id_86>",
      "single_word": false,
      "lstrip": false,
      "rstrip": false,
      "normalized": false,
      "special": true
    },
    {
      "id": 30087,
      "content": "<extra_id_87>",
      "single_word": false,
      "lstrip": false,
      "rstrip": false,
      "normalized": false,
      "special": true
    },
    {
      "id": 30088,
      "content": "<extra_id_88>",
      "single_word": false,
      "lstrip": false,
      "rstrip": false,
      "normalized": false,
      "special": true
    },
    {
      "id": 30089,
      "content": "<extra_id_89>",
      "single_word": false,
      "lstrip": false,
      "rstrip": false,
      "normalized": false,
      "special": true
    },
    {
      "id": 30090,
      "content": "<extra_id_90>",
      "single_word": false,
      "lstrip": false,
      "rstrip": false,
      "normalized": false,
      "special": true
    },
    {
      "id": 30091,
      "content": "<extra_id_91>",
      "single_word": false,
      "lstrip": false,
      "rstrip": false,
      "normalized": false,
      "special": true
    },
    {
      "id": 30092,
      "content": "<extra_id_92>",
      "single_word": false,
      "lstrip": false,
      "rstrip": false,
      "normalized": false,
      "special": true
    },
    {
      "id": 30093,
      "content": "<extra_id_93>",
      "single_word": false,
      "lstrip": false,
      "rstrip": false,
      "normalized": false,
      "special": true
    },
    {
      "id": 30094,
      "content": "<extra_id_94>",
      "single_word": false,
      "lstrip": false,
      "rstrip": false,
      "normalized": false,
      "special": true
    },
    {
      "id": 30095,
      "content": "<extra_id_95>",
      "single_word": false,
      "lstrip": false,
      "rstrip": false,
      "normalized": false,
      "special": true
    },
    {
      "id": 30096,
      "content": "<extra_id_96>",
      "single_word": false,
      "lstrip": false,
      "rstrip": false,
      "normalized": false,
      "special": true
    },
    {
      "id": 30097,
      "content": "<extra_id_97>",
      "single_word": false,
      "lstrip": false,
      "rstrip": false,
      "normalized": false,
      "special": true
    },
    {
      "id": 30098,
      "content": "<extra_id_98>",
      "single_word": false,
      "lstrip": false,
      "rstrip": false,
      "normalized": false,
      "special": true
    },
    {
      "id": 30099,
      "content": "<extra_id_99>",
      "single_word": false,
      "lstrip": false,
      "rstrip": false,
      "normalized": false,
      "special": true
    }
  ],
  "normalizer": null,
  "pre_tokenizer": {
    "type": "ByteLevel",
    "add_prefix_space": false,
    "trim_offsets": true,
    "use_regex": true
  },
  "post_processor": {
    "type": "TemplateProcessing",
    "single": [
      {
        "SpecialToken": {
          "id": "<pad>",
          "type_id": 0
        }
      },
      {
        "Sequence": {
          "id": "A",
          "type_id": 0
        }
      },
      {
        "SpecialToken": {
          "id": "</s>",
          "type_id": 0
        }
      }
    ],
    "pair": [
      {
        "Sequence": {
          "id": "A",
          "type_id": 0
        }
      },
      {
        "Sequence": {
          "id": "B",
          "type_id": 1
        }
      }
    ],
    "special_tokens": {
      "</s>": {
        "id": "</s>",
        "ids": [
          1
        ],
        "tokens": [
          "</s>"
        ]
      },
      "<pad>": {
        "id": "<pad>",
        "ids": [
          0
        ],
        "tokens": [
          "<pad>"
        ]
      },
      "<unk>": {
        "id": "<unk>",
        "ids": [
          2
        ],
        "tokens": [
          "<unk>"
        ]
      }
    }
  },
  "decoder": {
    "type": "ByteLevel",
    "add_prefix_space": true,
    "trim_offsets": true,
    "use_regex": true
  },
  "model": {
    "type": "BPE",
    "dropout": null,
    "unk_token": "<unk>",
    "continuing_subword_prefix": null,
    "end_of_word_suffix": null,
    "fuse_unk": false,
    "byte_fallback": false,
    "ignore_merges": false,
    "vocab": {
      "<pad>": 0,
      "</s>": 1,
      "<unk>": 2,
      "!": 3,
      "#": 4,
      "&": 5,
      "'": 6,
      "(": 7,
      ")": 8,
      "*": 9,
      ",": 10,
      "-": 11,
      ".": 12,
      "/": 13,
      "0": 14,
      "7": 15,
      ":": 16,
      ";": 17,
      "<": 18,
      ">": 19,
      "?": 20,
      "@": 21,
      "A": 22,
      "B": 23,
      "C": 24,
      "D": 25,
      "E": 26,
      "F": 27,
      "I": 28,
      "L": 29,
      "M": 30,
      "N": 31,
      "O": 32,
      "P": 33,
      "R": 34,
      "S": 35,
      "T": 36,
      "U": 37,
      "V": 38,
      "X": 39,
      "Z": 40,
      "[": 41,
      "]": 42,
      "`": 43,
      "a": 44,
      "b": 45,
      "c": 46,
      "d": 47,
      "e": 48,
      "f": 49,
      "g": 50,
      "h": 51,
      "i": 52,
      "j": 53,
      "k": 54,
      "l": 55,
      "m": 56,
      "n": 57,
      "o": 58,
      "p": 59,
      "q": 60,
      "r": 61,
      "s": 62,
      "t": 63,
      "u": 64,
      "v": 65,
      "w": 66,
      "y": 67,
      "¡": 68,
      "¢": 69,
      "£": 70,
      "¤": 71,
      "¥": 72,
      "¦": 73,
      "§": 74,
      "¨": 75,
      "©": 76,
      "ª": 77,
      "«": 78,
      "¬": 79,
      "®": 80,
      "¯": 81,
      "°": 82,
      "±": 83,
      "²": 84,
      "³": 85,
      "´": 86,
      "µ": 87,
      "¶": 88,
      "·": 89,
      "¸": 90,
      "¹": 91,
      "º": 92,
      "»": 93,
      "¼": 94,
      "½": 95,
      "¾": 96,
      "¿": 97,
      "Â": 98,
      "Ã": 99,
      "Å": 100,
      "Ð": 101,
      "Ñ": 102,
      "Ó": 103,
      "â": 104,
      "ï": 105,
      "ð": 106,
      "Ċ": 107,
      "Ġ": 108,
      "Ģ": 109,
      "ģ": 110,
      "Ĥ": 111,
      "ĥ": 112,
      "Ħ": 113,
      "ħ": 114,
      "Ĩ": 115,
      "ĩ": 116,
      "Ī": 117,
      "ī": 118,
      "Ĭ": 119,
      "ĭ": 120,
      "Į": 121,
      "į": 122,
      "İ": 123,
      "ı": 124,
      "Ĳ": 125,
      "ĳ": 126,
      "Ĵ": 127,
      "ĵ": 128,
      "Ķ": 129,
      "ķ": 130,
      "ĸ": 131,
      "Ĺ": 132,
      "ĺ": 133,
      "Ļ": 134,
      "ļ": 135,
      "Ľ": 136,
      "ľ": 137,
      "Ŀ": 138,
      "ŀ": 139,
      "Ł": 140,
      "ł": 141,
      "Ń": 142,
      "ĠÐ": 143,
      "Ð°": 144,
      "Ð¾": 145,
      "Ð¸": 146,
      "Ðµ": 147,
      "Ð½": 148,
      "ÑĢ": 149,
      "ÑĤ": 150,
      "Ð»": 151,
      "Ñģ": 152,
      "Ñĥ": 153,
      "Ð´": 154,
      "Ð¼": 155,
      "Ð²": 156,
      "Ðº": 157,
      "Ñĭ": 158,
      "Ð½Ð°": 159,
      "ÑĮ": 160,
      "Ð¾Ð²": 161,
      "Ñı": 162,
      "ÑĤÐ¸": 163,
      "ÑĥÑĢ": 164,
      "ĠÐ²": 165,
      "Ð·": 166,
      "ÑĢÐ°": 167,
      "Ð»Ðµ": 168,
      "Ð³": 169,
      "Ð´Ð¼": 170,
      "Ð´Ð¼ÑĥÑĢ": 171,
      "£Ð´Ð¼ÑĥÑĢ": 172,
      "ÑĪ": 173,
      "ĠÐ½": 174,
      "£Ð´Ð¼ÑĥÑĢÑĤÐ¸": 175,
      "Ð¾Ð²Ð°": 176,
      "Ð¹": 177,
      "Ð±": 178,
      "Ñį": 179,
      "Ð´Ð¸": 180,
      "Ġ,": 181,
      "Ñĩ": 182,
      "ĠÐ£Ð´Ð¼ÑĥÑĢÑĤÐ¸": 183,
      "ĠÐº": 184,
      "Ð»ÑĮ": 185,
      "ĠÑĤ": 186,
      "ÐºÐ°": 187,
      "Ð¾ÑĢ": 188,
      "ĠÐľ": 189,
      "ĠÑģ": 190,
      "Ð¾Ð½": 191,
      "Ð¶": 192,
      "ÐµÑĢ": 193,
      "Ð°Ð»": 194,
      "ÑģÑĮ": 195,
      "Ð°Ð½": 196,
      "ÐµÐ²": 197,
      "ĠÐ½Ð°": 198,
      "Ð¿": 199,
      "ĠÑĢÐ°": 200,
      "ÐµÐ½": 201,
      "ĠÐ¿": 202,
      "ĠÐ¯": 203,
      "Ð°ÑĢ": 204,
      "ÑĭÐ½Ð°": 205,
      "Ð¸Ð½Ð°": 206,
      "ÑĭÐ½Ð°Ð¼": 207,
      "ÐºÐ¾": 208,
      "ĠÂ": 209,
      "Ðľ": 210,
      "ÐµÑĤ": 211,
      "Ñħ": 212,
      "ĠÐ£Ð´Ð¼ÑĥÑĢÑĤÐ¸Ðµ": 213,
      "Ð»Ð°": 214,
      "ĠÐ¡": 215,
      "ĠÐ¼": 216,
      "ÑģÑĤ": 217,
      "ĠÐĴ": 218,
      "Ð¸Ð½": 219,
      "ĠÐļ": 220,
      "ĠÐķ": 221,
      "Ñİ": 222,
      "ĠÑĥ": 223,
      "Ð°ÑĤ": 224,
      "ĠÂ»": 225,
      "Ð´Ð¸Ð¾": 226,
      "ĠÑĢÐ°Ð´Ð¸Ð¾": 227,
      "ĠÐ´": 228,
      "ÑĨ": 229,
      "ÑĭÐ½": 230,
      "ĠÐ¸": 231,
      "ĠÐĲ": 232,
      "ĠÐĿ": 233,
      "Ð»ÐµÐ½Ð°": 234,
      "Ó¥": 235,
      "ĠÐ¾": 236,
      "ÑĤÐ¾": 237,
      "Ñĳ": 238,
      "ÑĬ": 239,
      "Ð»Ð¸": 240,
      "ĠÐĺ": 241,
      "Ð£Ð´Ð¼ÑĥÑĢÑĤÐ¸": 242,
      "Ð£Ð´Ð¼ÑĥÑĢÑĤÐ¸Ð¸": 243,
      "ĠÐ¢": 244,
      "ĠÐ²Ð£Ð´Ð¼ÑĥÑĢÑĤÐ¸Ð¸": 245,
      "Â«": 246,
      "ĠÐľÑĭÐ½Ð°Ð¼": 247,
      "ÐºÐ¸": 248,
      "ÐĲ": 249,
      "ĠÐ³": 250,
      "ÑĢÐµ": 251,
      "Ð³Ð°": 252,
      "Ð»Ð¾": 253,
      "ĠÐĵ": 254,
      "ĠÑĤÐµ": 255,
      "Ð´Ð°": 256,
      "Ðļ": 257,
      "Ð½Ð¸": 258,
      "ĠÐĳ": 259,
      "Ð»Ñį": 260,
      "ĠÐŁ": 261,
      "Ð¾Ñģ": 262,
      "Ð¾Ð¼": 263,
      "ÑĤÐ¸Ð½Ð°": 264,
      "ÐĴ": 265,
      "Ð¢": 266,
      "ĠÐ»": 267,
      "Ð¾ÑĤ": 268,
      "ÑĦ": 269,
      "ÑĳÑģ": 270,
      "ÑĢÐ¸": 271,
      "ĠÐ½Ð¾": 272,
      "Ð°Ð»Ðµ": 273,
      "ĠÑĪ": 274,
      "Ðķ": 275,
      "ĠÐ±": 276,
      "ĠÐł": 277,
      "Ð¸ÑĤ": 278,
      "Ð¾Ð´": 279,
      "ÐľÑĭÐ½Ð°Ð¼": 280,
      "Ð¼Ðµ": 281,
      "ĠÑĤÐµÐ»Ðµ": 282,
      "ÑıÐ½": 283,
      "ÑĭÑģÑĮ": 284,
      "ÑģÐ¸": 285,
      "ÐµÐ²Ð°": 286,
      "ĠÐ£Ð´Ð¼ÑĥÑĢÑĤÐ¸Ð¸": 287,
      "ĠÑı": 288,
      "ÐºÐ°Ð½Ð°": 289,
      "ĠÑĤÐµÐ»ÐµÐºÐ°Ð½Ð°": 290,
      "ÑĬÑĳÑģ": 291,
      "ĠÐĽ": 292,
      "ÐĽ": 293,
      "Ð°Ð»ÐµÐ½": 294,
      "ĠÐŀ": 295,
      "ĠÐķÐ»ÐµÐ½Ð°": 296,
      "ĠÐ°": 297,
      "Ð½Ð¾": 298,
      "ÐºÐ¾Ð²": 299,
      "ÐµÑģ": 300,
      "ÐķÐ»ÐµÐ½Ð°": 301,
      "ÐµÐ·": 302,
      "ÑĪÐ°": 303,
      "Ð¸Ð»": 304,
      "Ð´Ðµ": 305,
      "Ð¸Ñģ": 306,
      "Ġ?": 307,
      "ÑĢÑĥ": 308,
      "Ðŀ": 309,
      "ÑıÐ½Ð¾Ð²Ð°": 310,
      "Ð¾Ð»": 311,
      "ĠÐĿÐ¸": 312,
      "Ð¡": 313,
      "Ðĺ": 314,
      "ÑĤÓ¥": 315,
      "ÑĢÐ¾": 316,
      "ĠÐ¡Ð°": 317,
      "Ð°Ð»ÐµÐ½ÑĤÐ¸Ð½Ð°": 318,
      "Ð¼Ð¸": 319,
      "ÐĿ": 320,
      "ĠÐĹ": 321,
      "ÐºÑģ": 322,
      "ĠÐ·": 323,
      "Ð»ÑįÐ½": 324,
      "Ð»Ñĭ": 325,
      "ÐºÑĥ": 326,
      "ĠÑĩ": 327,
      "ÐµÐ¼": 328,
      "Ð¸Ñħ": 329,
      "ĠÐĶ": 330,
      "ÑİÐ±": 331,
      "Ñī": 332,
      "Ð¼ÐµÐ»ÑĮ": 333,
      "ĠÑĥÐ¶": 334,
      "ÐµÑĢÐ°": 335,
      "ĠÐķÐ¼ÐµÐ»ÑĮ": 336,
      "Ð¸Ð·": 337,
      "ÐµÐ¹": 338,
      "ĠÐķÐ¼ÐµÐ»ÑĮÑıÐ½Ð¾Ð²Ð°": 339,
      "Ð¸Ñĩ": 340,
      "Ð¼Ð°": 341,
      "Ðĵ": 342,
      "ĠÑĪÑĥ": 343,
      "Ð¸Ñı": 344,
      "Ð±Ð¾ÑĤ": 345,
      "ÑĭÑĢ": 346,
      "Ġ:": 347,
      "Ð»ÑĮÐ³Ð°": 348,
      "Ð°Ð¹": 349,
      "ÑĥÐ¶": 350,
      "ĠÐ²Ð°Ð»": 351,
      "ÑĢÐ°Ð¼": 352,
      "ĠÑį": 353,
      "ÐµÐ¿": 354,
      "Ð½Ñı": 355,
      "Ð¾Ð³": 356,
      "Ð°Ð²": 357,
      "ÐµÐ»": 358,
      "Ð»ÐµÐºÑģ": 359,
      "Ð°Ð½Ð¾Ð²Ð°": 360,
      "ĠÑĢÐ°Ð±Ð¾ÑĤ": 361,
      "ÐºÐ¾Ð²Ð°": 362,
      "ÐµÐ½ÑĮ": 363,
      "Ð£": 364,
      "ÑĭÐ·": 365,
      "ÐºÑĤ": 366,
      "ĠÐ¨": 367,
      "ÑĥÐ½": 368,
      "Ð¾Ð¶": 369,
      "ĠÂ«": 370,
      "ÐºÐµ": 371,
      "ĠÐ½Ðµ": 372,
      "ĠÐ§": 373,
      "ĠÐĴÐ°": 374,
      "ĠÑĤÐµÐ»ÐµÐºÐ°Ð½Ð°Ð»Ðµ": 375,
      "ĠÑĤÐµÐ»ÐµÐºÐ°Ð½Ð°Ð»": 376,
      "Ð²Ð°": 377,
      "Ð¾Ð½Ð¾Ð²Ð°": 378,
      "ÐµÐ´": 379,
      "ÑĤÑĮ": 380,
      "ÑĮÑı": 381,
      "ÑĤÐ°": 382,
      "ÐµÐ³": 383,
      "ÑĤÑį": 384,
      "..": 385,
      "Ð°ÑĤÐ¾Ð²Ð°": 386,
      "ÑģÑı": 387,
      "Ð¼Ñĭ": 388,
      "Óµ": 389,
      "Ð·Ñĭ": 390,
      "Ġ!": 391,
      "Ð²Ð°Ð½": 392,
      "ÐºÐ¾Ð»Ð°": 393,
      "ÑĩÐµÐ½ÑĮ": 394,
      "Ð°Ð´": 395,
      "ÐŁ": 396,
      "Ġ-": 397,
      "ĠÐĿÐ¸ÐºÐ¸": 398,
      "ÑĬÑı": 399,
      "ĠÐ¡Ð°ÑĢÐ°Ð¼": 400,
      "ĠÐ¡Ð°ÑĢÐ°Ð¼Ð°ÑĤÐ¾Ð²Ð°": 401,
      "ÑģÑĮÐºÐ¾": 402,
      "ĠÑĦ": 403,
      "Ð¾ÑĪÐ°": 404,
      "Ð¾Ð²ÑĮ": 405,
      "ÑĥÐ»": 406,
      "ĠÐ»Ð¾ÑĪÐ°": 407,
      "ĠÐĲÐ»ÐµÐºÑģ": 408,
      "ÑĭÐ»": 409,
      "ÓŁ": 410,
      "ĠÑħ": 411,
      "Ð¾Ð·": 412,
      "ĠÐļÐ¾ÑĢ": 413,
      "ÑİÐ±Ð¾Ð²ÑĮ": 414,
      "Ð¾Ð¹": 415,
      "ĠÐĴÐ°Ð»ÐµÐ½ÑĤÐ¸Ð½Ð°": 416,
      "ÐµÑĢÐ³": 417,
      "ÐºÐ°Ð·": 418,
      "ĠÐĿÐ°": 419,
      "ÑıÐ±": 420,
      "ĠÐĿÐ¸ÐºÐ¸ÑĤÐ¸Ð½Ð°": 421,
      "Ó§": 422,
      "Ð¾Ð»ÑĮ": 423,
      "ÑĥÑĤ": 424,
      "ÑĥÐ·": 425,
      "ÑĭÑĤ": 426,
      "Ð½ÑĤ": 427,
      "ÑĪÐµÐ²": 428,
      "ÐĴÐ°Ð»ÐµÐ½ÑĤÐ¸Ð½Ð°": 429,
      "Ð°Ð½Ð´": 430,
      "ĠÐºÑĥ": 431,
      "Ð¾Ð´Ð¸": 432,
      "ĠÐĺÐ¶": 433,
      "Ð¸ÑģÐ°": 434,
      "Ð°Ðº": 435,
      "Ð½Ðµ": 436,
      "ĠÑĤÐ°": 437,
      "ĠÐºÐ°ÑĢ": 438,
      "ÑĨÐ¸": 439,
      "ÐľÐ°ÑĢ": 440,
      "ÑĨÐ¾Ð²Ð°": 441,
      "ĠÐ²Ñĭ": 442,
      "ÓµÐµ": 443,
      "ÑģÐºÐ¸": 444,
      "ÑĥÐ´": 445,
      "ĠÐļÐ¾ÑĢÐµÐ¿": 446,
      "ÐľÐ¾Ð½": 447,
      "ÑĥÑĪ": 448,
      "Ð¾Ð´Ð½Ñı": 449,
      "ÑĥÐº": 450,
      "ĠÐłÑıÐ±": 451,
      "Ð°Ð½Ð¾Ð²": 452,
      "ÑĭÐ¼": 453,
      "Ð¸ÑħÐ¾Ð½Ð¾Ð²Ð°": 454,
      "ĠÐĲÑĢ": 455,
      "ĠÐµ": 456,
      "ĠÐ¾Ð±": 457,
      "Ð°Ñħ": 458,
      "ĠÐ¢Ð¸ÑħÐ¾Ð½Ð¾Ð²Ð°": 459,
      "ÑĩÐ¸": 460,
      "ĠÐŀÐ»ÑĮÐ³Ð°": 461,
      "ÐµÑĢÐ³ÐµÐ¹": 462,
      "Ð²ÐµÑĤ": 463,
      "ĠÐļÐ¾ÑĢÐµÐ¿Ð°Ð½Ð¾Ð²Ð°": 464,
      "ÑĭÑģ": 465,
      "ĠÐ¿Ð¾": 466,
      "Ð°ÑĢÐ¸ÑģÐ°": 467,
      "Ð¾Ð²Ð¾ÑĢ": 468,
      "ÐµÐ³Ð¾Ð´Ð½Ñı": 469,
      "ÐºÐ²": 470,
      "ĠÐŃ": 471,
      "ÑĥÑĢÑĤ": 472,
      "ĠÐ¼Ðµ": 473,
      "ĠÐ£": 474,
      "ÑĭÑĪ": 475,
      "Ð°Ð»Ð¸Ð½Ð°": 476,
      "ĠÐ¢Ñĥ": 477,
      "ĠÐ¶": 478,
      "ÑĭÐº": 479,
      "ĠÑģÐºÐ°Ð·": 480,
      "Ðł": 481,
      "Ð°Ð½Ð´ÑĢ": 482,
      "ÑĭÓµÐµ": 483,
      "ĠÐ¾ÑĩÐµÐ½ÑĮ": 484,
      "Ð°Ð¼": 485,
      "ÑģÑĤÐ²": 486,
      "ÐµÑĤÓ¥": 487,
      "ĠÐĴÐ°ÑģÐ¸": 488,
      "Ðĳ": 489,
      "Ð²Ð°Ð»": 490,
      "Ð°Ð·": 491,
      "ÐºÐ¾Ð¹": 492,
      "ÑĢÑĭÑģÑĮ": 493,
      "ĠÐĺÐ²Ð°Ð½": 494,
      "ĠÑĩÑĤÐ¾": 495,
      "ĠÐ³Ð¾Ð²Ð¾ÑĢ": 496,
      "£Ð´Ð¼ÑĥÑĢÑĤ": 497,
      "Ð¼Ð¸ÑĢ": 498,
      "Ð¾ÑģÑĤ": 499,
      "Ð½Ð¾Ð¹": 500,
      "ÐµÐ½ÑĤ": 501,
      "Ð»Ð¸Ð½Ð°": 502,
      "Ð¾ÑĪ": 503,
      "Ð·ÑĮ": 504,
      "Ð³Ð¾ÑĢ": 505,
      "ÐŀÐ»ÑĮÐ³Ð°": 506,
      "ĠÐ°Ð´": 507,
      "ĠÑĢÐ°Ð±Ð¾ÑĤÐ°": 508,
      "Ð¸Ð´": 509,
      "ÑģÐºÐ¸Ð¹": 510,
      "ÑĥÑģ": 511,
      "ĠÑģÐºÐ°Ð·Ð°Ð»": 512,
      "Ð¸Ð´Ð°": 513,
      "Ð¾Ð»Ð¾": 514,
      "ÐµÐ»ÑĮ": 515,
      "ÐµÐº": 516,
      "ÐºÐ¸Ð½Ð°": 517,
      "ĠÐ¾ÑĤ": 518,
      "ĠÐľÐ°ÑĢ": 519,
      "Ð¨": 520,
      "Ġ)": 521,
      "ÐĶ": 522,
      "Ð¢Ð°": 523,
      "Ð¾Ð±": 524,
      "ÐºÐ°Ñı": 525,
      "Ð³Ð¸": 526,
      "ÐĴÐĲ": 527,
      "ĠÐ£Ð´Ð¼ÑĥÑĢÑĤ": 528,
      "Ð¸Ð»Ñı": 529,
      "ĠÐĿÐ¸ÐºÐ¾Ð»Ð°": 530,
      "Ð»Ð°Ð´Ð¸": 531,
      "ĠÐ»Ð¾ÑĪÐ°Ð´Ð¸": 532,
      "ĠÑģÐµÐ³Ð¾Ð´Ð½Ñı": 533,
      "ĠÐ¼Ð¾Ð½": 534,
      "ĠÐĲÑĢÐºÐ°": 535,
      "ĠÑģÑı": 536,
      "ĠÑĥÐ³": 537,
      "Ð»Ñı": 538,
      "ĠÐºÐ¾Ð¼": 539,
      "ÐµÑĢÐµÐ²": 540,
      "ĠÐ¢ÑĥÐ³Ð°": 541,
      "Ð»Ð¾Ð²": 542,
      "Ð´Ð¸Ñı": 543,
      "ĠÐ½Ð°Ñĥ": 544,
      "ĠÑĢÑĥ": 545,
      "Ð°Ð»Ð¸": 546,
      "Ð´Ñĭ": 547,
      "ĠÐ½Ð¸": 548,
      "ĠÐĴÐ°ÑģÐ¸Ð»ÑĮ": 549,
      "ĠÐ³Ð¾ÑĢ": 550,
      "Ð½Ñĭ": 551,
      "ĠÐĲÐ½": 552,
      "ĠÐ¢ÑĥÐ³Ð°ÑĪ": 553,
      "ĠÑįÑĤÐ¾": 554,
      "Ġ..": 555,
      "ĠÐ¢ÑĥÐ³Ð°ÑĪÐ¾Ð²Ð°": 556,
      "ĠÐ²ÐµÑĢÐ°": 557,
      "ĠÑĤÑĥÐ¶": 558,
      "ĠÑģÐ¿": 559,
      "ĠÐ·Ð°": 560,
      "ÐµÐ»Ð°": 561,
      "ĠÐ¿ÑĢÐ¾": 562,
      "Ð°ÑĢÐ¾Ð²": 563,
      "ĠÐĲÑĢÐºÐ°ÑĪÐµÐ²": 564,
      "ÐºÐ²Ð¾ÑĢ": 565,
      "âĢ": 566,
      "ÐµÐ²Ñģ": 567,
      "ÐºÑĤÐ¾ÑĢ": 568,
      "ĠÐ¡ÐºÐ²Ð¾ÑĢ": 569,
      "Ð»ÑįÑģÑĮ": 570,
      "Ġ...": 571,
      "ĠÐ¡ÐºÐ²Ð¾ÑĢÑĨÐ¾Ð²Ð°": 572,
      "ĠÐĲÐ»ÐµÐºÑģÐ°Ð½Ð´ÑĢ": 573,
      "Ð»Ð°Ð´Ð¸Ð¼Ð¸ÑĢ": 574,
      "ÐµÑĩ": 575,
      "ÑģÑĤÐ°": 576,
      "ĠÑĥÐ´Ð¼ÑĥÑĢ": 577,
      "Ð´ÐµÐ¶": 578,
      "ĠÐĺÐ¶ÐµÐ²Ñģ": 579,
      "ÐĹ": 580,
      "ÑĭÐ½Ñĭ": 581,
      "ĠÐ»ÑİÐ±": 582,
      "ĠÐ¸Ð½ÑĤ": 583,
      "ÑĢÐ¸Ð¹": 584,
      "ĠÐºÐµ": 585,
      "ĠÐĽÑİÐ±Ð¾Ð²ÑĮ": 586,
      "Ð¸Ð²Ð°Ð»": 587,
      "Ð²ÐµÑĤÐ»Ð°": 588,
      "Ð°ÑĤÑĮÑı": 589,
      "ĠÑĤÑĭ": 590,
      "ĠÐłÐ¾Ð¼": 591,
      "ĠÐ§ÑĤÐ¾": 592,
      "ĠÐ³Ð¾ÑĢÐ¾Ð´": 593,
      "ĠÐĹÐ°Ñħ": 594,
      "ĠÑĥÐ´Ð¼ÑĥÑĢÑĤ": 595,
      "ÑĮÑĭ": 596,
      "Ð½Ð¸Ð³Ð°": 597,
      "ĠÐ°ÑĢ": 598,
      "Ð²ÐµÑĤÐ»Ð°Ð½Ð°": 599,
      "Ð±Ð¸Ð½Ð°": 600,
      "ÑĩÐ°": 601,
      "ĠÑĢÑĥÐºÐ¾Ð²": 602,
      "ĠÐļÐ°": 603,
      "ĠÑıÑĢÐ°": 604,
      "ĠÐ¤": 605,
      "ÐŃ": 606,
      "Ð·Ñį": 607,
      "Ð´Ð¸Ð½": 608,
      "ÐºÐ¾Ð»Ð¾": 609,
      "ÐŀÐĴÐĲ": 610,
      "Ð°ÑĤÑĮÑıÐ½Ð°": 611,
      "ÐµÐ½Ð¸": 612,
      "ÐµÐ½Ð½Ð°": 613,
      "ĠÐ¼ÑĭÐ½": 614,
      "Ð´Ð¸Ð¹": 615,
      "Ð¸Ð½Ð°Ð¸Ð´Ð°": 616,
      "Ð»Ð°Ð·": 617,
      "Ð¸ÑĢÐ°": 618,
      "ÑĥÐ±": 619,
      "Ġ(": 620,
      "Ð´Ð¾": 621,
      "ĠÐľÐ¸Ñħ": 622,
      "Ð´ÐµÐ¶Ð´Ð°": 623,
      "ĠÐĹÐ°ÑħÐ°ÑĢÐ¾Ð²": 624,
      "ÑĢÐ¸Ð½Ð°": 625,
      "ĠÐ¡ÐµÑĢÐ³ÐµÐ¹": 626,
      "ÐĽÑİÐ±Ð¾Ð²ÑĮ": 627,
      "ÑıÑĤ": 628,
      "ÑĩÐµÑĢÐ°": 629,
      "ĠÑģÑıÑĢÑĭÑģÑĮ": 630,
      "ĠÐ´ÐµÐ»Ð°": 631,
      "ÐµÐ½Ð½Ð°Ð´Ð¸Ð¹": 632,
      "ĠÐ²ÑĩÐµÑĢÐ°": 633,
      "ÐµÐ»Ð¾": 634,
      "Ð¸Ð¼": 635,
      "Ð³ÑĢÐ°": 636,
      "ÑģÐ»Ð¸": 637,
      "ĠÑģÑĤ": 638,
      "ĠÐ¿ÑĢÐ¸": 639,
      "Ð¸Ð½Ñį": 640,
      "Ð»ÑĮÐ±Ð¸Ð½Ð°": 641,
      "ÑĢÑı": 642,
      "ĠÐ²Ð¸": 643,
      "ĠÑĢÐ°Ð±Ð¾ÑĤÐ°ÐµÑĤ": 644,
      "Ð¸ÑģÑĤ": 645,
      "ÑĨÐµ": 646,
      "ĠÐ¥": 647,
      "Ð¼Ð¿": 648,
      "ÐµÑĢÐ½": 649,
      "Ð¼Ð¸ÑĤ": 650,
      "Ð¾Ð½Ð¾": 651,
      "ÑĢÐµÐ¼": 652,
      "ĠÑĥÐ¶Ð°": 653,
      "ĠÐ®": 654,
      "ÑĤÓ¥ÑģÑĮ": 655,
      "ĠÐĵÑĥÑĢ": 656,
      "ĠÐ²ÐµÑĤ": 657,
      "ĠÐºÐ¸Ð²Ð°Ð»": 658,
      "ĠÐºÐ¾Ð½": 659,
      "ĠÐĵÑĥÑĢÑĮ": 660,
      "Ð°ÑĪ": 661,
      "ÑĥÐºÐµÑĤ": 662,
      "Ð°ÑĤÑĮ": 663,
      "Ð´ÑĮ": 664,
      "Ð¾ÐºÑĥ": 665,
      "ÑĥÑĪÐ°": 666,
      "ĠÐĵÑĥÑĢÑĮÑıÐ½Ð¾Ð²Ð°": 667,
      "ÑĢÐ¾Ð²": 668,
      "Ð¢ÑĥÐ¶": 669,
      "Ð¾Ðº": 670,
      "ĠÐĳÑĥÑĪ": 671,
      "ĠÐ·Ð°Ð²": 672,
      "Ð¼Ð°ÐºÐ¸Ð½Ð°": 673,
      "ĠÐĳÑĥÑĪÐ¼Ð°ÐºÐ¸Ð½Ð°": 674,
      "ÑģÐ¸Ñı": 675,
      "ĠÐłÑıÐ±Ð¸Ð½": 676,
      "ĠÑİ": 677,
      "ĠÐºÐ°": 678,
      "ĠÐ´ÑĢÑĥ": 679,
      "ÑģÑģ": 680,
      "ÐºÑĭ": 681,
      "ÐµÐ²Ð¸Ñĩ": 682,
      "ÑģÑĭ": 683,
      "ĠÐ´ÐµÑĢÐµÐ²": 684,
      "ÑģÑĤÐ²Ð¾": 685,
      "ĠÐĴÐ°ÑģÐ¸Ð»ÑĮÐµÐ²Ð°": 686,
      "ĠÑģÑĳ": 687,
      "ÑģÑĤÑĮ": 688,
      "âĢĶ": 689,
      "ĠÑĢÐµ": 690,
      "ÐµÐ±": 691,
      "ÑĤÐµ": 692,
      "ĠÐĽÐ°ÑĢÐ¸ÑģÐ°": 693,
      "ĠÐłÑıÐ±Ð¸Ð½Ð°": 694,
      "Ð³Ð¾": 695,
      "ĠÐĵÐ°Ð»Ð¸Ð½Ð°": 696,
      "ĠÐ¾Ð´": 697,
      "Ð¸Ð»Ð°": 698,
      "ĠÑĤÐ¾Ð½": 699,
      "Ð£ÐĽ": 700,
      "Ð¸Ð»ÑıÑĥÑĪÐ°": 701,
      "ÑįÐ·": 702,
      "ĠÐ¿ÐµÑĢ": 703,
      "ÑĤÑĥÑĢ": 704,
      "ĠÐĴÐ»Ð°Ð´Ð¸Ð¼Ð¸ÑĢ": 705,
      "Ð³ÐµÑģ": 706,
      "ÑĤÓ¥Ð·": 707,
      "ĠÐłÐ¾Ð¼Ð°Ð½Ð¾Ð²": 708,
      "Ð½Ð¸Ðº": 709,
      "ĠÐ¾ÐºÐ¾Ð»Ð¾": 710,
      "ÐĽÐ°ÑĢÐ¸ÑģÐ°": 711,
      "ĠÑģÐµÐ¼": 712,
      "ĠÐĺÐ¶ÐµÐ²ÑģÐºÐµ": 713,
      "ÑĢÐ¾Ñģ": 714,
      "ÑıÐ¼Ð¸": 715,
      "Ð³ÑĥÑĢ": 716,
      "ĠÑĥÐ¶Ðµ": 717,
      "ĠÑĢÑĥÐºÐ¾Ð²Ð¾Ð´Ð¸": 718,
      "Ð¸ÐºÑĥ": 719,
      "Ð¸Ð»Ð¸": 720,
      "ÐºÐ¸Ð½": 721,
      "Ð¾Ð»ÑĮÐºÐ¾": 722,
      "Ð¾Ð²Ð¸Ñĩ": 723,
      "ÑįÐ½": 724,
      "ĠÐľÐ¸Ð½": 725,
      "ÐĺÐ²Ð°Ð½": 726,
      "ÑĤÑĢÐ°": 727,
      "ÑĤÐ¸Ð²": 728,
      "Ð·Ð¸Ð½": 729,
      "ÑĪÐµÐ»": 730,
      "Ð°Ð´ÓŁ": 731,
      "ĠÐ´ÑĭÑĪ": 732,
      "ÑĪÑĮ": 733,
      "ĠÐŁÐµÑĤ": 734,
      "ĠÑĤÑĥÐ½": 735,
      "Ð¸ÑĢ": 736,
      "ĠÐ¼ÑĥÐºÐµÑĤ": 737,
      "ĠÐłÑıÐ±Ð¸Ð½Ð¸Ð½Ð°": 738,
      "Ð¸Ð±": 739,
      "ÐĵÐ°Ð»Ð¸Ð½Ð°": 740,
      "ĠÑħÐ¾Ð´Ð¸": 741,
      "Ð»Ð¸Ð¹": 742,
      "ÑĭÐ·ÑĮÑĭ": 743,
      "Ð¾ÑĢÑĤ": 744,
      "ĠÐĴÐ°Ñħ": 745,
      "Ð¼ÑĭÐ½": 746,
      "Ð°Ð½Ð¸": 747,
      "ÑģÐ¿": 748,
      "ĠÐ³Ð¸Ð½Ñį": 749,
      "ÐµÐµÐ²": 750,
      "ĠÐ¼Ñĭ": 751,
      "ĠÐķÑī": 752,
      "ÑĨÐ¸Ñı": 753,
      "ĠÐ±Ð¾Ð»ÑĮ": 754,
      "ÑĤÐ¸Ð½": 755,
      "ÑĢÐ°ÐµÐ²Ð°": 756,
      "ĠÐŀÑĩÐµÐ½ÑĮ": 757,
      "ÑģÑĤÑĭ": 758,
      "Ð°Ð³": 759,
      "Ð½Ð¸ÐºÐ¾Ð²Ð°": 760,
      "Ð¡ÐµÑĢÐ³ÐµÐ¹": 761,
      "ÑĤÓ¥ÑģÑĮÐºÐ¾": 762,
      "ÑīÐ¸": 763,
      "ĠÐ»Ð¾ÑĪÐ°Ð´ÑĮ": 764,
      "Ð½Ð¸Ð³Ð°ÑĢÐ°ÐµÐ²Ð°": 765,
      "Ð°ÑĢÐ°": 766,
      "ÑĤÑĭ": 767,
      "Ð°Ð»Ð°": 768,
      "ĠÐ¿Ñĥ": 769,
      "ĠÐľÐ¸Ð½Ð½Ð¸Ð³Ð°ÑĢÐ°ÐµÐ²Ð°": 770,
      "ĠÑĨ": 771,
      "ÑĪÐ¸": 772,
      "Ð±Ð¾": 773,
      "ĠÓ": 774,
      "ĠÐ½Ð°Ð¿": 775,
      "ĠÐķÐ²": 776,
      "Ð¼ÐµÐ½": 777,
      "Ð°Ð»ÑĮ": 778,
      "ÐĲÐ»ÐµÐºÑģ": 779,
      "Ð»Ð¾Ð²Ð°": 780,
      "ÑģÐ°": 781,
      "Ð¼ÐµÑĢ": 782,
      "Ð¾ÑĢÑĭ": 783,
      "ĠÐ¼Ð°ÑĢ": 784,
      "Ð½Ð¸ÐºÐ¾Ð²": 785,
      "ĠÐ²ÑĢÐµÐ¼": 786,
      "ÑĢÐ°Ð·": 787,
      "ĠÐ³Ð¾Ð¶": 788,
      "Ð¸ÑĩÐ¸": 789,
      "ĠÐ´ÐµÐ»Ð°ÑĤÑĮ": 790,
      "ÐļÐ¸Ð½": 791,
      "ĠÐºÑĥÐ»Ñį": 792,
      "Ð°Ð´ÓŁÑĭÐ¼": 793,
      "ĠÐ¿Ð¾Ð½": 794,
      "ÐĲÐ¢": 795,
      "ĠÐµÑī": 796,
      "Ð¼Ð¿Ð¾ÑĤ": 797,
      "ÑĢÐµÐ·ÑĮ": 798,
      "ÑĢÐµÐ·ÑĮÐ³ÑĥÑĢ": 799,
      "ĠÐĲÐ½Ð°": 800,
      "ĠÐµÑģÐ»Ð¸": 801,
      "ĠÐĶÐ¼Ð¸ÑĤ": 802,
      "ĠÐ°Ð´ÑıÐ¼Ð¸": 803,
      "ĠÐ¸Ð½ÑĤÐµÑĢ": 804,
      "ÑĥÑħ": 805,
      "Ð½ÑĭÐ¹": 806,
      "ĠÐ¢Ð°ÑĤÑĮÑıÐ½Ð°": 807,
      "ÐµÐ»Ð¾Ð²": 808,
      "Ð°Ð»ÐµÐ½ÑĮ": 809,
      "ĠÐ¼ÐµÐ»Ð¾": 810,
      "ÐµÑģÑĮ": 811,
      "Ð¸Ð¿": 812,
      "ÑĥÐ»Ð°": 813,
      "ĠÐ°Ð´ÓŁ": 814,
      "ĠâĢĶ": 815,
      "Ð¸ÐºÐ°": 816,
      "Ð¾Ð²Ð½Ð°": 817,
      "ĠÓĿ": 818,
      "Ð³ÑĥÑĢÑĤ": 819,
      "ĠÐ¡Ð²ÐµÑĤÐ»Ð°Ð½Ð°": 820,
      "Ð´ÑĢÐµ": 821,
      "ÑĩÑĭ": 822,
      "ĠÐłÐ¾Ñģ": 823,
      "ÐµÐµÐ²Ð°": 824,
      "ÑģÑį": 825,
      "ĠÑģÐµÑĢ": 826,
      "Ð´ÐµÐ»": 827,
      "ÐµÐºÑĤ": 828,
      "ĠÐľÐ¾Ñģ": 829,
      "Ð°Ð»Ñĭ": 830,
      "ÐĺÐĿ": 831,
      "ÐºÐ°ÑĢ": 832,
      "ĠÐ´ÑĭÑĢ": 833,
      "ĠÐĿÐ°Ð´ÐµÐ¶Ð´Ð°": 834,
      "Ð½Ñį": 835,
      "Ð»Ð½Ð°": 836,
      "ĠÑĤÐ¾Ð»ÑĮÐºÐ¾": 837,
      "ÑİÑĤ": 838,
      "Ð»Ð°Ð·Ð¾Ð²": 839,
      "ĠÐºÐ¾ÑĪ": 840,
      "Ð¶Ðµ": 841,
      "ÐºÐ¾Ð¼": 842,
      "ÐľÐ¸": 843,
      "Ð¾Ð´Ð°": 844,
      "ĠÐ¿Ð¾Ð¼": 845,
      "ÑīÐµ": 846,
      "ĠÐ³Ð¾Ð²Ð¾ÑĢÐ¸Ð»": 847,
      "ĠÐĿÐ¸ÐºÐ¾Ð»Ð°Ð¹": 848,
      "ĠÐºÑĭÐ»": 849,
      "ĠÐ¸Ð´": 850,
      "Ð¾Ð³Ð´": 851,
      "ĠÐ²ÑĢÐµÐ¼Ñı": 852,
      "ÑıÑĤÑĮ": 853,
      "Ð»ÐµÐ²": 854,
      "Ð±Ð°": 855,
      "Ð°ÑĤÑĭÐ½": 856,
      "ĠÐ¸Ð½ÑĤÐµÑĢÐµÑģ": 857,
      "ÑĢÑĤ": 858,
      "ĠÐĴÐ°ÑħÑĢÑĥ": 859,
      "ÑĬÑĳ": 860,
      "ĠÑĪÐºÐ¾Ð»Ð°": 861,
      "Ð¾Ð³Ð´Ð°": 862,
      "Ð°ÑĪÐ°": 863,
      "ĠÐ½Ð°Ð´Ð¾": 864,
      "ĠÐĽÐµ": 865,
      "Ð¸Ð»Ð¾Ð²Ð°": 866,
      "Ó§Ð»": 867,
      "Ð¸ÑĢÐ¾": 868,
      "ÑĢÐ¾Ð²Ð°": 869,
      "ÑĢÐ°Ð²": 870,
      "Ð´Ð¼Ð¸Ð»Ð°": 871,
      "Ð±Ð¸ÑĢÐ°": 872,
      "ĠÐ¼Ð¸": 873,
      "ÑİÐ´Ð¼Ð¸Ð»Ð°": 874,
      "ÑģÐ¸Ð¼": 875,
      "ĠÑĩÐµÐ»Ð¾Ð²": 876,
      "ĠÐĸ": 877,
      "ĠÐĺÑĢÐ¸Ð½Ð°": 878,
      "Ð¸ÑĤÑĮ": 879,
      "ĠÑĥÑģÑĮ": 880,
      "ÑĬÑĳÑģÑĭÐ·": 881,
      "ĠÐ°Ð²": 882,
      "Ð»Ó¥": 883,
      "ĠÐ½Ð¾Ð²": 884,
      "ĠÐ´ÑĢÑĥÐ³Ð¸": 885,
      "Ð¯": 886,
      "ÑģÐº": 887,
      "Ð´Ð°ÑĤ": 888,
      "ĠÐ¡ÑĤ": 889,
      "ĠÐ¾Ð³": 890,
      "ĠÐĵÐµÐ½Ð½Ð°Ð´Ð¸Ð¹": 891,
      "ĠÐĹÐ¸Ð½Ð°Ð¸Ð´Ð°": 892,
      "ĠÑĪÑĥÐ¼Ð¿Ð¾ÑĤ": 893,
      "ÐµÐ´ÑĮ": 894,
      "Ð¸Ð»Ð¾": 895,
      "ĠÐĿÐ°ÑĤ": 896,
      "ĠÐľÐ¸ÑħÐ°Ð¹": 897,
      "ĠÐ¸Ð³ÑĢÐ°": 898,
      "Ó¥Ð³": 899,
      "ĠÑĪÐºÐ¾": 900,
      "Ð§": 901,
      "ĠÓŁ": 902,
      "ĠÐ¼Ð¾Ð»Ð¾": 903,
      "ĠÐĵÑĢÐ¸": 904,
      "ĠÐ»Ñİ": 905,
      "ÑģÑĤÐ°ÑģÐ¸Ñı": 906,
      "Ð°ÑģÑĮ": 907,
      "ÑĥÑĩ": 908,
      "ĠÐļÑĥÐ·": 909,
      "ÑĢÐµÐ·": 910,
      "Ð°Ð¸Ð»": 911,
      "Ð¾Ð¿": 912,
      "ÐµÑĢÑĤ": 913,
      "ĠÐŁÐµÑĢ": 914,
      "ĠÐ£Ð´Ð¼ÑĥÑĢÑĤÑģÐºÐ¸Ð¹": 915,
      "Ð¤": 916,
      "Ð»ÑĮÐºÐ¾": 917,
      "ÑĨÐ°": 918,
      "ĠÐĳÐ¾Ð³Ð´": 919,
      "ĠÐ´ÑĢÑĥÐ³Ð¸Ðµ": 920,
      "ÐĲÐ½": 921,
      "ÑĭÑĢÑĭÑģ": 922,
      "ÑĪÐµÐ²Ð°": 923,
      "ĠÐºÐ¾Ð»": 924,
      "ĠÐºÑĭÐº": 925,
      "ĠÐľÐ¾Ð¶": 926,
      "ÐĿÐ°": 927,
      "ÐĺÐĿÐĲ": 928,
      "ÑĭÑĢÑĭÑģÐµÑĤÓ¥": 929,
      "Ð»Ñİ": 930,
      "ĠÐºÐ¸Ð½": 931,
      "ĠÐłÐ°": 932,
      "ÐĹÐ¸Ð½Ð°Ð¸Ð´Ð°": 933,
      "ÑıÐ¹": 934,
      "Ð»Ð°Ð²": 935,
      "Ð°Ð±": 936,
      "ÑģÑĤÐ¸": 937,
      "ĠÐļÑĥÑĤ": 938,
      "Ð¢Ð¾Ð½": 939,
      "ÑĥÐ»Ð»Ð¸Ð½Ð°": 940,
      "ĠÐ³Ð¾ÑĢÐ¾Ð´Ðµ": 941,
      "ĠÑĥÑĢ": 942,
      "ÑĪÐ¾": 943,
      "ĠÐ´Ð²": 944,
      "ĠÐĲÐ»ÑĮÐ±Ð¸Ð½Ð°": 945,
      "ÐĲÐľ": 946,
      "ĠÑĤÐµÐ°ÑĤ": 947,
      "ĠÐ¡Ð°Ð²": 948,
      "ĠÐĲÐ»ÐµÐºÑģÐµÐ¹": 949,
      "ĠÐ¼ÐµÐ»Ð¾Ð´Ð¸Ñı": 950,
      "ÑĤÐ¾ÑĢ": 951,
      "ÐļÑĢÐµÐ·ÑĮÐ³ÑĥÑĢ": 952,
      "ĠÐĳÐ¸ÐºÑĥ": 953,
      "Ð¾Ð»Ð¾Ð²": 954,
      "ĠÐ¸Ð½": 955,
      "ÐļÑĭÓµÐµ": 956,
      "ĠÐ²ÑĭÐ±Ð¸ÑĢÐ°": 957,
      "Ð¥": 958,
      "Ð®": 959,
      "ÑĤÑĥ": 960,
      "Ð³Ð¸ÑĤ": 961,
      "Ð¾ÑĢÐ¸Ñģ": 962,
      "ÐµÐ½Ð¸Ñı": 963,
      "ÐºÐ¾Ðµ": 964,
      "ĠÐĲÐ»Ð½Ð°": 965,
      "ÑĩÐ¸Ð»Ð¸": 966,
      "ĠÐ´ÑĭÑĪÐµÑĤÓ¥": 967,
      "ÑģÑĤÐµ": 968,
      "ÐĲÐ»ÑĮÐ±Ð¸Ð½Ð°": 969,
      "ÐļÑĭÑĤ": 970,
      "Ġ*": 971,
      "ĠÐ¼ÑĥÐ·": 972,
      "ÐµÐ½Ð°": 973,
      "Ð´ÐµÑģÑĮ": 974,
      "Ð¡Ð²ÐµÑĤÐ»Ð°Ð½Ð°": 975,
      "ÑĥÐ·Ð¾Ð²Ð°": 976,
      "ĠÐ´ÐµÑĢÐµÐ²Ð½Ðµ": 977,
      "ĠÐĳÐ¸ÐºÑĥÐ·Ð¸Ð½": 978,
      "Ð°Ð¼Ñĭ": 979,
      "ĠÐºÐ»Ð°": 980,
      "ĠÐļÑĤÐ¾": 981,
      "Ð¾ÑģÑĤÑĮ": 982,
      "Ð³Ð¾ÑĢÑĮ": 983,
      "ĠÐ·Ð°Ð²ÑĤÑĢÐ°": 984,
      "ĠÐļÑĥÑĤÑĥÐ·Ð¾Ð²Ð°": 985,
      "ÑĪÑĪÐ¾": 986,
      "ĠÐºÑĤÐ¾": 987,
      "ĠÐľÐµÐ»Ð¾": 988,
      "ÑĬÑıÑģÑĮ": 989,
      "Ð´ÑĢÐµÐ¹": 990,
      "Ð¸ÑĢÐ¾Ð±Ð¾": 991,
      "ÑĤÐ¾Ð²Ð°": 992,
      "Ð»Ð¾Ð½": 993,
      "ÑĥÑĢÐ½Ð°": 994,
      "ĠÐºÑĥÑĢ": 995,
      "Ð°Ð½Ð´Ð¸": 996,
      "ĠÐĴÐ¾Ð»": 997,
      "ĠÐ³ÑĥÑĢÑĤ": 998,
      "ĠÑĪÑĥÐ´": 999,
      "ĠÐĿÐ¸ÐºÐ¾Ð»Ð°ÐµÐ²Ð°": 1000,
      "ĠÐľÐµÐ»Ð¾Ð´Ð¸Ñı": 1001,
      "Ð°Ð»Ð¾": 1002,
      "ĠÐ±Ð°Ð´ÓŁÑĭÐ¼": 1003,
      "ÐĺÐĵ": 1004,
      "ÑĤÓ¥Ð·Ñĭ": 1005,
      "ÐĵÐµÐ½Ð½Ð°Ð´Ð¸Ð¹": 1006,
      "ĠÓµ": 1007,
      "ÑĤÐµÑĢ": 1008,
      "ĠÑģÑİ": 1009,
      "Ð¾Ñĩ": 1010,
      "ÑĥÐ»ÑĮ": 1011,
      "ÑĢÐ°Ñģ": 1012,
      "ĠÑĤÐµÐ±": 1013,
      "ĠÑİÑĢÑĤ": 1014,
      "ĠÐłÐ¾ÑģÑģÐ¸": 1015,
      "ÑĥÐ¼": 1016,
      "ÐºÐ°Ð¾Ñģ": 1017,
      "ÑģÑĤÐ°Ð½": 1018,
      "ĠÐ¢Ð°": 1019,
      "Ð¾Ð½Ð°": 1020,
      "ÑĢÐ¾Ð¼": 1021,
      "Ð¾Ð½ÐµÑĢ": 1022,
      "ĠÑĢÐ°Ð´": 1023,
      "ÐºÐ¾Ð»ÑĮÐºÐ¾": 1024,
      "ÑĨÐµÐ²": 1025,
      "ĠÐ¾Ð´Ð¸Ð½": 1026,
      "ĠÐŁÐ°Ð²": 1027,
      "ĠÑĢÐ°Ð±Ð¾ÑĤÐµ": 1028,
      "ĠÐ¡Ð°Ð²Ð¸Ð½Ð°": 1029,
      "ÑĢÐ°Ð½": 1030,
      "ĠÐºÐ°ÑĢÐ¾Ð½Ð¾": 1031,
      "ĠÑģÐµÐ¼ÑĮÑı": 1032,
      "ĠÐľÐ¾Ð¶Ð³Ð°": 1033,
      "ÐµÐ»Ðµ": 1034,
      "ĠÐļÐ¾Ð½": 1035,
      "ĠÐľÐ°ÑĢÐ¸Ð½Ð°": 1036,
      "ÐĲÐ»ÐµÐºÑģÐ°Ð½Ð´ÑĢ": 1037,
      "Ð°Ð½Ð°": 1038,
      "ÑĢÑĭ": 1039,
      "ÑıÐ·": 1040,
      "Ð°Ñģ": 1041,
      "ĠÑĩÐµÑĢ": 1042,
      "ÑĤÑĥÑĢÐ°": 1043,
      "ÐºÐ»Ñı": 1044,
      "ĠÐľÐ¸Ð»ÑıÑĥÑĪÐ°": 1045,
      "ĠÑĢÐ°Ð·": 1046,
      "ÐľÐ¸Ð»ÑıÑĥÑĪÐ°": 1047,
      "ÑĢÐµÐ´Ð¸": 1048,
      "ĠÐŁÑĢÐ¾": 1049,
      "ĠÐ¡Ð°Ð¼": 1050,
      "ĠÑįÑĤÐ¾Ð¼": 1051,
      "ÑĥÑİ": 1052,
      "ĠÐ¿ÑĢÐ¾Ñģ": 1053,
      "Ð¢Ð°ÑĤÑĮÑıÐ½Ð°": 1054,
      "Ð¸ÑĤÐµÑĢÐ°": 1055,
      "Ð°Ð·ÐµÑĤ": 1056,
      "ĠÐ¾Ð´Ó¥Ð³": 1057,
      "ĠÐĶÐ¼Ð¸ÑĤÑĢÐ¸": 1058,
      "Ð¾ÑĤÐ¾": 1059,
      "ÑĩÐµÑģ": 1060,
      "ĠÑĤÑĥ": 1061,
      "Ð°Ð»Ð¸Ñı": 1062,
      "ÐľÑĭÐ½": 1063,
      "ÑģÑĤÐ¾ÑĢ": 1064,
      "ÑĬÑĳÑģÑĭÐ½": 1065,
      "Ð¾Ð·ÑıÐ¹": 1066,
      "ÐļÑĢÐµÐ·ÑĮÐ³ÑĥÑĢÐµÐ·": 1067,
      "ÑĢÐµÑĤ": 1068,
      "ÐµÑģÑı": 1069,
      "ĠÑĪÑĥÑį": 1070,
      "ĠÐ¨Ð¸ÑĢÐ¾Ð±Ð¾": 1071,
      "ĠÐ¡ÑĥÐ½": 1072,
      "ÐļÑĥ": 1073,
      "ÐĿÐ¸": 1074,
      "Ð¸ÑĢÐ¸": 1075,
      "Ð¼Ð°ÑĤ": 1076,
      "ĠÑģÐºÐ°": 1077,
      "ÐºÐ¸Ð¹": 1078,
      "ĠÐ±ÑĭÑĢ": 1079,
      "Ð°ÑģÑĤ": 1080,
      "ÑģÐºÐ°Ñı": 1081,
      "ÐºÐ¾Ð½": 1082,
      "ĠÐľÐ¾Ð½": 1083,
      "ÐļÑĭÐ·ÑĮÑĭ": 1084,
      "ÐµÑĨ": 1085,
      "Ð»ÑĥÐ±": 1086,
      "ĠÐ¼Ð°Ð»ÐµÐ½ÑĮ": 1087,
      "ĠÐŀÐ±": 1088,
      "ÐĺÑĢÐ¸Ð½Ð°": 1089,
      "ĠÑıÑĢÐ°ÑĤÓ¥ÑģÑĮÐºÐ¾": 1090,
      "ÑĬÑĳÑģÑĤÑĭ": 1091,
      "ĠÐľÐ¸ÑħÐ°Ð¹Ð»Ð¾Ð²": 1092,
      "Ð¸ÑģÑĮÐºÐ¾": 1093,
      "Ð²Ñĭ": 1094,
      "Ð»ÐµÐ´": 1095,
      "ÑģÑĤÐ¾": 1096,
      "ĠÐĳÑĥÐ»Ð°": 1097,
      "Ð¾ÑĤÐµ": 1098,
      "ĠÐ¨ÐºÐ»Ñı": 1099,
      "ĠÐ²ÐµÑĤÐ»Ó¥": 1100,
      "ĠÐ¡ÑĥÐ½ÑĨÐ¾Ð²Ð°": 1101,
      "ÑĢÐ¾Ð½": 1102,
      "ĠÑĪÑĥÐ¸Ð·": 1103,
      "ĠÐĲÐ½Ð½Ð°": 1104,
      "ÑģÑĭÐºÐ¾": 1105,
      "Ð¸Ð»ÑĮ": 1106,
      "ĠÑģÐµÐº": 1107,
      "ĠÐ´Ð²Ð°": 1108,
      "ĠÐ»Ñĭ": 1109,
      "Ó§Ð½Ñı": 1110,
      "ĠÑĤÑĥÐ½ÑģÑĭÐºÐ¾": 1111,
      "ÐĿÐ°Ð´ÐµÐ¶Ð´Ð°": 1112,
      "Ð¼Ð¾": 1113,
      "ĠÑĤÓ¥": 1114,
      "ĠÐ½Ð°ÑĥÑĩ": 1115,
      "ĠÐºÐ»Ð°ÑģÑģ": 1116,
      "Ð»Ð¸Ð½": 1117,
      "ĠÐ²ÐµÑĢÐ½": 1118,
      "ĠÐºÐ°Ðº": 1119,
      "Ð¿ÑĢÐ¸": 1120,
      "Ó¥Ð·": 1121,
      "ĠÐ³Ð°Ð·ÐµÑĤ": 1122,
      "ĠÐ±ÐµÑĢ": 1123,
      "ÑĬÑĳÑģÐ»ÑįÐ½": 1124,
      "ĠÐ§ÐµÑĢÐ½": 1125,
      "ĠÐ¡Ð°Ð¼Ñģ": 1126,
      "ĠÐĴÑĭ": 1127,
      "ĠÐĵÐ»Ð°Ð·Ð¾Ð²": 1128,
      "ĠÑħÐ¾Ð·ÑıÐ¹": 1129,
      "ÑĨÐ¸Ð¸": 1130,
      "ĠÐĳÑĥÐ»Ð°ÑĤÐ¾Ð²Ð°": 1131,
      "Ð²ÐµÑĢ": 1132,
      "ĠÑģÐ»Ñĭ": 1133,
      "Ð¿Ð¿": 1134,
      "ĠÐ¼Ð½Ðµ": 1135,
      "ĠÑĥÑĪÐµÐ»": 1136,
      "ĠÐ¸Ð½ÑĤÑĭ": 1137,
      "ĠÐ²Ð¸Ð´ÐµÐ»": 1138,
      "ĠÐºÐ¾Ð½ÑĨ": 1139,
      "ĠÐŁÐµÑĤÑĢÐ¾Ð²Ð°": 1140,
      "ĠÐ¿Ð°ÑĢ": 1141,
      "Ð»Ð°Ð´": 1142,
      "ĠÐ´Ð°Ð»": 1143,
      "Ð£Ð¶": 1144,
      "ĠÐ¶ÑĥÑĢÐ½Ð°": 1145,
      "ĠÑģÐºÐ°Ð¶": 1146,
      "Ð¸ÑĨ": 1147,
      "ÐµÐ´Ð¸": 1148,
      "Ð´ÑĨÐµ": 1149,
      "ÐºÐ°Ð½": 1150,
      "ĠÐľÐ°Ðº": 1151,
      "ĠÑģÐ¸": 1152,
      "ĠÐ¡ÐµÐ³Ð¾Ð´Ð½Ñı": 1153,
      "ĠÐ´Ð¾": 1154,
      "ÑĤÐ¾Ð»Ð¸Ð¹": 1155,
      "ĠÐ±Ð¾ÑĢ": 1156,
      "ÐĺÐ¶": 1157,
      "ÑĥÐ½Ð½Ñį": 1158,
      "ĠÐµÐ³Ð¸ÑĤ": 1159,
      "ÐĲÐ¢ÐŀÐĴÐĲ": 1160,
      "Ð¾Ð»Ðµ": 1161,
      "ÑģÐºÐ¾Ð¹": 1162,
      "ĠÐ¿Ð°": 1163,
      "Ð¸Ð½Ð¸ÑģÑĤ": 1164,
      "ĠÑĥÐ´": 1165,
      "ĠÐĳÐ°Ð¹": 1166,
      "ĠÐ»ÑĭÐº": 1167,
      "ÐĽÐĺÐĿÐĲ": 1168,
      "Ð¸Ð·Ð½": 1169,
      "ĠÑįÑĤÐ¸": 1170,
      "ĠÑĩÐµÐ»Ð¾Ð²ÐµÐº": 1171,
      "ÐµÑĪÑĮ": 1172,
      "Ð¡Ð¾ÐºÑĥ": 1173,
      "ĠÐĲÐ»ÐµÐºÑģÐµÐµÐ²": 1174,
      "ÑĭÑģÐ°": 1175,
      "ĠÐ±Ð¾Ð»ÑĮÑĪ": 1176,
      "ĠÐľÐ¾ÑģÐºÐ²": 1177,
      "ĠÐĿÐ¾": 1178,
      "ĠÐĳÐ£ÐĽ": 1179,
      "ĠÐ»Ð¸ÑĤÐµÑĢÐ°": 1180,
      "Ð°Ð»ÐµÑĢÐ¸Ð¹": 1181,
      "ĠÑħÐ¾ÑĢ": 1182,
      "ĠÐºÐ¾ÑĪÐºÐ¸": 1183,
      "ĠÐ°Ð²ÑĤÐ¾": 1184,
      "ĠÐĳÐ¾Ð³Ð´Ð°Ð½Ð¾Ð²Ð°": 1185,
      "ĠÐĳÐ£ÐĽÐĲÐ¢ÐŀÐĴÐĲ": 1186,
      "Ð¾ÑĦ": 1187,
      "ĠÐ¿Ð¸ÑĩÐ¸": 1188,
      "ĠÐļÑĥ": 1189,
      "ĠÐĳÐ¾ÑĢÐ¸Ñģ": 1190,
      "ĠÐĹÐ°": 1191,
      "Ð£Ð³": 1192,
      "ĠÐ½Ð°Ð¿Ð¸Ñģ": 1193,
      "Ð²Ð¾ÑĢ": 1194,
      "ÑĩÐ°ÑģÑĤ": 1195,
      "ĠÐºÐ¸Ð²Ð°Ð»ÑĤÓ¥ÑģÑĮ": 1196,
      "Ð¸ÐºÑĤÐ¾ÑĢ": 1197,
      "ĠÐĲÐ½ÑĤ": 1198,
      "ĠÐºÐ¾Ð¼Ð¿": 1199,
      "ĠÐľÐ¸ÑħÐ°Ð¸Ð»": 1200,
      "ĠÐ§ÐµÑĢÐ½Ð¾Ð²Ð°": 1201,
      "Ð¸Ð¹": 1202,
      "ÑģÐ°ÑĢ": 1203,
      "Ð±ÑĥÑĢ": 1204,
      "ÑĨÐ¾Ð²": 1205,
      "ÐĲÐ½Ð°": 1206,
      "Ð¸Ð·Ð°": 1207,
      "ÐµÐ³Ð¾": 1208,
      "ĠÐ²ÑĭÐ»ÑĮ": 1209,
      "ĠÐĴÐ°ÑħÑĢÑĥÑĪÐµÐ²": 1210,
      "ĠÐ¡Ð°Ð¼ÑģÐ¾Ð½Ð¾Ð²Ð°": 1211,
      "ÑĪÐ¸Ð½": 1212,
      "ÑģÑĮÑĳÑģ": 1213,
      "ĠÐ´Ð¾ÑĢÑĭ": 1214,
      "ĠÐŁÐµÑĢÐµÐ²": 1215,
      "Ð½Ð¾Ðµ": 1216,
      "ÑĥÐ¶Ñĩ": 1217,
      "ĠÐ»ÑİÐ±Ð¸ÑĤ": 1218,
      "ÑĢÐ³": 1219,
      "ÑĪÐ»Ð°": 1220,
      "ĠÑĤÑı": 1221,
      "ĠÐ¿ÑĢÐµ": 1222,
      "ĠÑĥÐ»Ð¾Ð½": 1223,
      "Ð°ÑĤÐµÐ»ÑĮ": 1224,
      "ĠÐĿÐµ": 1225,
      "ĠÑĢÐ°Ð±Ð¾ÑĤÑĥ": 1226,
      "ÑĤÑįÐ¼": 1227,
      "ÑģÑıÑĢÑĭÑģÑĮ": 1228,
      "ÐľÐ°ÑĢÐ¸Ð½Ð°": 1229,
      "ĠÑģÐµÑĢÐ´ÑĨÐµ": 1230,
      "ĠÐĽÐµÐ¾Ð½": 1231,
      "ÐĿÐ¸ÐºÐ¾Ð»Ð°": 1232,
      "ÐµÐ²Ð½Ð°": 1233,
      "ĠÐ¼Ð°ÑĤ": 1234,
      "Ð¢ÑĥÐ½Ð½Ñį": 1235,
      "ĠÐĲÐ½Ð´ÑĢÐµÐ¹": 1236,
      "ĠÐ·Ð°Ð±": 1237,
      "ĠÐ»ÑİÐ±Ð»Ñİ": 1238,
      "ĠÐĶÐ¼Ð¸ÑĤÑĢÐ¸ÐµÐ²Ð°": 1239,
      "ÐĿÐ¸ÐºÐ¾Ð»Ð°Ð¹": 1240,
      "Ð¸Ð¼Ð°": 1241,
      "ÐµÑħ": 1242,
      "Ð»Ð°Ð½": 1243,
      "ĠÐĽÑİÐ´Ð¼Ð¸Ð»Ð°": 1244,
      "ÑĭÑĪÐ½Ð¾": 1245,
      "ĠÐ¿Ð¾Ð½Ñı": 1246,
      "ÑĢÐµÐ½": 1247,
      "ÑģÐµÐ·": 1248,
      "Ð´Ñĥ": 1249,
      "Ð¼ÐµÑĤ": 1250,
      "ĠÐ²Ð¼Ðµ": 1251,
      "ÑĪÐ¸Ð½Ð°": 1252,
      "ÐºÐ°ÑĤÐµÑĢ": 1253,
      "Ð¸Ð½ÑĮ": 1254,
      "ĠÐķÑģÐ»Ð¸": 1255,
      "Ó¥ÑģÑĮÐºÐ¾": 1256,
      "ÐļÑĭÐ»": 1257,
      "ĠÐĽÐµÐ½": 1258,
      "ÐºÑĤÑį": 1259,
      "ĠÐĲÐ½Ð°ÑģÑĤÐ°ÑģÐ¸Ñı": 1260,
      "ÐĴÐ»Ð°Ð´Ð¸Ð¼Ð¸ÑĢ": 1261,
      "ÑĥÑĪÐºÐ°": 1262,
      "ĠÑĪÐºÐ¾Ð»Ðµ": 1263,
      "Ð°Ð½Ð´Ð¸Ð´Ð°ÑĤ": 1264,
      "Ð½Ð¾Ð¼": 1265,
      "ÑĤÐ¸Ð²Ð°": 1266,
      "ÐµÑĤÑģÑı": 1267,
      "ĠÐ¨Ð°ÑĢ": 1268,
      "ĠÐŁÐµÑĤÑĢÐ¾Ð²": 1269,
      "ĠÐķÐ²Ð³": 1270,
      "ÑĢÐµÐ·Ð¸Ð´": 1271,
      "Ð²ÐµÐ´": 1272,
      "Ð»ÐµÐ¼": 1273,
      "ĠÐ½Ð¾Ð¼": 1274,
      "ĠÐºÐ»ÑĥÐ±": 1275,
      "ĠÑĤÐ¾Ð³Ð´Ð°": 1276,
      "ÑħÐ¾Ð·": 1277,
      "ĠÐļÐ°Ðº": 1278,
      "ÑĦÐµÑģ": 1279,
      "Ð¡ÑĭÓµÐµ": 1280,
      "ÐĿÐ¾": 1281,
      "ÑĥÐ´ÐµÐ½ÑĤ": 1282,
      "ĠÐŃÐ»Ð¸Ð½Ð°": 1283,
      "ĠÑĢÑĥÐºÐ¾Ð²Ð¾Ð´Ð¸ÑĤ": 1284,
      "Ð»Ð¸ÑģÑĤ": 1285,
      "ĠÑģÐ¿Ð¾ÑĢÑĤ": 1286,
      "ĠÐ¼ÑĥÐºÐµÑĤÑĬÑĳÑģÑĭÐ·": 1287,
      "ĠÐ½Ð¾Ð²Ð¾ÑģÑĤÑĮ": 1288,
      "ĠÓµÐ¾ÑĪ": 1289,
      "ĠÑĩÐµÑĢÐºÐ¾": 1290,
      "ĠÐ½Ð°ÑĥÑĩÐ¸Ð»": 1291,
      "Ð¸ÑĪ": 1292,
      "ÑģÐµ": 1293,
      "Ð´Ñį": 1294,
      "ÑĩÐµÐ¼": 1295,
      "Ð»Ð¸Ñı": 1296,
      "ÑĭÐ»Ðº": 1297,
      "ÐŃÐ»Ð¸Ð½Ð°": 1298,
      "ÐµÐ½Ð¸Ð¹": 1299,
      "ĠÑĤÐ¾Ð½Ñį": 1300,
      "Ð»ÑģÑı": 1301,
      "ĠÑĤÐ¾": 1302,
      "ĠÐ°Ð·ÑĮ": 1303,
      "Ð¾Ð³Ð¾": 1304,
      "ÐŁÐ¸ÑĩÐ¸": 1305,
      "ĠÑĦÐ¸Ð»Ð¾": 1306,
      "ĠÐ·Ð°Ð²Ð¾Ð´": 1307,
      "ĠÑģÐµÐ¼ÑĮ": 1308,
      "ĠÐĵÑĢÐ¸Ð³Ð¾ÑĢÑĮ": 1309,
      "ÐºÐ²Ð°": 1310,
      "Ð»ÐµÐº": 1311,
      "Ð±ÑĥÑģ": 1312,
      "ÐµÐ½ÑģÐ¸": 1313,
      "ÐºÐ¾Ð³Ð¾": 1314,
      "ĠÐĵÐ´Ðµ": 1315,
      "ĠÐŁÐ°Ð½": 1316,
      "ÑĦÐ¸Ð»Ð¾Ð²Ð°": 1317,
      "ÑĥÐ»ÑģÑı": 1318,
      "ĠÑĤÐ°ÐºÐ¾Ð¹": 1319,
      "ĠÐ¿Ð¾Ð»Ð¸": 1320,
      "Ð£ÐĽÐĽÐĺÐĿÐĲ": 1321,
      "ĠÐ´ÑĭÑĪÐµÑĤ": 1322,
      "ĠÓŁÐµÑĩ": 1323,
      "Ð¸ÑĢÐ¸Ð»": 1324,
      "ĠÑĩÐµÑĢÐºÐ¾Ð³ÑĥÑĢÑĤ": 1325,
      "ĠÐ¦": 1326,
      "Ð»ÐµÐ½Ð¸": 1327,
      "ĠÐºÐ¾ÑĢ": 1328,
      "Ð¾ÑĢÐ³Ð¾ÑĢ": 1329,
      "ĠÐ¿Ó§Ð»": 1330,
      "ĠÐĴÐ¾ÑĤ": 1331,
      "ĠÑĥÑĩ": 1332,
      "ĠÐ´ÑĥÐ½": 1333,
      "Ð»Ð¾Ð³": 1334,
      "Ð¢Ð°ÑĤÑĭÐ½": 1335,
      "ĠÐłÑĥÑģ": 1336,
      "Ð¸Ð·Ñĭ": 1337,
      "ĠÑģÐ»ÑĭÑĪ": 1338,
      "ÐºÐ°ÑĤÐµÑĢÐ¸Ð½Ð°": 1339,
      "Ð¾ÑĢÐ³Ð¾ÑĢÐ¾Ð½": 1340,
      "Ð½Ð¾Ð²": 1341,
      "ÑģÐµÐ½Ð¸Ñı": 1342,
      "ĠÐľÑĭ": 1343,
      "ĠÑģÑĭÓµÐµ": 1344,
      "Ð´ÐµÐ¹": 1345,
      "ĠÑĤÐµÐ°ÑĤÑĢ": 1346,
      "ĠÐľÐ°ÐºÑģÐ¸Ð¼": 1347,
      "ÑĩÐ°ÑģÑĤÐ»Ð¸": 1348,
      "ÐļÑĭÐ»ÑģÑıÑĢÑĭÑģÑĮ": 1349,
      "ÐµÑĪ": 1350,
      "ÐºÑĥÑĢ": 1351,
      "ÑĭÐ³": 1352,
      "Ð»ÐµÑģÐ°ÑĢ": 1353,
      "Ð´Ð¸Ð½Ð°": 1354,
      "ÐµÑĢÐ¼": 1355,
      "ĠÐºÑĥÐ»ÑĮ": 1356,
      "ĠÐ¡ÑĤÐµÐ¿": 1357,
      "ĠÑģÑĩÐ°ÑģÑĤÐ»Ð¸": 1358,
      "Ð¾Ð½Ð¾Ð²": 1359,
      "ĠÑĥÐ·": 1360,
      "ĠÐ¸ÑģÑĤÐ¾ÑĢ": 1361,
      "Ð¼ÐµÐ·": 1362,
      "ÑĢÐ¾ÑĤÐ¸Ð²": 1363,
      "ĠÐĹÐ°Ð²": 1364,
      "ÐºÑģÑĳ": 1365,
      "ĠÐ¿ÑĢÐ¾ÐµÐºÑĤ": 1366,
      "ĠÐ¨ÐºÐ»ÑıÐµÐ²": 1367,
      "Ð¾Ðµ": 1368,
      "ĠÐ²ÑĥÐ½": 1369,
      "Ð¾ÑĢÐ¾Ð½": 1370,
      "Ð°Ð»Ñı": 1371,
      "ĠÐ¢ÑĢÐ¸": 1372,
      "ÐĿÐ°ÑĤ": 1373,
      "ÑĥÐ»Ð¾Ð²Ð°": 1374,
      "Ð¢Ð°Ð¸Ð·": 1375,
      "ĠÐ°ÑĢÑĤÐ¸": 1376,
      "ĠÑĢÑĥÐºÐ¾Ð²Ð¾Ð´": 1377,
      "ÑĥÐ±Ð»Ð¸": 1378,
      "ÑĢÐ°Ð·Ð´": 1379,
      "ĠÐ²Ð¼ÐµÑģÑĤÐµ": 1380,
      "Ð´Ñı": 1381,
      "Ð·Ð°": 1382,
      "ĠÐ½ÑĭÑĢÑĭÑģÐµÑĤÓ¥": 1383,
      "ĠÐ¿Ð¸Ñģ": 1384,
      "ĠÐĴÐµÑĢ": 1385,
      "ÑĨÐµÐ²Ð°": 1386,
      "ĠÑĪÑĥÐ´Ð¾": 1387,
      "ÑĤÑįÐ¼ÑĭÐ½": 1388,
      "Ð¨Ñĥ": 1389,
      "ĠÐĲÐ»Ð½Ð°ÑĪÐ¸": 1390,
      "ĠÐłÐ¾ÑģÑģÐ¸Ð¸": 1391,
      "ĠÑģÐµÐºÑĭÑĤ": 1392,
      "ĠÐ±Ð¾ÑĢÐ´": 1393,
      "Ð¸Ð²": 1394,
      "Ð¸ÑģÑĮ": 1395,
      "ÐµÐ´Ðµ": 1396,
      "ÑĭÑĢÐµ": 1397,
      "ĠÐºÐ½Ð¸Ð³Ð°": 1398,
      "Ð»ÑĮÑı": 1399,
      "Ð°Ð½Ñĭ": 1400,
      "ĠÐ¿Ð¾Ð»": 1401,
      "ĠÐķÑĢ": 1402,
      "Ð³Ð°Ð¼Ð°ÑĤ": 1403,
      "Ð¾ÑĤÐ¾Ð²": 1404,
      "ĠÐĿÐ¸Ð³Ð°Ð¼Ð°ÑĤ": 1405,
      "ÑĭÑģÐµÐ½": 1406,
      "ĠÐ½Ð°ÑĥÑĩÐ¸Ð»Ð¸": 1407,
      "Ð¸Ð±Ð»Ð¸": 1408,
      "Ð»ÐµÐ²ÑĤÐ¸Ð½Ð°": 1409,
      "ÐºÐ°Ð¾ÑģÑĬÑı": 1410,
      "Ð¿ÑĢÐ¸Ð¼ÐµÑĢ": 1411,
      "ĠÐĿÐ¸Ð³Ð°Ð¼Ð°ÑĤÑĥÐ»Ð»Ð¸Ð½Ð°": 1412,
      "ÐµÐ»Ð¸": 1413,
      "ĠÐ²Ð¾": 1414,
      "ÑĢÐ°Ð¿": 1415,
      "ĠÑĢÐ°Ð¹": 1416,
      "ĠÐ¿ÐµÐ½ÑģÐ¸": 1417,
      "ĠÐļÐ°ÑĢ": 1418,
      "ĠÐŁÐ°ÑĢ": 1419,
      "ĠÐ±Ñĭ": 1420,
      "ĠÐ¿Ð¾Ð½ÑıÐ»": 1421,
      "Ð¼Ñĥ": 1422,
      "Ð»ÐµÐ²Ð°": 1423,
      "Ð¾Ð½Ð¸ÐºÐ°": 1424,
      "Ð°Ð½Ñı": 1425,
      "Ð¿Ð¾Ð»": 1426,
      "ĠÐĺÐ²": 1427,
      "ÐºÐ¸Ðµ": 1428,
      "ÑĤÓ¥ÑģÐµÐ·": 1429,
      "ĠÐ·Ð´ÐµÑģÑĮ": 1430,
      "ĠÑĦÐµÑģ": 1431,
      "ĠÐĿÐ°Ð¿ÑĢÐ¸Ð¼ÐµÑĢ": 1432,
      "Ð¸Ð»ÑıÐ¼": 1433,
      "ĠÐ®ÑĢÐ¸Ð¹": 1434,
      "ĠÐ¿ÐµÑĢÐµÐ´": 1435,
      "Ð¸Ðº": 1436,
      "Ð³Ñĥ": 1437,
      "ĠÐ¼ÑĥÐ¶Ñĩ": 1438,
      "Ð»ÑįÐ¼": 1439,
      "Ð¾ÑģÑĤÐ¸": 1440,
      "ÐķÐĴÐĲ": 1441,
      "ÑĬÑĳÑģÐ»Ñĭ": 1442,
      "ĠÐ½Ð°ÑĥÐºÐ°Ð¾ÑģÑĬÑı": 1443,
      "ĠÐĺÐ¶ÐµÐ²ÑģÐº": 1444,
      "ÐµÑĨÐ¸": 1445,
      "ĠÐºÐ°Ð½Ð´Ð¸Ð´Ð°ÑĤ": 1446,
      "Ð°Ð»ÑįÐ½": 1447,
      "Ð¸Ð½Ð¾Ð³": 1448,
      "ĠÐ¢Ð¾Ð³Ð´Ð°": 1449,
      "Ð¢Ñĥ": 1450,
      "ĠÐŀÑĤ": 1451,
      "ÑĬÑıÑģ": 1452,
      "Ð»Ð°Ð·Ð°": 1453,
      "ÑĨÐµÐ½Ð°": 1454,
      "ĠÑħÐ¾Ð´Ð¸Ð»": 1455,
      "ĠÐŁÐ°Ð½ÑĦÐ¸Ð»Ð¾Ð²Ð°": 1456,
      "Ð¸Ð±Ð»Ð¸Ð¾ÑĤÐµ": 1457,
      "Ð½Ð¾Ð²Ð°": 1458,
      "ÑĤÐ¾Ð²": 1459,
      "Ð²Ð°ÑĢ": 1460,
      "Ð³ÑĢÐ°Ð¼": 1461,
      "Ð°Ð½Ð½Ð¸ÐºÐ¾Ð²Ð°": 1462,
      "ĠÐĿÐ°Ð´": 1463,
      "ÑĤÐ¾Ð·": 1464,
      "ĠÑĢÐ°Ð±Ð¾ÑĤÐ°Ð»": 1465,
      "ĠÐĴÐ°ÑģÐ¸Ð»Ð¸Ð¹": 1466,
      "ĠÐ¿ÑĢÐ¾ÑĦÐµÑģ": 1467,
      "ĠÐ´ÑĢÑĥÐ³": 1468,
      "ĠÑĨÐµÐ½ÑĤ": 1469,
      "ÐĲÐ½Ð½Ð°": 1470,
      "Ð´ÐµÑĤ": 1471,
      "Ð¾Ð²ÐµÑĤ": 1472,
      "Ð³Ð¾Ð²": 1473,
      "ĠÑģÐ¸Ð½": 1474,
      "ĠÐļÐ¸ÑĢÐ¸Ð»": 1475,
      "ĠÑĥÐ»Ð¸": 1476,
      "ĠÐĿÐĺÐĵ": 1477,
      "ĠÐ±Ð¸": 1478,
      "ĠÐ±ÑĥÐ´": 1479,
      "ÑĢÑĥÐ¶": 1480,
      "ĠÑģÐ¿ÑĢÐ¾Ñģ": 1481,
      "ÐŃÑĪÑĪÐ¾": 1482,
      "ÐĲÐ¢Ð£ÐĽÐĽÐĺÐĿÐĲ": 1483,
      "ĠÐĲÐ½Ð°ÑĤÐ¾Ð»Ð¸Ð¹": 1484,
      "ÐĲÐľÐĲÐ¢Ð£ÐĽÐĽÐĺÐĿÐĲ": 1485,
      "ĠÑĤÐµÐ±Ñı": 1486,
      "ĠÑħÐ¾Ð·ÑıÐ¹ÑģÑĤÐ²Ð¾": 1487,
      "ĠÐĽÐµÐ½Ñĥ": 1488,
      "ĠÐĿÐĺÐĵÐĲÐľÐĲÐ¢Ð£ÐĽÐĽÐĺÐĿÐĲ": 1489,
      "ĠÐ¹": 1490,
      "ÑĤÑĭÐ½Ñĭ": 1491,
      "ÑģÐ¾ÑĢ": 1492,
      "ĠÐ¡Ð»ÐµÑģÐ°ÑĢ": 1493,
      "ĠÐ´Ð¸": 1494,
      "ÐºÑĥÐ»ÑĮ": 1495,
      "ĠÐĺÐ²Ð°Ð½Ð¾Ð²": 1496,
      "ĠÐ³Ð¾Ð²Ð¾ÑĢÐ¸ÑĤ": 1497,
      "ĠÐľÐ°ÑĢÐ¸Ñı": 1498,
      "âĢĵ": 1499,
      "ĠÑĢÐ°Ð´Ð¾Ð²Ð°": 1500,
      "ĠÐºÐ¾Ð½ÑĨÐµÑĢÑĤ": 1501,
      "ĠÐ¿Ð°Ð´Ð°": 1502,
      "ĠÐĽÐµÐ¾Ð½Ð¸Ð´": 1503,
      "ÑĤÐ¸ÐºÐ°": 1504,
      "Ð¿Ð°": 1505,
      "ÑħÐ½Ð¸": 1506,
      "ĠÐ¡ÐµÑĢÐ³": 1507,
      "ĠÐ¼ÑĭÐ½Ð°Ð¼": 1508,
      "Ð¸ÑĤÐµÑĤ": 1509,
      "Ð½Ð¾Ð³Ð¾": 1510,
      "ĠÐ²Ð°Ð»Ð°ÑģÑĮ": 1511,
      "Ð¾Ð¶ÐµÑĤ": 1512,
      "ÑĢÐ³Ð¸Ñģ": 1513,
      "Ðĸ": 1514,
      "Ð¼Ð¾Ð½": 1515,
      "ÐºÑĤÐ¾": 1516,
      "ĠÐ½Ð¸Ñĩ": 1517,
      "ĠÐľÐ°Ð»ÐµÐ½ÑĮ": 1518,
      "ĠÑģÑĢÐµÐ´Ð¸": 1519,
      "ĠÐĿÑĥ": 1520,
      "ÐĽÐµÐ½Ð°": 1521,
      "ÐŀÑĤ": 1522,
      "ĠÐĶÐ°Ð½": 1523,
      "ĠÐŃÑĤÐ¾": 1524,
      "ĠÑįÑĤÐ¾ÑĤ": 1525,
      "ĠÐŁÐ°Ð²ÐµÐ»": 1526,
      "ĠÐ²ÑĥÐ½Ñį": 1527,
      "Ð¸Ð¸": 1528,
      "ÑĤÐ¾Ð½Ð¾": 1529,
      "ĠÐºÑĭÓµÐµ": 1530,
      "ĠÑģÐ¾ÐºÑĥ": 1531,
      "ÐµÑĢÐµ": 1532,
      "ĠÐĴÐ¸ÐºÑĤÐ¾ÑĢ": 1533,
      "Ð¸Ð½Ñĭ": 1534,
      "ÑĬÐµÐ¼": 1535,
      "ÐĽÑİÐ´Ð¼Ð¸Ð»Ð°": 1536,
      "ĠÐ¨Ð¸Ñħ": 1537,
      "ĠÑģÑĤÑĥÐ´ÐµÐ½ÑĤ": 1538,
      "ĠÐĴÐ°ÑħÑĢÑĥÑĪÐµÐ²Ð°": 1539,
      "Ð°Ð¼ÑĭÑĪ": 1540,
      "ÑĬÑıÑģÐ½Ð¸": 1541,
      "Ð¾Ñħ": 1542,
      "ĠÐ²ÑģÑĤ": 1543,
      "ĠÐ¡Ð¼Ð¸ÑĢ": 1544,
      "ĠÐĴÐ°Ð»ÐµÑĢÐ¸Ð¹": 1545,
      "ĠÐļÐ¸Ð±": 1546,
      "ÑİÐ¼": 1547,
      "ĠÐĳÐ°Ð½Ð½Ð¸ÐºÐ¾Ð²Ð°": 1548,
      "ĠÐŁÐ¸ÐºÑĥ": 1549,
      "ĠÐ±Ð¸Ð±Ð»Ð¸Ð¾ÑĤÐµ": 1550,
      "Ð¸ÑĤÐ¾Ð²Ð°": 1551,
      "ĠÐ¼ÑĭÐ½ÑĭÐ¼": 1552,
      "ĠÐĴÐ¾Ð»ÐºÐ¾Ð²Ð°": 1553,
      "ĠÐ»ÑĭÐºÑĤÑį": 1554,
      "ĠÐ°Ð²ÑĤÐ¾Ð±ÑĥÑģ": 1555,
      "ĠÑĤÑıÐ¶Ðµ": 1556,
      "ĠÐ¡Ð»ÐµÑģÐ°ÑĢÐµÐ²Ð°": 1557,
      "Ð´Ð¾Ð²": 1558,
      "Ð³Ð´Ð°": 1559,
      "Ð³ÑĥÐ»Ð¾Ð²Ð°": 1560,
      "Ð±Ð¸Ð½": 1561,
      "ÑĩÐµ": 1562,
      "ĠÑģÑĤÐ¾": 1563,
      "Ð¶ÐµÐ½": 1564,
      "ÐºÐ¾Ð³Ð´Ð°": 1565,
      "ĠÐ¡ÐºÐ¾Ð»ÑĮÐºÐ¾": 1566,
      "ĠÐ³ÑĢÑĥ": 1567,
      "ÑĭÑģÑĮÑĤ": 1568,
      "ÑĪÐ°Ñı": 1569,
      "ĠÐ¡Ð°Ð¼Ð¸": 1570,
      "ÐĿÑĭÑĢÑĭÑģÐµÑĤÓ¥": 1571,
      "ĠÐ·Ð°ÑĢ": 1572,
      "ÐµÐ¿ÑĥÑĤ": 1573,
      "ĠÐ¼ÐµÐ´Ð°": 1574,
      "ĠÐ¼Ð¾Ð½Ñį": 1575,
      "ĠÐļÐ°ÐºÐ¾Ð¹": 1576,
      "Ð¸Ð¿Ð»Ð¾": 1577,
      "ĠÐ±ÑĭÑĢÐ¹": 1578,
      "Ð°ÑģÑĤÐµÑĢ": 1579,
      "ĠÐ´Ð¾ÐºÑĤÐ¾ÑĢ": 1580,
      "ĠÐ´ÑĥÐ½Ð½Ðµ": 1581,
      "ĠÑĤÑıÐ¶ÐµÑģÑĤÑĮ": 1582,
      "ĠÐ¡Ð°Ð¼Ð¸Ð³ÑĥÐ»Ð¾Ð²Ð°": 1583,
      "ÐµÐ¿ÑĥÑĤÐ°ÑĤ": 1584,
      "Ġ.": 1585,
      "Ð½Ñĥ": 1586,
      "Ð¿Ð¾Ð²Ð°": 1587,
      "Ó¥ÑģÑĮ": 1588,
      "ÑĢÐµÑĩ": 1589,
      "ÐŀÐĴ": 1590,
      "ÐĵÐ»Ð°Ð·Ð¾Ð²": 1591,
      "Ð°Ð¹ÐºÐ¾Ð²": 1592,
      "ĠÑĢÑĥÐºÐ¾Ð²Ð¾Ð´Ð¸ÑĤÑĮ": 1593,
      "ÐĲÐ»ÐµÐºÑģÐµÐ¹": 1594,
      "ĠÐĶÐ¼Ð¸ÑĤÑĢÐ¸Ð¹": 1595,
      "ĠÐľÐ¾ÑģÐºÐ²Ð°": 1596,
      "ĠÐļÑĥÐ·Ð½Ðµ": 1597,
      "ĠÐ¨Ð¸ÑĢÐ¾Ð±Ð¾ÐºÐ¾Ð²Ð°": 1598,
      "ĠÐ²ÐµÑĢÐ½ÑĥÐ»ÑģÑı": 1599,
      "ĠÐ¶ÑĥÑĢÐ½Ð°Ð»Ð¸ÑģÑĤ": 1600,
      "ĠÐ½Ð¸ÑĩÐµÐ³Ð¾": 1601,
      "ÑĥÑĤÐ¸Ð½": 1602,
      "Ð³Ð°ÑĢ": 1603,
      "ÐµÐ½ÑĭÐ·": 1604,
      "ÐľÐ¸Ñħ": 1605,
      "ĠÐ³Ð»Ð°Ð·Ð°": 1606,
      "ÐļÓ§Ð½Ñı": 1607,
      "Ð¾Ð»Ð¸Ð½Ð°": 1608,
      "ĠÐ¡Ð°ÑĢÐ°Ð¿": 1609,
      "ÑĤÑįÐ·": 1610,
      "ĠÐ¾Ð±ÑĬÑıÑģÐ½Ð¸": 1611,
      "ĠÐ¾ÑĤÐº": 1612,
      "Ð´Ð¸Ð½Ð¾Ð²": 1613,
      "ĠÐºÐ¾Ð»Ð»ÐµÐº": 1614,
      "Ð°Ð±ÑĥÑĪÐºÐ°": 1615,
      "ÐļÑĭÑĤÑĭÐ½": 1616,
      "ĠÑħÐ¾ÑĢÐ¾ÑĪ": 1617,
      "ÑĢÐµÐ·Ð¸Ð´ÐµÐ½ÑĤ": 1618,
      "ÐµÐ´ÐµÑĢÐ°": 1619,
      "ĠÐĺÐ²Ð°Ð½Ð¾Ð²Ð°": 1620,
      "ĠÐ¨Ð¸ÑħÐ¾Ð²Ð°": 1621,
      "ÑĥÑĢÐ°": 1622,
      "ĠÑĤÑĢÐ¸": 1623,
      "ÐµÐ½Ñı": 1624,
      "ÐµÑĤÐ°": 1625,
      "ĠÐĳÐµÐ»Ð¾": 1626,
      "ĠÐŀÐ»Ðµ": 1627,
      "Ð¾Ð·ÑĩÐ¸": 1628,
      "ĠÐĺÐ¶ÐºÐ°ÑĢ": 1629,
      "Ð½ÑĭÐµ": 1630,
      "ĠÑģÐ¿ÐµÑĨÐ¸": 1631,
      "ĠÐ¿ÑĥÐ¼Ð¸ÑĤ": 1632,
      "ĠÑģÑĩÐ°ÑģÑĤÐ»Ð¸Ð²": 1633,
      "ĠÐľÐ°ÑĤ": 1634,
      "Ð°ÑĢÐ´Ð¸Ð½Ð°": 1635,
      "Ð¸Ð½Ð¾Ð²": 1636,
      "ĠÑĥÑĪ": 1637,
      "ÐĲÐ´": 1638,
      "ĠÐ³Ð¾Ð´": 1639,
      "Ð¾ÑĤÐ°": 1640,
      "ÑĦÐ¾Ð½": 1641,
      "ĠÐĹÐ´ÐµÑģÑĮ": 1642,
      "ĠÑĪÑĥÐ¸ÑģÑĮÐºÐ¾": 1643,
      "Ð°Ð²ÑĢÐ¸": 1644,
      "ĠÑĦÐ°": 1645,
      "ĠÐ¶ÐµÐ½": 1646,
      "Ð»ÑıÐ¼": 1647,
      "ĠÐ¿ÑĢÐ¸ÑĪÐµÐ»": 1648,
      "Ð¢ÑĥÐ¶Ð³ÐµÑģ": 1649,
      "ÑīÐ¸Ð¹": 1650,
      "ÐľÑĭÐ½ÑĭÐ¼": 1651,
      "ÐĲÐ½Ð°ÑģÑĤÐ°ÑģÐ¸Ñı": 1652,
      "ÑĤÐ¸Ð²Ð°Ð»ÑĮ": 1653,
      "ĠÐ°ÑĢÑĤÐ¸ÑģÑĤ": 1654,
      "ÑĢÐ°Ð·Ð´Ð½Ð¸Ðº": 1655,
      "ÐµÐ»Ñĭ": 1656,
      "Ð´Ð¾ÑĢ": 1657,
      "Ð½Ð°Ñı": 1658,
      "Ð³Ðµ": 1659,
      "ĠÑģÐ¾Ð±": 1660,
      "Ð¾Ð½Ð¸Ð´Ð°": 1661,
      "Ð¶Ð¸": 1662,
      "ĠÐ¿Ð°Ð´": 1663,
      "ĠÐ´ÐµÐ»": 1664,
      "ĠÐĲÐ²": 1665,
      "Ð¾ÑģÑĭÐ½": 1666,
      "ĠÐĹÐ¾ÑĢ": 1667,
      "ĠÐ²Ð°Ð»Ñį": 1668,
      "ÑĥÐ»Ð¸Ð½Ð°": 1669,
      "ÑĭÐ»Ó¥": 1670,
      "Ó§Ð·": 1671,
      "ÑģÑĤÐ²ÐµÐ½": 1672,
      "ÐµÐ½Ð¸Ðµ": 1673,
      "ĠÐĲÐ»Ð½Ð°ÑĪ": 1674,
      "ĠÐ´ÑĭÑĪÐµÑĤÓ¥ÑģÑĮ": 1675,
      "ĠÐĹÐ°Ð²ÑĤÑĢÐ°": 1676,
      "Ð°Ð¼Ð°": 1677,
      "ÑĮÐµÑģ": 1678,
      "ĠÐ²ÐµÐ´ÑĮ": 1679,
      "ÑĢÐ°ÑģÐ¸": 1680,
      "ĠÐ¼Ð¸Ð½Ð¸ÑģÑĤ": 1681,
      "ÑģÑĤÑĢÐ°": 1682,
      "ĠÐķÐ³Ð¾ÑĢ": 1683,
      "ÐºÐ¸Ð·": 1684,
      "ĠÑıÐºÐµ": 1685,
      "ÐĺÐ½": 1686,
      "Ð¾ÑģÑĤÑĭ": 1687,
      "ĠÑĤÑĥÐ¶Ð³ÐµÑģ": 1688,
      "ĠÐ¿ÑĢÐ¾Ð³ÑĢÐ°Ð¼": 1689,
      "ĠÐºÐ¸Ð²Ð°Ð»ÑĤÑį": 1690,
      "ĠÑĨÐ²ÐµÑĤ": 1691,
      "Ð°Ð»ÑĮÑı": 1692,
      "ĠÑĤÐµÐ±Ðµ": 1693,
      "ĠÐķÐ²Ð³ÐµÐ½Ð¸Ð¹": 1694,
      "ĠÐļÐ¸Ð±Ð°ÑĢÐ´Ð¸Ð½Ð°": 1695,
      "ĠÑĢÐ¾": 1696,
      "ÐºÐµÑĤ": 1697,
      "ĠÐ²Ð°Ð¼ÑĭÑĪ": 1698,
      "ĠÐ¿Ðµ": 1699,
      "ĠÐ¼ÑĥÑģ": 1700,
      "ĠÐĺÐ»Ð¸": 1701,
      "ĠÐłÐ°Ð´": 1702,
      "ÑıÐ½Ð¾Ð²": 1703,
      "Ð»ÑĭÑģ": 1704,
      "ĠÑĢÐ°Ð±Ð¾ÑĤÐ°ÑĤÑĮ": 1705,
      "ĠÐĴÐ°ÑĥÐ»Ð¸Ð½Ð°": 1706,
      "ĠÑĦÐµÑĢ": 1707,
      "ĠÐĴÐ°ÑģÐ¸Ð»ÑĮÐµÐ²Ð¸Ñĩ": 1708,
      "ĠÐ¼ÑĭÐ½Ñį": 1709,
      "ĠÐĿÐ°ÑĤÐ°Ð»Ð¸Ñı": 1710,
      "ĠÐ¼Ð¾Ð»Ð¾Ð´": 1711,
      "ĠÐºÑĭÐºÐµÑĤÓ¥": 1712,
      "ĠÐ±ÑĥÐ´Ñį": 1713,
      "ĠÐ¿Ð°Ð´Ð°ÐµÑĤ": 1714,
      "Ð¾Ð»Ð¸": 1715,
      "Ð´Ð¸ÑĤ": 1716,
      "ĠÐľÐ¸": 1717,
      "Ð¿Ð°Ð»": 1718,
      "ÐĲÑĢ": 1719,
      "ÑĢÐµÐºÑĤÐ¾ÑĢ": 1720,
      "ĠÐĵÐ¾ÑĢ": 1721,
      "ÐĴÐ°": 1722,
      "ÐºÑĥÐ´Ð°": 1723,
      "Ð¸Ð·Ð²ÐµÐ´": 1724,
      "ÐĵÑĥÑĢÑĤ": 1725,
      "ÐµÐ»Ñı": 1726,
      "ĠÑĤÑĥÐ½Ð½Ñį": 1727,
      "ĠÐ½Ð°Ð¿Ð¸ÑģÐ°Ð»": 1728,
      "ĠÐŁÐµÑĢÐµÐ²Ð¾Ð·ÑĩÐ¸": 1729,
      "ÑĭÐ»ÐºÑĭÑĪÐ½Ð¾": 1730,
      "ĠÐ±Ð¾ÑĢÐ´ÑĭÐ½": 1731,
      "ÑĭÑģÑĮÑĤÑĭÐ·": 1732,
      "ĠâĢĵ": 1733,
      "Ð¾Ñı": 1734,
      "ÑĢÐ¾Ð´": 1735,
      "ÑģÑĭÐº": 1736,
      "ĠÐ²Ð¾Ð·": 1737,
      "Ð»ÐµÑĤ": 1738,
      "ĠÐºÑĭÐ·ÑĮÑĭ": 1739,
      "ĠÐ¿Ð¾Ð¹": 1740,
      "ĠÐ¼Ñĥ": 1741,
      "ĠÐ¼Ð°ÑĪ": 1742,
      "ĠÐļÐ¾Ð¼": 1743,
      "ÑĨÑĭ": 1744,
      "Ð½Ð¸Ð²ÐµÑĢ": 1745,
      "ĠÐ°Ð·": 1746,
      "ÐĿÑĥ": 1747,
      "ĠÑĥÐ¶Ð°Ð»Ð¾": 1748,
      "ĠÑįÑĪÑĪÐ¾": 1749,
      "ÑĤÑįÐº": 1750,
      "ĠÑįÑĤÐ¾Ð¹": 1751,
      "ĠÐ¿Ð¾Ð½ÑıÑĤÑĮ": 1752,
      "ĠÐ¿Ð¾Ð¼Ð¾Ð¶ÐµÑĤ": 1753,
      "ĠÐ¸Ð´ÐµÑĤ": 1754,
      "ĠÐ²ÑĭÐ±Ð¸ÑĢÐ°Ð»": 1755,
      "ĠÐ¨Ð¸ÑĢÐ¾Ð±Ð¾ÐºÐ¾Ð²": 1756,
      "ÑĭÐ³Ð¸Ð½": 1757,
      "Ð°ÑģÑĮÐºÐ¾": 1758,
      "Ð»ÑĥÐ´": 1759,
      "ÑģÐºÐµ": 1760,
      "ÑĪÐµ": 1761,
      "Ð±Ð¸": 1762,
      "ĠÐºÐ½Ð¸": 1763,
      "Ð»ÑĮÑĦ": 1764,
      "ĠÑĤÐ²Ð¾ÑĢ": 1765,
      "ĠÐ¯ÐºÐ¾Ð²": 1766,
      "ÐºÐ¾Ð¿": 1767,
      "ĠÐļÑĭÓµÐµ": 1768,
      "Ð»Ð¸Ð·": 1769,
      "Ð¸ÑĤÐµÐ»ÑĮ": 1770,
      "ĠÑıÑĢ": 1771,
      "Ð¡Ñİ": 1772,
      "ĠÐŃÑĤÐ°": 1773,
      "ĠÑĢÐ°Ð±Ð¾ÑĤÐ°ÑİÑĤ": 1774,
      "ĠÐļÐ°ÐºÐ°Ñı": 1775,
      "ĠÑĢÐµÐ´Ð°": 1776,
      "ĠÐķÐ²Ñģ": 1777,
      "ÐµÐºÑĤÐ°Ðº": 1778,
      "ĠÐ¼ÑĥÐ·Ðµ": 1779,
      "Ð²ÑĭÐ¹": 1780,
      "ÐĿÐ°ÑĤÐ°Ð»Ð¸Ñı": 1781,
      "ĠÑĤÐ¸": 1782,
      "ÑĤÐ¾Ð½": 1783,
      "ĠÐºÑĭÑĤ": 1784,
      "ÐµÐ½Ð¾Ð²": 1785,
      "ÑħÐ¾Ð²": 1786,
      "ĠÐ¼ÐµÑģÑı": 1787,
      "ÑģÑĤÑı": 1788,
      "Ð¸Ð½Ð¾Ð²Ð°": 1789,
      "ĠÑĥÐ¼": 1790,
      "ĠÐ¾Ð¿": 1791,
      "ĠÐ¢Ð¾Ð»ÑĮÐºÐ¾": 1792,
      "ĠÐ³Ð¾Ð´Ð°": 1793,
      "Ð¾ÑģÐ¿": 1794,
      "Ð¢Ð¾Ð»": 1795,
      "Ð¸ÑĤÐ°": 1796,
      "Ð¸Ð·Ð½Ð¸": 1797,
      "ĠÑĤÐ°ÓµÐµ": 1798,
      "ĠÐ¶Ð¸Ð·Ð½Ð¸": 1799,
      "ĠÐ´ÐµÑĢÐµÐ²Ð½Ñı": 1800,
      "ĠÐ¸Ð´ÑĤÐ¸": 1801,
      "Ð¸Ð·Ð½ÑĮ": 1802,
      "ĠÐŁÐ¸ÐºÑĥÐ»ÐµÐ²Ð°": 1803,
      "ĠÐ¡Ð°ÑĢÐ°Ð¿ÑĥÐ»": 1804,
      "Ð½Ð¸Ð²ÐµÑĢÑģ": 1805,
      "ÑĤÑĥÑĤ": 1806,
      "Ð¼ÐµÐ½ÑĤ": 1807,
      "Ð¹ÑĳÑģ": 1808,
      "ÑįÐ¼": 1809,
      "Ð¾Ð½Ð´": 1810,
      "ÐµÑĢÐµÐ½": 1811,
      "ĠÐ¿ÑĮÐµÑģ": 1812,
      "ĠÐ¡ÐĲÐľ": 1813,
      "ĠÐļÑģÐµÐ½Ð¸Ñı": 1814,
      "Ð°ÑĤÐ°ÑĢ": 1815,
      "ĠÐ´Ð°Ð»Ð¸": 1816,
      "ĠÐ»ÐµÑĤ": 1817,
      "ÑĬÑĳÑģÑģÑį": 1818,
      "ÑĢÐ¾ÑĦ": 1819,
      "ĠÑįÑĤÐ°": 1820,
      "ĠÐĺÐ²Ð°Ð½Ð¾Ð²Ð¸Ñĩ": 1821,
      "ĠÑģÐºÐ°Ð·Ð°Ð»Ð°": 1822,
      "Ð°Ð»Ð¸ÑģÑĤ": 1823,
      "ĠÐ¿ÑĢÐ¾Ð¸Ð·Ð²ÐµÐ´": 1824,
      "ĠÐ¿ÑĢÐ¸ÑĪÐ»Ð°": 1825,
      "ĠÑĥÐ¶Ð°ÑģÑĮÐºÐ¾": 1826,
      "ĠÐºÐ°ÐºÐ¾Ð¹": 1827,
      "Ð£ÐĽÐŀÐĴÐĲ": 1828,
      "ĠÑĤÑĥÐ½ÑģÑĭÐº": 1829,
      "ĠÐ¿Ð¾Ð¼Ð¾Ð³": 1830,
      "ĠÐºÐ¾Ð»ÑħÐ¾Ð·": 1831,
      "ÐĺÐĵÐ£ÐĽÐŀÐĴÐĲ": 1832,
      "ÐµÑģÑıÐ½Ð°": 1833,
      "ĠÑĢÑĥÐºÐ¾Ð²Ð¾Ð´Ñı": 1834,
      "Ð½Ð¸Ð²ÐµÑĢÑģÐ¸ÑĤÐµÑĤ": 1835,
      "ĠÐ¡ÐĲÐľÐĺÐĵÐ£ÐĽÐŀÐĴÐĲ": 1836,
      "ÐĻ": 1837,
      "ÑĥÐ½Ð¾": 1838,
      "ĠÐ²Ð¾ÑĢÐ³Ð¾ÑĢÐ¾Ð½": 1839,
      "ÐºÐ°Ð¼ÐµÐ½": 1840,
      "ĠÑģÐ°Ð¹": 1841,
      "ĠÑģÐµÐ»Ð¾": 1842,
      "Ð°Ð½ÑĤ": 1843,
      "ĠÐ´ÐµÐ¿ÑĥÑĤÐ°ÑĤ": 1844,
      "ĠÐĳÑĭÐ³Ð¸Ð½": 1845,
      "ĠÐŁÐ¸Ñģ": 1846,
      "ĠÑĪÐµÐ´ÑĮ": 1847,
      "ÑĬÑĳÑģÑĭ": 1848,
      "Ð¸Ð»Ð¾Ð²": 1849,
      "Ð¼Ð¸Ð»Ð¸Ñı": 1850,
      "ĠÑĩÐµÐ±": 1851,
      "ĠÐ²ÑĭÑĢÐ°": 1852,
      "ĠÑĩÐµÐ»Ð¾Ð²Ðµ": 1853,
      "ĠÐĿÐ°ÑĤÐ°Ð»ÑĮÑı": 1854,
      "ĠÑĤÑĥÐ´Ð°": 1855,
      "ĠÐĹÐ°ÑĩÐµÐ¼": 1856,
      "ĠÑģÐµÐ¼ÑĮÐµ": 1857,
      "ĠÐ¿Ó§Ð»ÑĭÐ½": 1858,
      "Ð³Ð¾Ð²Ð¸ÑĨ": 1859,
      "ĠÐķÐ²ÑģÐµÐµÐ²Ð°": 1860,
      "ĠÐĳÑĭÐ³Ð¸Ð½ÑģÐºÐ°Ñı": 1861,
      "Ð£Ð´Ð¼ÑĥÑĢÑĤ": 1862,
      "ÑĤÐµÑĤ": 1863,
      "ÐºÑĭÑĤ": 1864,
      "ÑĭÐ»Ð°": 1865,
      "ĠÐºÑĭ": 1866,
      "ĠÑĤÐ°ÑĤÑĭÐ½": 1867,
      "Ð°Ð½Ð¾": 1868,
      "Ð°ÑĢÑĮÑı": 1869,
      "ĠÐļÐ°Ð·": 1870,
      "ĠÐķÐºÐ°ÑĤÐµÑĢÐ¸Ð½Ð°": 1871,
      "ÑĤÐ¾Ð¼": 1872,
      "ÑĢÐµÑģÑĤÑĮ": 1873,
      "ÐļÐ¾Ð½": 1874,
      "ÑĢÐ¸Ñı": 1875,
      "ĠÐĽÐ¸Ð·Ð°": 1876,
      "Ð¾Ð»ÐºÐ¾Ð²": 1877,
      "ĠÑĥÐ¶Ð°Ð·": 1878,
      "ĠÐĿÐ°Ð³Ð¾Ð²Ð¸ÑĨ": 1879,
      "ĠÐ½Ð¸ÐºÐ¾Ð³Ð´Ð°": 1880,
      "ĠÐĴÐ°ÑģÐ¸Ð»ÑĮÐµÐ²": 1881,
      "ĠÐĲÐ½ÑĦ": 1882,
      "ĠÐ¼Ð¸Ð»ÐµÐ¼": 1883,
      "ĠÐļÑĥÐ·ÑĮ": 1884,
      "ÑģÑĤÐ¸ÑĤÑĥÑĤ": 1885,
      "ĠÐĴÐ¾Ð»ÐºÐ¾Ð²": 1886,
      "ÑģÑĤÐ°Ð½ÑĤÐ¸Ð½": 1887,
      "ĠÐ±Ð¾Ð»ÑĮÑĪÐ¾Ð¹": 1888,
      "ĠÑĤÐ¾Ð»Ñį": 1889,
      "ĠÐ³ÑĢÑĥÐ¿Ð¿": 1890,
      "ÐľÐ¸ÑħÐ°Ð¸Ð»": 1891,
      "ÑĢÐµÑģÑĤÑĮÑıÐ½": 1892,
      "ÑĢÑĮ": 1893,
      "Ð¼Ð¾Ð²": 1894,
      "ÐºÐ°Ð´Ðµ": 1895,
      "Ð¾ÑĢÐ¾Ð²": 1896,
      "Ð¿Ð¸": 1897,
      "ĠÐ¿Ð»Ð¾": 1898,
      "ĠÐ¡ÑĥÑĢ": 1899,
      "ĠÑĥÐ½Ð¸Ð²ÐµÑĢÑģÐ¸ÑĤÐµÑĤ": 1900,
      "ĠÐĲÐ»Ð¸Ð½Ð°": 1901,
      "ĠÐĵÐ°Ð²ÑĢÐ¸": 1902,
      "Ð¾ÑģÑĭÐ·": 1903,
      "ĠÑĪÑĥÐ½": 1904,
      "Ð°Ð²Ð¾Ð¶": 1905,
      "ĠÑĥÐ³Ð¾Ð»Ð¾Ð²": 1906,
      "ÑĢÑıÐ´": 1907,
      "ĠÐ²Ð¸Ð´Ðµ": 1908,
      "ĠÐ½Ð°Ð¿ÑĢÐ¾ÑĤÐ¸Ð²": 1909,
      "ĠÐ¿ÐµÐ½ÑģÐ¸Ð¾Ð½ÐµÑĢ": 1910,
      "ĠÐļÐ¸ÑĢÐ¸Ð»Ð»Ð¾Ð²Ð°": 1911,
      "ĠÐ¼ÐµÐ´Ð°Ð»ÑĮ": 1912,
      "ÐµÑģÑĤ": 1913,
      "ÑģÐµÐ¼": 1914,
      "ÑģÐºÐ¾Ð³Ð¾": 1915,
      "Ð»ÐµÐ¹": 1916,
      "ĠÐºÐ²Ð°ÑĢ": 1917,
      "Ð¾ÑĢÐµ": 1918,
      "Ð°Ð½ÑĮ": 1919,
      "ÐµÐ½Ð¸Ñģ": 1920,
      "ĠÐ¸Ð·": 1921,
      "ĠÐĲÐ»ÐµÐ²ÑĤÐ¸Ð½Ð°": 1922,
      "ÐĲÐł": 1923,
      "ĠÐ³ÑĥÑĢ": 1924,
      "Ð»Ð¾ÑĤ": 1925,
      "ĠÐĳÐ¾Ð»ÑĮ": 1926,
      "Ð¾ÑģÐ»Ñĭ": 1927,
      "ĠÑĪÐµÐ»": 1928,
      "ÐķÐ²": 1929,
      "ÐĿÐŀÐĴÐĲ": 1930,
      "ĠÑĪÑĥÐ¾": 1931,
      "ĠÐºÑĥÐ´Ð°": 1932,
      "ĠÐĺÐ¶ÑĭÑģÑĮ": 1933,
      "ĠÑģÐ¿ÐµÐºÑĤÐ°Ðº": 1934,
      "ÐµÑĩÐ½Ð¾": 1935,
      "ĠÐ¿ÐµÑĢÐ²": 1936,
      "ĠÓĿÑĥ": 1937,
      "ĠÑĥÑģÑĮÑĤÓ¥ÑģÑĮ": 1938,
      "ĠÐłÐ°Ð±Ð¾ÑĤ": 1939,
      "ĠÐ»Ð¸ÑĤÐµÑĢÐ°ÑĤÑĥÑĢ": 1940,
      "ÐĴÐ°ÑģÐ¸": 1941,
      "ĠÐĲÐ½ÑĦÐ¸Ð½Ð¾Ð³": 1942,
      "Ð¸Ðµ": 1943,
      "Ð¸Ð´Ð¸Ñı": 1944,
      "Ð¼Ð°ÑĢ": 1945,
      "ÑĢÐ°Ðº": 1946,
      "ÑįÐ±": 1947,
      "Ð»ÑĮÑĩÐ°": 1948,
      "ĠÐľÐ°": 1949,
      "Ð°Ð»Ñį": 1950,
      "Ð°Ð½Ñİ": 1951,
      "ÐµÑĤÑĭÑĢÐµ": 1952,
      "ĠÑĥÐ¿": 1953,
      "Ð»Ð¸ÑģÑĮ": 1954,
      "ÐºÐ¸Ñħ": 1955,
      "Ð»Ð¾Ð³Ð¸": 1956,
      "ÑĢÐ¸ÑģÑĤ": 1957,
      "ĠÐ±Ð°Ð±ÑĥÑĪÐºÐ°": 1958,
      "Ð¡ÑĤ": 1959,
      "Ó§Ð´": 1960,
      "ĠÐ¼ÐµÑģÑĤÐ¾": 1961,
      "ĠÐ¶Ð°Ð»Ðµ": 1962,
      "ĠÑģÐºÐ°Ð·Ð°ÑĤÑĮ": 1963,
      "ÑģÑĤÐ²Ðµ": 1964,
      "ĠÐłÐ¾Ð¼Ð°Ð½Ð¾Ð²Ð°": 1965,
      "ÑĩÐ°ÐºÐ¾Ð²Ð°": 1966,
      "ĠÑĢÑĥÐºÐ¾Ð²Ð¾Ð´Ð¸Ð»": 1967,
      "ĠÐĴÐ°ÑħÐ¸ÑĤÐ¾Ð²Ð°": 1968,
      "ĠÐ¼ÑĥÐ·ÐµÐ¹": 1969,
      "ĠÐŁÐ°Ð²Ð»Ð¾Ð²": 1970,
      "Ð¸Ð·Ð½ÐµÑĢ": 1971,
      "ĠÐ¨Ð°ÑĢÐºÐ°Ð½": 1972,
      "Ð´ÑįÑģ": 1973,
      "ĠÑĤÑĥÐ½ÑģÑĭÐºÑĬÑıÑģÑĮ": 1974,
      "ĠÐ¡ÑĥÑĢÑĩÐ°ÐºÐ¾Ð²Ð°": 1975,
      "ĠÐĲÐ½ÑĦÐ¸Ð½Ð¾Ð³ÐµÐ½Ð¾Ð²": 1976,
      "Ð¬": 1977,
      "Ð¾ÑīÐ¸": 1978,
      "ÑģÐµÐ½": 1979,
      "ÑģÐ»ÑĥÐ´": 1980,
      "ÑĥÐ¿": 1981,
      "ÑĮÑİ": 1982,
      "ĠÐ²ÐµÑĢ": 1983,
      "ÑĢÐ°Ð´": 1984,
      "ÐµÑĢÑĪ": 1985,
      "ĠÐ¿Ð¾ÑĤ": 1986,
      "ĠÐ¿Ð°Ð¼": 1987,
      "ĠÐ¼Ð°ÑģÑĤÐµÑĢ": 1988,
      "ĠÐ¸Ð»Ð¸": 1989,
      "ÐĲÐķÐĴÐĲ": 1990,
      "ÐµÐ·Ð´": 1991,
      "Ð´ÐµÐµÐ²": 1992,
      "ÐŀÐĽ": 1993,
      "ÐĺÐļ": 1994,
      "Ð»ÑĭÐº": 1995,
      "ĠÐĶÐµÐ±": 1996,
      "ĠÐ¨Ð¸Ð»Ñı": 1997,
      "ĠÑĦÐµÐ´ÐµÑĢÐ°": 1998,
      "ĠÐ»Ð¾ÑĪÐ°Ð´ÐµÐ¹": 1999,
      "ÑĭÐ½ÑĭÐ´": 2000,
      "ĠÐºÐ¸Ð½Ð¾": 2001,
      "ÑĩÐ¸Ð»Ð¸ÑīÐµ": 2002,
      "ĠÐºÑĥÐ»ÑĮÑĤÑĥÑĢÐ°": 2003,
      "ĠÐĿÐ°Ð´Ð¾": 2004,
      "ĠÐ¿ÑĢÐ¾ÑĦÐµÑģÑģÐ¾ÑĢ": 2005,
      "ĠÐ¹ÑĭÑĢ": 2006,
      "ĠÐ²Ð°Ð»Ð°ÑģÑĮÐºÑĭ": 2007,
      "ĠÐľÐ°ÑĤÐ²": 2008,
      "ĠÐ¶ÐµÐ½Ñī": 2009,
      "ÐºÐ°Ð´ÐµÐ¼Ð¸": 2010,
      "ĠÐĶÐµÐ±ÐµÑģ": 2011,
      "Ð°Ð·Ñĭ": 2012,
      "ÑıÐ¼": 2013,
      "Ð³ÑĢÐµ": 2014,
      "Ð°Ð»Ð°ÑĪ": 2015,
      "ÐµÐ½ÐºÐ¾": 2016,
      "ĠÐ¿ÑĥÐº": 2017,
      "ÐľÑĥÐºÐµÑĤ": 2018,
      "ÑģÑĤÐ²Ð°": 2019,
      "ĠÐ´Ð¸Ð¿Ð»Ð¾": 2020,
      "ĠÐ¾Ðº": 2021,
      "ĠÐ¢ÑĢÑĥ": 2022,
      "ĠÑĤÐµÑħÐ½Ð¸": 2023,
      "Ð½Ð¸ÑĨÐ¸": 2024,
      "Ð¸ÑĤÐµ": 2025,
      "ĠÐŀÐ´Ð¸Ð½": 2026,
      "ĠÑĥÐ¶Ð°Ð½Ñĭ": 2027,
      "Ð°Ð¹Ð½": 2028,
      "ĠÐ¨ÑĥÐ¼": 2029,
      "Ð²Ð°Ñı": 2030,
      "ÐĳÐ°Ð´ÓŁÑĭÐ¼": 2031,
      "ÑĢÑıÐºÐ¾Ð²Ð°": 2032,
      "ĠÐ®ÐºÐ°Ð¼ÐµÐ½": 2033,
      "ĠÑħÐ¾Ð´Ð¸ÑĤ": 2034,
      "ĠÐ°Ð´ÓŁÐµÐ¼": 2035,
      "ĠÐ¸Ð³ÑĢÐ°Ð»": 2036,
      "ĠÐ»ÑİÐ´Ð¸": 2037,
      "ÑĩÐµÑģÐºÐ¾Ð¹": 2038,
      "ĠÐľÐ¾ÑģÐºÐ²Ðµ": 2039,
      "ĠÐ°Ð·ÑĮÑĭÐ½": 2040,
      "ĠÑĢÐ°Ð¹Ð¾Ð½": 2041,
      "ĠÐĳÐµÐ»Ð¾ÑģÐ»ÑĥÐ´": 2042,
      "ĠÑĨÐ²ÐµÑĤÑĭ": 2043,
      "ĠÐ¼ÑĥÑģÐ¾": 2044,
      "ÑįÐ±ÐµÑģ": 2045,
      "ĠÑĢ": 2046,
      "ÑĤÐ¾ÑĢÑĭ": 2047,
      "ÑĥÐ¹": 2048,
      "ĠÐ²ÐµÑĩ": 2049,
      "ĠÐºÑĢÐµÐ·ÑĮÐ³ÑĥÑĢ": 2050,
      "ĠÑĤÑĢÐ°": 2051,
      "ÐºÐ°ÐµÐ½": 2052,
      "ĠÑģÑĬ": 2053,
      "ĠÑģÐ¾Ð»": 2054,
      "ĠÑģÑĤÐ°": 2055,
      "Ð¿Ð¾ÑĢÑĤ": 2056,
      "ĠÐ¼Ð°Ð»Ñĭ": 2057,
      "ĠÐļÑĢÐ°Ñģ": 2058,
      "ĠÑĥÐ¹": 2059,
      "ÐĲÐ²": 2060,
      "ÐĲÐ½ÑĤ": 2061,
      "ĠÐŁÑĥÑĤÐ¸Ð½": 2062,
      "Ð¢Ó¥": 2063,
      "ĠÐŀÐºÐ¾Ð»Ð¾": 2064,
      "ĠÑĤÐ°ÐºÐ¾Ðµ": 2065,
      "ÑĭÑģÐ°Ð»": 2066,
      "ÐłÐ°": 2067,
      "ÐłÐ¾Ñģ": 2068,
      "Ð³Ð¾ÑĢÐ¸Ð¹": 2069,
      "ĠÐ¾ÑĤÐµÑĨ": 2070,
      "ĠÑģÑıÑģÑĮ": 2071,
      "ĠÑĥÐ¶Ð°ÑģÑĮÑĳÑģ": 2072,
      "ĠÑģÐºÐ°Ð¶Ñĥ": 2073,
      "ĠÐļÑĥÐ·Ð½ÐµÑĨÐ¾Ð²": 2074,
      "ĠÐºÐ¾Ð»Ð»ÐµÐºÑĤÐ¸Ð²": 2075,
      "ÑģÐºÑĥ": 2076,
      "Ð¼ÑĥÑĢ": 2077,
      "Ð¼Ð°Ð½Ð¾Ð²": 2078,
      "ĠÐ²Ñĥ": 2079,
      "Ð±Ð°ÑĢ": 2080,
      "ĠÐ£Ð´Ð¼ÑĥÑĢÑĤÐ¸Ñı": 2081,
      "ÐºÐ°Ð¹": 2082,
      "ĠÐ½Ð°Ñģ": 2083,
      "ĠÐ¡ÐµÑĢ": 2084,
      "ĠÐĴÐ°Ð»ÐµÐ½": 2085,
      "ĠÐļÐ¸Ð½": 2086,
      "ĠÐļÐ¾Ð»": 2087,
      "ĠÐ´ÑĥÐ½Ð¾": 2088,
      "ÑĤÐ¾Ð¹": 2089,
      "ĠÐ³Ð¾Ð»Ð¾Ð²": 2090,
      "ĠÐ±Ð°": 2091,
      "Ð¼ÐµÑģ": 2092,
      "ĠÐ°Ð´Ð¼": 2093,
      "Ð¼Ð¸ÑģÑĮ": 2094,
      "ÐĿÐ¾Ðº": 2095,
      "Ð¸ÑĩÐµÑģ": 2096,
      "ĠÑįÐº": 2097,
      "Ð°Ð´ÑĢÐµÑĤ": 2098,
      "Ð°ÐºÐ¾Ð½": 2099,
      "ÑĥÐºÐµÑĢ": 2100,
      "ĠÐĺÐ²Ð°Ð½Ð¾Ð²Ð½Ð°": 2101,
      "ĠÑĥÐ¶Ð°ÑģÑĮ": 2102,
      "Ð°Ð³ÑĢÐµ": 2103,
      "ĠÐ³Ð¾Ð¶ÑĬÑı": 2104,
      "ÑģÐ¸Ð¼Ð¾Ð²": 2105,
      "ĠÐ¾Ð³Ð½Ð°": 2106,
      "ĠÑĪÑĥÐ¼Ð¿Ð¾ÑĤÓ¥": 2107,
      "ĠÐ¸Ð³ÑĢÐ°ÐµÑĤ": 2108,
      "ÐļÑĭÑĤÑĩÑĭ": 2109,
      "ĠÐ¼Ð°Ð»ÐµÐ½ÑĮÐºÐ¸Ð¹": 2110,
      "ĠÑĦÐ°ÐºÑĥÐ»ÑĮ": 2111,
      "Ð¾Ñİ": 2112,
      "Ð¸ÑĦ": 2113,
      "Ð»ÑĥÐ¶": 2114,
      "ÑĥÑĢÐ¸": 2115,
      "ĠÐ²Ð¾Ð¹": 2116,
      "Ð·Ð°Ð¼": 2117,
      "ÑĩÐµÐ²": 2118,
      "ĠÑģÐ²": 2119,
      "ÐµÑĢÐ¾": 2120,
      "ĠÐ¿Ð¾Ð´Ð½Ñı": 2121,
      "ĠÐ¿ÑĢÐ°Ð²": 2122,
      "Ð°ÑĢÑĮ": 2123,
      "Ð°ÑĢÐ¾Ð²Ð°": 2124,
      "ĠÑĥÐ»ÑĮÑĩÐ°": 2125,
      "ĠÐ¢Ó¥": 2126,
      "ĠÐĳÐ°Ð´ÑĢÐµÑĤ": 2127,
      "ĠÐŁÐ¾": 2128,
      "ĠÐŁÐ¾Ð·": 2129,
      "Ð¾ÑģÑģÑį": 2130,
      "ÐĴÐµÑĢ": 2131,
      "ĠÐ±Ð¾Ð»Ðµ": 2132,
      "ĠÐ·ÐµÐ¼": 2133,
      "ĠÑĩÐµÐ¼": 2134,
      "Ð¸Ð·ÑĮ": 2135,
      "ÐĵÐ£": 2136,
      "ÐŁÑĢÐ¾": 2137,
      "ÑģÐºÐ¸Ñħ": 2138,
      "ĠÐ£ÑĪÐ°": 2139,
      "ĠÐ£Ð²Ð°": 2140,
      "ÑĭÑĪÐ½Ð¾Ð¼": 2141,
      "ĠÐ³Ð¾Ð²Ð¾ÑĢÐ¸ÑĤÑĮ": 2142,
      "Ð¾Ð»Ð¾Ð³": 2143,
      "ĠÐºÐ¾Ð¼Ð°Ð½Ð´": 2144,
      "ĠÐ½Ð°ÑĥÑĩÐ¸": 2145,
      "ĠÐ²ÐµÑĢÐ°Ð·": 2146,
      "ÑģÐ¿ÑĥÐ±Ð»Ð¸": 2147,
      "ĠÐ±Ð¾Ð»ÑĮÑĪÐ°Ñı": 2148,
      "ĠÐľÐ¸ÑħÐ°Ð¹Ð»Ð¾Ð²Ð°": 2149,
      "ĠÐĳÐ¾Ð³Ð´Ð°Ð½": 2150,
      "ĠÑĤÓ¥Ð»ÐµÐ´": 2151,
      "Ð¸Ð½Ð¸ÑģÑĤÑĢÐ°": 2152,
      "ĠÐĲÐ½ÑĤÐ¾Ð½Ð¾Ð²Ð°": 2153,
      "ĠÐĵÑĢÐ¸Ð³Ð¾ÑĢÑĮÐµÐ²": 2154,
      "ĠÐĴÐµÑĢÐ¾Ð½Ð¸ÐºÐ°": 2155,
      "ĠÑĦÐµÑģÑĤÐ¸Ð²Ð°Ð»ÑĮ": 2156,
      "ĠÐ¼ÑĥÐ¶ÑĩÐ¸Ð½Ð°": 2157,
      "ÑĢÐµÑĩÐ°Ð»": 2158,
      "ĠÐĹÐ¾ÑĢÐ¸Ð½Ð°": 2159,
      "ĠÐłÐ°Ð±Ð¾ÑĤÐ°": 2160,
      "ÐµÑĢÑĪÐµÐ½ÑĮ": 2161,
      "ĠÐ¨Ð¸Ð»ÑıÐµÐ²Ð°": 2162,
      "ĠÐ²ÐµÑģ": 2163,
      "ĠÑĤÑĥÑĢ": 2164,
      "ĠÑģÐºÐ¾Ð»ÑĮÐºÐ¾": 2165,
      "Ð¿Ð¾Ð²": 2166,
      "ĠÐ¿ÐµÑģÑıÐ½Ð°": 2167,
      "Ð°ÑĢÑĤ": 2168,
      "ĠÐĿÐĺÐļ": 2169,
      "ĠÐĳÐ°Ð»Ðµ": 2170,
      "ĠÐŁÐ»Ð¾ÑĤ": 2171,
      "ĠÐĽÑİ": 2172,
      "ÐµÐ¼Ð°": 2173,
      "ÐµÐ¼ÑĮÑı": 2174,
      "Ð¾Ð³ÑĢÐ°": 2175,
      "ÐŁÐ°Ð²": 2176,
      "Ó§ÐºÑĭ": 2177,
      "ĠÐºÑĥÐ¸Ð½ÑĮ": 2178,
      "ÑĨÐ¸ÑĭÐ½": 2179,
      "ĠÐ¾Ð±ÑīÐµ": 2180,
      "ĠÐ¿Ð¾Ñį": 2181,
      "ĠÐ¿Ð¾Ñĩ": 2182,
      "ĠÐ¿Ð¾Ð»Ð¾": 2183,
      "ĠÐ³Ð¾Ð²Ð¾ÑĢÑıÑĤ": 2184,
      "Ð¾ÑģÑĤÑı": 2185,
      "ĠÐ»ÑİÐ±ÑıÑĤ": 2186,
      "ĠÐ´ÐµÐ»Ð°ÐµÑĤ": 2187,
      "ĠÑĢÐµÑģÐ¿ÑĥÐ±Ð»Ð¸": 2188,
      "Ð¸Ð»Ð¸Ñı": 2189,
      "ĠÓŁÑĥÑĩ": 2190,
      "ĠÐ´Ð²Ðµ": 2191,
      "ĠÐļÐ¾Ð½ÑģÑĤÐ°Ð½ÑĤÐ¸Ð½": 2192,
      "ĠÐºÐ¾ÑĪÐºÐ¸Ð·": 2193,
      "ĠÐļÑĥÐ´Ð°": 2194,
      "ĠÑĥÑĩÐ¸ÑĤ": 2195,
      "Ð»ÑĮÑĦÐ°ÑĤ": 2196,
      "ÑĭÐ»Ð°ÑĪ": 2197,
      "ÑĥÐºÐµÑĢÑĮÑı": 2198,
      "ÑĭÑĪÐ½Ð¾Ð¼ÑĥÑĢÑĤ": 2199,
      "Ó§ÐºÑĭÑĩ": 2200,
      "»¿": 2201,
      "Ó´": 2202,
      "Óľ": 2203,
      "ï»¿": 2204,
      "Ð¸ÑĪÑĮ": 2205,
      "ÐµÐ¾ÑĢ": 2206,
      "ÐµÐµÐ²Ð¸Ñĩ": 2207,
      "ÐµÑģÑĤÑĮ": 2208,
      "ÑģÐ¼ÐµÐ½": 2209,
      "ÐºÐ¾ÑĢ": 2210,
      "ÑĭÐ»ÑĮ": 2211,
      "ÑĪÑĥÑĢ": 2212,
      "Ð»ÑĮÐ½Ð¾Ð¹": 2213,
      "ĠÐľÐ¸ÑĤ": 2214,
      "Ð°Ð½Ð´Ð°": 2215,
      "ĠÐ½Ð°ÑĪÐµÐ»": 2216,
      "ĠÐ¿ÑĢÑı": 2217,
      "ĠÐ¯ÑĢ": 2218,
      "ÐľÐ°": 2219,
      "ÐľÐ°Ðº": 2220,
      "ĠÐ¡Ð²ÐµÑĤ": 2221,
      "ĠÐĴÐ¾ÑĢÐ¾Ð½": 2222,
      "ĠÐĴÐ°Ð²Ð¾Ð¶": 2223,
      "ĠÐĲÐ±": 2224,
      "ĠÐ¢Ð¾Ð»": 2225,
      "Ð½Ð¸ÑĨÐ°": 2226,
      "ĠÐ±Ñĥ": 2227,
      "ĠÑĦÐ¾ÑĤÐ¾": 2228,
      "ĠÐļÐ¾ÑĢÐµÐ¿Ð°Ð½Ð¾Ð²": 2229,
      "Ð°ÑħÐ¼ÐµÑĤ": 2230,
      "ĠÐ¶Ð°Ð»Ñı": 2231,
      "ĠÐ¶Ð¸Ð·Ð½ÑĮ": 2232,
      "Ð¾Ð±Ð°Ð²": 2233,
      "ĠÑıÑĢÐ°ÑĤÑį": 2234,
      "Ð¸Ð¼Ð¼Ð°": 2235,
      "ĠÐłÐ°Ð¸ÑģÐ°": 2236,
      "ĠÑģÑİÐ»ÑįÐ¼": 2237,
      "Ð¾ÑĩÑĮ": 2238,
      "ÐļÑĥÐ¸Ð½ÑĮ": 2239,
      "ĠÑģÐºÐ°Ð¶ÐµÑĤ": 2240,
      "ĠÐŁÐµÑĢÐµÐ²Ð¾ÑīÐ¸": 2241,
      "ĠÑģÐ¿ÐµÑĨÐ¸Ð°Ð»Ð¸ÑģÑĤ": 2242,
      "ĠÐ´ÐµÐ»Ð°Ð»": 2243,
      "ĠÐ¿ÑĢÐ¾Ð³ÑĢÐ°Ð¼Ð¼Ð°": 2244,
      "ĠÐ¼Ð¾Ð»Ð¾Ð´Ð¾Ð¹": 2245,
      "ĠÐ²ÑĭÑĢÐ°ÑīÐ¸": 2246,
      "Ó§Ð´ÑĮÑĭ": 2247,
      "ĠÐ¨ÑĥÐ¼Ð¸Ð»Ð¾Ð²Ð°": 2248,
      "ĠÑĦÐ°ÐºÑĥÐ»ÑĮÑĤÐµÑĤ": 2249,
      "ĠÓ§": 2250,
      "ĠÑĢÐ¾Ð¼": 2251,
      "ÐµÐ¶": 2252,
      "ÑĤÐ°Ð¹": 2253,
      "Ð»ÑıÐ½": 2254,
      "ÐºÐµÐ¼": 2255,
      "ÑĭÐ¹": 2256,
      "ĠÐ²Ð¾Ð´": 2257,
      "ĠÐ²Ó§Ð·": 2258,
      "ĠÐºÑĢÐ°Ñģ": 2259,
      "ĠÐºÓ§Ð½Ñı": 2260,
      "Ð»ÑĮÐ²": 2261,
      "ÐºÐ°ÑĭÐ½": 2262,
      "ĠÑģÐ¾Ð²": 2263,
      "ĠÐ¿ÑĢÐ°Ð·Ð´Ð½Ð¸Ðº": 2264,
      "ĠÐ¡ÑĢÐµÐ´Ð¸": 2265,
      "ĠÐĴÐ»Ð°Ð´Ð¸": 2266,
      "ĠÐ´Ð¾ÐºÑĥ": 2267,
      "ĠÐĺÐ»ÑĮ": 2268,
      "Ð½Ð¸Ðµ": 2269,
      "ĠÐĳÐ°": 2270,
      "Ð¼Ð°ÐºÐ¾Ð²": 2271,
      "ĠÑĢÐ°Ð±Ð¾ÑĤÑĭ": 2272,
      "ĠÐ§ÐµÑĢ": 2273,
      "ÑĤÐ°ÐµÐ²Ð°": 2274,
      "ĠÐ¼ÐµÑģÑĤÐµ": 2275,
      "ÐĳÐ¾ÑĢÐ¸Ñģ": 2276,
      "Ð°Ð»Ð¸Ð»ÑĮ": 2277,
      "ĠÐ¤ÐµÐ´": 2278,
      "ĠÐºÐ°ÑĦ": 2279,
      "ĠÐĴÐ»Ð°Ð´Ð¸Ð¼Ð¸ÑĢÐ¾Ð²Ð¸Ñĩ": 2280,
      "ÑĪÐ¸Ðµ": 2281,
      "ÐĲÐ½Ð´ÑĢÐµÐ¹": 2282,
      "ÑĢÐ¾Ð¼Ðµ": 2283,
      "ĠÐ¡ÑĤÐµÐ¿Ð°Ð½Ð¾Ð²": 2284,
      "ÑĩÐµÑģÑĤÐ²Ð¾": 2285,
      "Ð°Ð¹ÐºÐ¾Ð²ÑģÐºÐ¸Ð¹": 2286,
      "Ð«": 2287,
      "Óŀ": 2288,
      "ÑĤÐµÐ»ÑĮ": 2289,
      "Ð»Ð»ÑıÐ¼": 2290,
      "Ð´ÑĢÐ°": 2291,
      "Ð´ÑĥÐ½": 2292,
      "Ð²Ð°Ð¹": 2293,
      "Ð»ÐµÐºÑĤ": 2294,
      "ÐºÐ°Ð¼": 2295,
      "ÐľÐ¸Ð»ÑıÐ¼": 2296,
      "ÑħÐ¾Ð´Ð¸": 2297,
      "Ð¸Ð½Ðµ": 2298,
      "ĠÐ´Ð°": 2299,
      "ĠÐ´Ð°ÑģÑĮ": 2300,
      "ĠÐĿÐµÐ²": 2301,
      "ĠÐĵÐ»Ð°Ð·": 2302,
      "Ð´Ð°Ñı": 2303,
      "Ð½Ð¸Ñı": 2304,
      "ÑĦÐ¸": 2305,
      "ĠÐĽÐµÐ±": 2306,
      "ÐĽÐµ": 2307,
      "ÐµÐ·ÑĮ": 2308,
      "ĠÑĩÐ°": 2309,
      "ĠÐĶÐµÐ½Ð¸Ñģ": 2310,
      "ÐºÑĤÑĭ": 2311,
      "ĠÐ£Ð´": 2312,
      "ÐµÐ»ÑĮÑģ": 2313,
      "Ð¨Ó§ÐºÑĭÑĩ": 2314,
      "ĠÐ°ÑĢÑħ": 2315,
      "Ð´Ð¸Ð½Ð¾Ð²Ð°": 2316,
      "ĠÐ¼ÑĭÐ½Ó¥": 2317,
      "ĠÐºÐ¸Ð²Ð°Ð»ÑĤÓ¥Ð·": 2318,
      "ĠÐºÐ¾Ð½ÐºÑĥÑĢ": 2319,
      "ĠÐ¿ÑĥÐ¼Ð¸ÑģÑĮ": 2320,
      "ĠÐ¿Ð¾Ð¼Ð¾ÑĩÑĮ": 2321,
      "ÐºÐ¾Ð½Ð¾Ð¼": 2322,
      "ĠÑĥÐ»Ð¸ÑĨÐµ": 2323,
      "ĠÐ¡Ð¼Ð¸ÑĢÐ½Ð¾Ð²Ð°": 2324,
      "ĠÐºÐ²Ð°ÑĢÑĤÐ¸": 2325,
      "Ð°Ð»Ð°ÑĪÐ½Ð¸ÐºÐ¾Ð²": 2326,
      "ĠÐĳÐµÐ»Ð¾ÑģÐ»ÑĥÐ´ÑĨÐµÐ²": 2327,
      "ÑģÐºÑĥÑģ": 2328,
      "ĠÐ°Ð´Ð¼Ð¸Ð½Ð¸ÑģÑĤÑĢÐ°": 2329,
      "ĠÐ½Ð°ÑĥÑĩÐ¸Ð»Ð°": 2330,
      "Ð¾ÑĢÐ°": 2331,
      "Ð»Ñĥ": 2332,
      "ÑģÐµÑĢ": 2333,
      "ÑģÑİ": 2334,
      "ÑĭÑħ": 2335,
      "ĠÐľÐ¾Ð»Ð¾": 2336,
      "Ð°Ð½Ð¸Ñı": 2337,
      "ĠÐ¿Ð¾Ð´": 2338,
      "ÐºÐ¾Ð»": 2339,
      "ĠÐĴÐ°Ð½Ñİ": 2340,
      "ĠÐļÑĭÐ·ÑĮÑĭ": 2341,
      "ĠÐ´Ð¾Ð±Ð°Ð²": 2342,
      "ÑĭÐ½ÐµÑĪ": 2343,
      "ĠÐĺÐ³": 2344,
      "ÐļÐ¾ÑĢ": 2345,
      "ĠÐŁÑĢÑı": 2346,
      "Ð¾ÑģÐ»ÑįÐ½": 2347,
      "ÐĴÐ¾ÑĤ": 2348,
      "ÐĴÐ°Ð»ÐµÑĢÐ¸Ð¹": 2349,
      "ÑıÐ½ÑĮ": 2350,
      "ÑģÐ¸Ñħ": 2351,
      "Ð½Ð¾ÑģÑĤÑĮ": 2352,
      "ÑĢÑĥÐ³": 2353,
      "ÐŀÐ³": 2354,
      "Ð½ÑıÐ·": 2355,
      "ÑĤÑĮÑģÑı": 2356,
      "Ð¾Ð·ÑĮ": 2357,
      "ÑģÐºÐ¸Ðµ": 2358,
      "ĠÐ³Ð¾Ð²Ð¾ÑĢÑı": 2359,
      "ĠÑģÑıÐ½Ð°": 2360,
      "ĠÐ²ÐµÑĢÐ°Ð»Ð¾": 2361,
      "ĠÑĥÐ´Ð¼ÑĥÑĢÑĤÑģÐºÐ¸Ð¹": 2362,
      "ĠÑģÑĳÑĤÐ¾": 2363,
      "ĠÐ»ÑİÐºÐµÑĤ": 2364,
      "Ð»Ð°Ð´ÑĭÐº": 2365,
      "ĠÐ½Ð¾Ð¼ÑĭÑĢ": 2366,
      "Ð»ÐµÐ½Ð¸Ðµ": 2367,
      "ÐĲÐ´ÑıÐ¼Ð¸": 2368,
      "ÐºÐ¾Ð¿ÑĮ": 2369,
      "ÐŀÐĽÐĲÐķÐĴÐĲ": 2370,
      "ĠÐĴÐ°Ð»ÐµÐ½ÑĤÐ¸Ð½": 2371,
      "ĠÐĳÐ°Ð´ÑĢÐµÑĤÐ´Ð¸Ð½Ð¾Ð²": 2372,
      "ĠÐĿÐĺÐļÐŀÐĽÐĲÐķÐĴÐĲ": 2373,
      "ÐŁÐ°Ð²ÐµÐ»": 2374,
      "ÐµÐ¾ÑĢÐ³Ð¸": 2375,
      "Ð½ÑĥÑİ": 2376,
      "ÑĪÐ¸Ñħ": 2377,
      "Ð±Ñĭ": 2378,
      "ÐµÑĢÐ¸": 2379,
      "ĠÐ¿Ð°Ð»": 2380,
      "Ð°ÑĢÐ¸": 2381,
      "Ð»Ð°ÑģÑĮ": 2382,
      "ĠÐļÐ°ÑĤ": 2383,
      "ĠÐļÐ¸Ð·Ð½ÐµÑĢ": 2384,
      "ĠÐĲÐ½Ð¸": 2385,
      "ĠÐ¢Ð¾Ð½": 2386,
      "ĠÐ³Ð¾ÑĤÐ¾Ð²": 2387,
      "ÐļÐ¾Ð»": 2388,
      "ÐļÐ¾ÑĪ": 2389,
      "ÐļÐ¸Ð²Ð°Ð»": 2390,
      "ĠÐĳÑĥÑĢ": 2391,
      "ÐĴÐµÑĤ": 2392,
      "ÑĦÐ¾ÑĢ": 2393,
      "ĠÐŀÐ¿": 2394,
      "Ð¸Ð»ÑģÑı": 2395,
      "ĠÐĹÐ°Ð¹": 2396,
      "ÐµÐ¼ÑĮ": 2397,
      "ĠÑįÐ¼": 2398,
      "ÐŁÐµÑĤ": 2399,
      "ĠÐĿÐ¸ÐºÐ¸ÑĤÐ°": 2400,
      "ĠÐºÐ°ÑĢÐµ": 2401,
      "ĠÐ²ÑĭÐ¿Ð¾Ð»": 2402,
      "ÑĥÐ´Ð¾Ð¶": 2403,
      "ĠÐŃÐ³ÑĢÐ°": 2404,
      "ĠÐ¼ÐµÑģÑĤÐ°": 2405,
      "Ð¨ÐºÐ¾Ð»Ð°": 2406,
      "ĠÐ²ÐµÑĢÐ°Ð½": 2407,
      "ĠÑģÐ¿Ð¾ÑĢ": 2408,
      "ĠÐ·Ð°ÑĩÐµÐ¼": 2409,
      "ĠÐ¼ÑĭÐ½Ð¾": 2410,
      "Ð¸Ð½ÑįÐ·": 2411,
      "ĠÐ®ÑĢÐ³Ð¸Ñģ": 2412,
      "ĠÐ´ÐµÑĢÐµÐ²Ð½Ð¸": 2413,
      "Ð°Ð´ÓŁÑĭ": 2414,
      "ĠÑħÐ¾Ð´Ð¸Ð»Ð¸": 2415,
      "ÑĢÐ°Ð·ÑĨÐ¾Ð²Ð°": 2416,
      "ĠÑĪÐºÐ¾Ð»Ð°ÑĭÐ½": 2417,
      "ĠÐĵÑĢÐ¸Ð³Ð¾ÑĢÐ¸Ð¹": 2418,
      "ĠÐ¸Ð½Ð¶ÐµÐ½": 2419,
      "ĠÐ¸Ð½ÑĤÑĭÑĭÐ½": 2420,
      "ĠÐ»Ð¸ÑĤÐµÑĢÐ°ÑĤÑĥÑĢÐ°": 2421,
      "ĠÐ·Ð°Ð±ÑĥÐ´": 2422,
      "ĠÐŀÑĤÐºÑĥÐ´Ð°": 2423,
      "ĠÐ¼ÑĥÐ·ÐµÐµ": 2424,
      "ĠÐ²ÑĭÐ¿Ð¾Ð»Ð½Ñı": 2425,
      "ÑĤÐ½Ð¾": 2426,
      "ÑĤÑĭÐ¼": 2427,
      "ÑĭÐ¿": 2428,
      "Ð¾Ð²Ð»ÑįÐ½": 2429,
      "Ð³Ð°Ð½": 2430,
      "ĠÐ½ÑĭÐ»Ð°ÑĪ": 2431,
      "Ð±Ñĥ": 2432,
      "ĠÑĤÐ¾Ð±": 2433,
      "ĠÑģÑĨÐµÐ½Ð°": 2434,
      "Ð¶Ñĥ": 2435,
      "Ð¿Ð»Ð°": 2436,
      "Ð¿Ð»Ð¾": 2437,
      "ĠÐļÑĭÑĤ": 2438,
      "ĠÐ´ÐµÐ²": 2439,
      "ĠÐ´ÐµÐ»Ðµ": 2440,
      "ĠÐĺÐ»ÑĮÑı": 2441,
      "ĠÐ¢ÑĥÐ¶": 2442,
      "ĠÐ¢Ð°Ð½Ñı": 2443,
      "ÐºÐ¸Ð¼": 2444,
      "ÐºÐ¸ÑģÑĮÐºÐ¾": 2445,
      "ĠÐĵÑĥÐ»ÑĮ": 2446,
      "ÐļÐ¾Ð¼": 2447,
      "ĠÐŁÑĢÐ¸": 2448,
      "Ð¾ÑģÑģÑĭ": 2449,
      "ĠÐ»ÐµÑģ": 2450,
      "ÐķÐºÐ°ÑĤÐµÑĢÐ¸Ð½Ð°": 2451,
      "Ð¾Ð´ÑıÑĤ": 2452,
      "ÑĬÑĳÑģÑģÑĭ": 2453,
      "Ð¼Ð¸Ñı": 2454,
      "ĠÐ¨ÐµÑĢÑĪÐµÐ½ÑĮ": 2455,
      "ĠÐĿÐ°ÑģÑĤÑı": 2456,
      "ĠÐºÐ°ÑĢÐ¾Ð´": 2457,
      "ÑĥÐ´ÑĮÑı": 2458,
      "ĠÐ¿Ð¾Ñħ": 2459,
      "ĠÐĿÐ¸ÐºÐ¾Ð»Ð°ÐµÐ²Ð¸Ñĩ": 2460,
      "ĠÑıÑĢÐ°Ð·": 2461,
      "ĠÐºÐ¸Ð²Ð°Ð»ÑĤÓ¥ÑģÐµÐ·": 2462,
      "ĠÐłÑıÐ±Ð¸Ð½Ñĥ": 2463,
      "Ð·Ð¸Ð½Ð¾": 2464,
      "ĠÐłÐ¾ÑģÑģÐ¸Ñı": 2465,
      "ĠÐĿÐ°ÑĤÐ°ÑĪÐ°": 2466,
      "Ð®ÑĢÐ³Ð¸Ñģ": 2467,
      "Ð¼Ð¾Ð»Ð°": 2468,
      "ÐĲÐ½Ð°ÑĤÐ¾Ð»Ð¸Ð¹": 2469,
      "ĠÐ·Ð°Ð±Ñĭ": 2470,
      "ĠÐ´ÑĢÑĥÐ³Ð¾Ð¹": 2471,
      "ÐŀÑĤÑĩÑĭ": 2472,
      "ĠÐ¾Ð±ÑĬÑıÑģÐ½Ð¸Ð»": 2473,
      "ĠÑĩÐµÐ±ÐµÑĢ": 2474,
      "ĠÑĩÐµÐ»Ð¾Ð²ÐµÐºÐ°": 2475,
      "ĠÑĤÐ¾Ð»ÑįÐ·ÑĮ": 2476,
      "ÐĴÐ°ÑģÐ¸Ð»Ð¸Ð¹": 2477,
      "ÐĴÐµÑĢÐ¾Ð½Ð¸ÐºÐ°": 2478,
      "ĠÑĢÐ¾Ð¼Ð°Ð½": 2479,
      "Ð»ÑĮÐ²Ð¸ÑĢÐ°": 2480,
      "ĠÑĤÐ¾Ð±Ð¾Ð¹": 2481,
      "ĠÑĨÐµÐ½Ð°": 2482,
      "Ð°Ð¿": 2483,
      "ÐµÑĤÐ¸": 2484,
      "Ð»Ð¾ÑĢ": 2485,
      "ÑģÐ»Ð°Ð²": 2486,
      "ÑıÑĩÐµÑģ": 2487,
      "ĠÐ²Ð°Ð¼": 2488,
      "Ð±Ðµ": 2489,
      "Ð±Ð¾ÑĢ": 2490,
      "ĠÑĤÐ°ÑĤ": 2491,
      "ĠÑĤÐ¾Ð»": 2492,
      "ĠÑģÐ¾Ð³": 2493,
      "Ð¿ÐµÑĢ": 2494,
      "ĠÐ¿Ð¸": 2495,
      "ĠÐ¿ÑĢÐµÐ·Ð¸Ð´ÐµÐ½ÑĤ": 2496,
      "ĠÐ¡Ð¿": 2497,
      "ĠÐ¼Ð°": 2498,
      "ĠÐ¼Ð¸Ð»ÑıÐ¼": 2499,
      "ĠÐĴÐ°ÑĢ": 2500,
      "ĠÐĴÐµÐ´ÑĮ": 2501,
      "Ð¸Ð½Ñĥ": 2502,
      "ĠÐļÐ°Ð¼": 2503,
      "ĠÐĲÐ¹": 2504,
      "ĠÐĲÑĦ": 2505,
      "ĠÐĿÑĥÑĢÐ¸": 2506,
      "ĠÐĵÐ¾Ð»": 2507,
      "ĠÐĵÐµÑĢÐ¼": 2508,
      "ĠÐĳÐ°ÑĪ": 2509,
      "ĠÐŁÐ¾Ð¿": 2510,
      "Ð¸ÑĤÐ°Ð»Ð¸": 2511,
      "ĠÐŀÐ´": 2512,
      "ĠÐ°ÐºÐ°Ð´ÐµÐ¼Ð¸": 2513,
      "ĠÐ·Ð´Ð¾ÑĢ": 2514,
      "ĠÐĶÐ¾Ð±": 2515,
      "ÑĤÑĮÐµÐ²Ð°": 2516,
      "ĠÑĦÐ¸Ð·": 2517,
      "ĠÐ£Ð¶Ðµ": 2518,
      "Ð¾ÑģÑĤÑĢÑĥ": 2519,
      "ĠÐºÐ¾Ð¼Ð°Ð½Ð´Ð°": 2520,
      "ĠÐ¿ÑĢÐ¸ÑĪ": 2521,
      "ĠÐ¿ÑĢÐ¸Ð´ÐµÑĤ": 2522,
      "ĠÐºÐ¾Ð½ÐµÑĩÐ½Ð¾": 2523,
      "ĠÑģÑĳÑĤÓ¥Ð·": 2524,
      "ĠÐ¾Ð´Ð½Ð¾Ð¹": 2525,
      "ĠÐ°Ð´ÑıÐ¼Ð¸Ð¾Ñģ": 2526,
      "ĠÐ¼ÐµÐ»Ð¾Ð´Ð¸": 2527,
      "Ð¸Ð¿Ð¾Ð²Ð°": 2528,
      "Ð±Ð°ÑĩÐµÐ²": 2529,
      "ĠÐĽÐµÐºÐ¾Ð¼": 2530,
      "ĠÐ°Ð²ÑĤÐ¾ÑĢ": 2531,
      "Ð¯ÐºÐµ": 2532,
      "ĠÐ¼Ð¾Ð»Ð¾Ð´Ñĭ": 2533,
      "ĠÑĥÑĢÐ¾Ð¼": 2534,
      "ĠÐŁÑĢÐ¾ÐºÐ¾Ð¿ÑĮ": 2535,
      "ĠÐ¨ÐºÐ»ÑıÐµÐ²Ð°": 2536,
      "ĠÐ¼Ð°ÑĤÐµÐ¼Ð°": 2537,
      "ĠÑĦÐ¸Ð»Ð¾Ð»Ð¾Ð³": 2538,
      "ĠÑĦÐ¸Ð»Ð¾Ð»Ð¾Ð³Ð¸": 2539,
      "ĠÐłÑĥÑģÐ»Ð°Ð½": 2540,
      "ĠÑģÐ»ÑĭÑĪÐ°Ð»": 2541,
      "ĠÐ±ÑĭÐ´ÑįÑģ": 2542,
      "ĠÐ´Ð¸ÑĢÐµÐºÑĤÐ¾ÑĢ": 2543,
      "ÑİÐ¼ÑģÐ¸": 2544,
      "ĠÐ¾ÑĤÐºÑĢÑĭ": 2545,
      "ĠÐ¶ÐµÐ½ÑīÐ¸Ð½Ð°": 2546,
      "ĠÐ¢ÑĢÑĥÐ±Ð°ÑĩÐµÐ²": 2547,
      "ĠÐ²ÐµÑĩÐµÑĢ": 2548,
      "ĠÑĥÑĩÐ¸ÑĤÐµÐ»Ñı": 2549,
      "Ð¦": 2550,
      "Ð½Ñİ": 2551,
      "ÑģÐ¾Ð¼": 2552,
      "ÑģÐµÐ´": 2553,
      "ÑĮÑİÑĤ": 2554,
      "Ð·Ð¸Ð´Ð°": 2555,
      "ÑĢÐ°Ñĩ": 2556,
      "Ð»ÐµÐ½": 2557,
      "Ð±Ð¾Ð»": 2558,
      "Ð´Ð¸Ð¼": 2559,
      "ĠÐºÑĢÑĥÐ¶": 2560,
      "ĠÑĤÑĭÐ½ÑĭÐ´": 2561,
      "Ð°Ð»ÑĭÐº": 2562,
      "ĠÐ½Ð°Ð¼": 2563,
      "ĠÐ¿ÑıÑĤÑĮ": 2564,
      "Ð°ÑĢÐ¼Ð¾Ð½": 2565,
      "Ð¸Ð½ÐµÑĤÓ¥": 2566,
      "ĠÑĥÑģ": 2567,
      "ĠÑĥÐ¼ÐµÑĢ": 2568,
      "Ð°ÑĤÐ¾ÑĢ": 2569,
      "ĠÐ¸ÑģÐºÑĥÑģ": 2570,
      "ĠÐ¢Ðµ": 2571,
      "ĠÐ¢Ñĭ": 2572,
      "ÐĲÐ»Ð½Ð°": 2573,
      "ĠÐĵÐ°ÑĢ": 2574,
      "Ð½Ð¸ÐºÐ°": 2575,
      "ÐĴÐ¸ÐºÑĤÐ¾ÑĢ": 2576,
      "ĠÐĽÑİÐ±": 2577,
      "ĠÐĹÐ°Ð³ÑĢÐµ": 2578,
      "ĠÑĥÐ¶Ð°Ð¹": 2579,
      "Ð¸ÑıÑģÐ°": 2580,
      "Ð°Ð¹Ð´": 2581,
      "ÑĥÐ»Ð»Ð¸Ð½": 2582,
      "ÑĭÐ¼Ð¾Ð½": 2583,
      "ĠÐ¾Ð±ÑĢÐ°Ð·": 2584,
      "Ð¾Ð±ÑīÐµ": 2585,
      "ĠÐ²ÐµÑĢÐ°Ð½Ð¾": 2586,
      "ÑĮÑĭÐ»ÑĮ": 2587,
      "ĠÐ¥Ð¾Ñħ": 2588,
      "ĠÑģÑĳÑĤÓ¥Ð·Ñĭ": 2589,
      "Ð°Ð½Ð¸Ð¸": 2590,
      "ĠÐ´Ð²ÑĥÑħ": 2591,
      "ĠÐĳÐ°Ð¹Ð¼ÑĥÑĢ": 2592,
      "ĠÐĳÐ¾ÑĢÐ¸ÑģÐ¾Ð²": 2593,
      "Ð±ÑĥÑĢÑĩÐ¸": 2594,
      "ĠÑģÐ¿Ð¾ÑĢÑĤÑģÐ¼ÐµÐ½": 2595,
      "Ð¸ÑĪÐµÑĤ": 2596,
      "ĠÐºÑĥÐ»ÑĮÑĤÑĥÑĢ": 2597,
      "ĠÑĢÐ°Ð´Ð¾Ð²Ð°Ð»ÑģÑı": 2598,
      "ĠÐŁÐµÑĢÐµÐ²Ð¾Ð·ÑĩÐ¸ÐºÐ¾Ð²Ð°": 2599,
      "ĠÐ¼ÐµÑģÑıÑĨ": 2600,
      "ĠÐļÑĥÐ·ÑĮÐ¼": 2601,
      "ĠÐĶÐµÐ±ÐµÑģÑĭ": 2602,
      "ÐłÐ¾ÑģÑģÐ¸": 2603,
      "ĠÐ¿Ð¾Ð»Ð¾ÐµÑĪÑĮ": 2604,
      "ĠÐĴÐ°Ð½ÑİÑĪÐµÐ²": 2605,
      "ÑģÐ¸Ð½Ð°": 2606,
      "ÑģÐºÐ¾Ðµ": 2607,
      "ÑĥÐµÑĤÑģÑı": 2608,
      "ÑĤÐ¸Ñı": 2609,
      "ÑĤÐ¸Ð¹": 2610,
      "ĠÐ²Ð°ÑĤ": 2611,
      "Ð·Ð¸": 2612,
      "Ð¾Ð²Ð°Ð»ÑģÑı": 2613,
      "ĠÐ£Ð´Ð¼ÑĥÑĢÑĤÐ¸ÑĭÑģÑĮ": 2614,
      "ĠÐºÐ¾ÑĤ": 2615,
      "ĠÐºÑĭÑĪÐ½Ð¾": 2616,
      "ĠÐºÑĭÑĪÐ½Ð¾Ð¼ÑĥÑĢÑĤ": 2617,
      "ĠÐľÐ¸ÑĢ": 2618,
      "ĠÐľÐ°ÑĪÐ°": 2619,
      "ĠÐ¿Ð¾Ñģ": 2620,
      "ĠÐ¿ÐµÐ´": 2621,
      "ÐºÐ¾Ð¼Ð¿": 2622,
      "ĠÐ¼Ð¸ÑĢ": 2623,
      "ĠÐĴÐ»Ð°": 2624,
      "ĠÐļÐ½ÑıÐ·": 2625,
      "ĠÐ´Ð¸Ñģ": 2626,
      "ĠÐ¾Ñģ": 2627,
      "ĠÐĺÐ½": 2628,
      "ÐļÑĥÐ´": 2629,
      "Ð¾Ð¼ÑĭÑĢ": 2630,
      "ÑĢÐ¸Ð³Ð°": 2631,
      "ÐĺÐ½ÑĤ": 2632,
      "ĠÑįÑĤÑĥ": 2633,
      "ÐµÐ´Ð²ÐµÐ´": 2634,
      "ÐºÐ°Ð·Ðµ": 2635,
      "ÐľÐ¾Ð½Ñį": 2636,
      "ĠÐŃÐ¼Ð¸Ð»Ð¸Ñı": 2637,
      "ĠÐ¼ÐµÑħ": 2638,
      "ĠÐ£ÑĤ": 2639,
      "ĠÐ£Ð³": 2640,
      "ĠÐļÐ°ÑĢÐ°": 2641,
      "Ð°Ð»ÑĮÐ½Ð¾Ð¹": 2642,
      "ÐľÐ¸Ð»ÐµÐ¼": 2643,
      "ĠÐ¸Ð´ÑĥÑĤ": 2644,
      "ĠÐ½Ð¾Ð²Ð¾ÑģÑĤÐ¸": 2645,
      "ÑĤÑĥÐ´Ð°": 2646,
      "ĠÐ¢Ð°ÐºÐ°Ñı": 2647,
      "ĠÐĲÐ½ÑĤÐ¾Ð½Ð¸Ð´Ð°": 2648,
      "ÑĭÐ»ÐºÑĭÑĤ": 2649,
      "ĠÐ¿Ó§Ð»ÑĭÑģÑĮ": 2650,
      "ĠÐĴÐ¾ÑĤÐºÐ¸Ð½": 2651,
      "Ð¢ÑĥÐ»ÑĭÑģ": 2652,
      "Ð³Ð°ÑĢÐ¸ÑĤÐ°": 2653,
      "ĠÐ¼ÑĥÐ½Ð¸ÑĨÐ¸": 2654,
      "ĠÐ¼Ð°ÑĪÐ¸Ð½Ð°": 2655,
      "Ð»Ð¸Ð·Ð°Ð²": 2656,
      "ĠÐĿÐ°Ð³Ð¾Ð²Ð¸ÑĨÑĭÐ½Ð°": 2657,
      "ĠÐ¿Ð»Ð¾Ñħ": 2658,
      "ĠÑĪÑĥÐ½ÑĭÑĤ": 2659,
      "ĠÐ£ÑĪÐ°ÐºÐ¾Ð²": 2660,
      "ĠÐŁÐ»Ð¾ÑĤÐ½Ð¸ÐºÐ¾Ð²Ð°": 2661,
      "ĠÐ²ÑĭÑĢÐ°ÑīÐ¸Ð²Ð°": 2662,
      "ĠÐ¸Ð½Ð¶ÐµÐ½ÐµÑĢ": 2663,
      "Ð¼Ð¾Ð»Ð°ÐµÐ²": 2664,
      "ÑıÑĩÐµÑģÐ»Ð°Ð²": 2665,
      "ÑĤÑĭÑģÐ°": 2666,
      "ĠÑģÐ°": 2667,
      "ĠÑģÐ°Ð´": 2668,
      "ĠÐ¡ÑİÐ¼ÑģÐ¸": 2669,
      "ĠÐ¼ÐµÐ½Ñı": 2670,
      "ĠÐĴÐ°Ð»Ðµ": 2671,
      "ĠÐĴÐµÐº": 2672,
      "ĠÐĴÐ»Ð°Ð´ÑĭÐº": 2673,
      "ĠÐļÑĢÐµÑģÑĤÑĮÑıÐ½": 2674,
      "ÑĨÑĥ": 2675,
      "ĠÐ¢ÑĢÐ¾": 2676,
      "ÐºÐ¸Ð·Ñĭ": 2677,
      "ÐĲÐ»ÐµÐ²ÑĤÐ¸Ð½Ð°": 2678,
      "Ð³Ð°ÑĦ": 2679,
      "ÐļÑĥÐ·": 2680,
      "Ð½Ð¸Ð¹": 2681,
      "Ð¾Ð¼Ð°": 2682,
      "ĠÐ½Ð¾Ñĩ": 2683,
      "ĠÑĪÐ¾ÑĢ": 2684,
      "ĠÑĪÐ»Ð¸": 2685,
      "ĠÐ±Ð°Ð´ÓŁÑĭ": 2686,
      "Ð¸ÑĤÐ¾Ð²": 2687,
      "ĠÑĤÐµÐ»ÐµÑĦÐ¾Ð½": 2688,
      "Ð¡ÐµÐ¼ÑĮÑı": 2689,
      "Ð¸Ð·Ð°Ð¹Ð½": 2690,
      "ĠÑįÐ»ÐµÐºÑĤ": 2691,
      "ĠÑħÐ¾Ð´ÑıÑĤ": 2692,
      "ĠÐºÑĥÐ½Ð¾": 2693,
      "ÐĳÑĭÑĢ": 2694,
      "ĠÐ¾ÑĤÑĩÑĭ": 2695,
      "ĠÐ¾ÑĤÑĤÑĥÐ´Ð°": 2696,
      "ÐĶÑĭÑĪ": 2697,
      "ĠÑįÑĤÐ¾Ð³Ð¾": 2698,
      "Ð·ÑįÑģ": 2699,
      "ĠÐľÐ¸ÑħÐµÐµÐ²Ð°": 2700,
      "ĠÑģÑĤÐ°Ð½": 2701,
      "ĠÐ¾Ð´Ð½Ð°": 2702,
      "ÑģÐ¿Ð¾ÑĢÑĤ": 2703,
      "ĠÑĨÐµÑĢ": 2704,
      "Ð³ÑĥÑĢÑĤÑĭÑģÑĮ": 2705,
      "ĠÑģÐµÑĢÐµÐ´Ð¸": 2706,
      "Ð§Ð°Ð¹ÐºÐ¾Ð²ÑģÐºÐ¸Ð¹": 2707,
      "ĠÑĥÑĢÐ¾Ð´": 2708,
      "ĠÐ¸Ð½ÑģÑĤÐ¸ÑĤÑĥÑĤ": 2709,
      "ÐļÑĭÑĤÑĭÑģÑĮ": 2710,
      "ĠÑĪÑĥÐ´Ñį": 2711,
      "ĠÐŀÐ±ÑĢÐ°Ð·ÑĨÐ¾Ð²Ð°": 2712,
      "ĠÐľÐ¸ÑħÐ°Ð¹Ð»Ð¾Ð²Ð¸Ñĩ": 2713,
      "ÐĺÐ¶ÑĭÑģÑĮ": 2714,
      "ĠÐ¿ÑĢÐµÐ´": 2715,
      "ĠÐ´ÑĭÑĪÐµÑĤÑģÐºÐµ": 2716,
      "ĠÐľÐ°ÐºÑģÐ¸Ð¼Ð¾Ð²Ð°": 2717,
      "Ð»ÑĮÑıÐ½Ð°": 2718,
      "Ð¢ÑĥÐ°Ð»Ð°": 2719,
      "ĠÑģÐ¾Ð±Ð¸ÑĢÐ°": 2720,
      "ÐĺÐ½Ð¼Ð°ÑĢ": 2721,
      "ĠÑĢÐµÐ´Ð°Ðº": 2722,
      "ĠÐ¿Ð¾ÑĤÑĥÑħ": 2723,
      "Ð¾ÑİÐ·": 2724,
      "Ð·Ð°Ð¼ÐµÐ½": 2725,
      "ĠÐŁÐ¾Ð·Ð´ÐµÐµÐ²": 2726,
      "ĠÑģÐ¾Ð²ÑģÐµÐ¼": 2727,
      "Ð¸ÑĤÐ°Ð»Ð¸Ð¹": 2728,
      "ĠÐĳÐ°Ð¹Ð¼ÑĥÑĢÐ·Ð¸Ð½": 2729,
      "Ð°Ñı": 2730,
      "ÑĢÑĭÐ»": 2731,
      "ÑģÐºÐ¾Ð¼": 2732,
      "ÑĥÐ´Ð¸": 2733,
      "Ð¼Ð°Ð½": 2734,
      "ÐºÑĭÐ½": 2735,
      "Ð³Ð¾Ð³": 2736,
      "Ð´Ð¸Ð¾Ð½": 2737,
      "ÑĩÐºÐ°": 2738,
      "ĠÐºÑĭÑģ": 2739,
      "ÐºÐ°ÑĢÑĭÑģÑĮ": 2740,
      "ĠÑģÐ¾Ð²ÐµÑĤ": 2741,
      "ĠÑģÐ»ÑĥÐ¶": 2742,
      "Ð¶Ñĭ": 2743,
      "Ð¶ÐµÑĤ": 2744,
      "ĠÐ½Ð°Ð·": 2745,
      "ĠÑĢÐ°ÑģÑģ": 2746,
      "ÐľÐ¾Ð¶": 2747,
      "ĠÐ¡Ð¸Ð·": 2748,
      "ĠÐ¼ÐµÐ´": 2749,
      "ĠÐļÐ¸ÑıÑģÐ°": 2750,
      "ÑĨÐµÐ½": 2751,
      "ĠÐ¾ÑĢ": 2752,
      "ĠÐ¢ÑĢÐ¾Ð½": 2753,
      "ÐļÑĭÐº": 2754,
      "ÐļÑģÐµÐ½Ð¸Ñı": 2755,
      "ĠÐĳÐµÐº": 2756,
      "ĠÐŁÐµÑĩ": 2757,
      "ÐĴÐ¾Ð»ÐºÐ¾Ð²": 2758,
      "ĠÑĪÑĥÑĢ": 2759,
      "ĠÑĪÐ¾Ð½ÐµÑĢ": 2760,
      "ĠÐĽÐ¸Ð´Ð¸Ñı": 2761,
      "ÐµÑģÐ¿": 2762,
      "ÑĢÐ¾Ð¿": 2763,
      "ĠÐĶÐ°ÑĢÑĮÑı": 2764,
      "ÐĵÑĥÐ»ÑĮ": 2765,
      "ĠÐ§Ð¸ÑĢ": 2766,
      "ÐµÐ´ÑĢÐ°": 2767,
      "ĠÑĦÑĥÑĤ": 2768,
      "Ð¾Ð²ÑĮÐµ": 2769,
      "ÑĨÐ¸Ñİ": 2770,
      "ĠÐ¿Ð¾ÐµÐ·Ð´": 2771,
      "Ð¸Ð´ÑıÑĤ": 2772,
      "Ð¢Ð°ÓµÐµ": 2773,
      "ĠÐ½Ð°ÑĥÐºÐ¸": 2774,
      "ĠÑĥÐ´Ð¼ÑĥÑĢÑĤÑĬÑĳÑģ": 2775,
      "ĠÑıÑĢÐ°ÑĤÓ¥ÑģÑĮ": 2776,
      "ĠÐ²ÐµÑĤÐ»Ð¾": 2777,
      "ĠÑħÐ¾Ð´Ð¸Ð»Ð°": 2778,
      "ĠÑħÐ¾Ð´Ð¸ÑĤÑĮ": 2779,
      "Ð°Ð½Ð¸Ðµ": 2780,
      "ÑĥÐ»Ð°ÐºÐ¾Ð²Ð°": 2781,
      "ĠÓĿÑĭÑĤ": 2782,
      "ĠÐ¸Ð´Ñĥ": 2783,
      "Ð±Ð°ÐµÐ²": 2784,
      "ĠÑĤÐµÐ°ÑĤÑĢÐµ": 2785,
      "ÐļÑĥÐ»Ñį": 2786,
      "ĠÐµÐ³Ð¸ÑĤÑĬÑĳÑģ": 2787,
      "ĠÐºÐ¾Ð¼Ð¿ÑĮÑİÑĤ": 2788,
      "Ð¨ÑĥÐ¼Ð¿Ð¾ÑĤ": 2789,
      "ĠÐķÑĢÐ¼": 2790,
      "ĠÐ¡Ð¼Ð¸ÑĢÐ½Ð¾Ð²": 2791,
      "ĠÐŀÐ»ÐµÐ³": 2792,
      "ÑĢÐ°ÑģÐ¸Ð»ÑĮ": 2793,
      "ĠÐºÑĭÑĤÑĩÑĭ": 2794,
      "ĠÐ¿ÑĮÐµÑģÐ°": 2795,
      "ĠÐ¿Ð°Ð¼ÑıÑĤÑĮ": 2796,
      "ĠÑĤÑĢÐ°ÐºÑĤÐ¾ÑĢ": 2797,
      "ÐĲÐ½ÑĤÐ¾Ð½Ð¸Ð´Ð°": 2798,
      "ĠÐ£Ð´ÐĵÐ£": 2799,
      "ĠÐĿÑĥÑĢÐ¸Ð°ÑħÐ¼ÐµÑĤ": 2800,
      "ÐĲÐ»Ð½Ð°ÑĪ": 2801,
      "ĠÐ¾Ð±ÑĢÐ°Ð·Ð¾Ð²Ð°": 2802,
      "Ð»Ð¸Ð·Ð°Ð²ÐµÑĤÐ°": 2803,
      "Ð¾ÑĨÐ¸": 2804,
      "Ð¸Ð³ÑĢÐ°": 2805,
      "ÐµÐ´Ð°": 2806,
      "ÑĢÐ¸Ð½": 2807,
      "Ð¼Ð¾Ð¶": 2808,
      "Ð»ÐµÐ³": 2809,
      "Ð»ÐµÐ±": 2810,
      "ĠÑģÑĥÐ»": 2811,
      "ĠÑģÐ°Ð¼": 2812,
      "ĠÑģÐ¾ÑģÑĤ": 2813,
      "ĠÑģÐ´ÐµÐ»": 2814,
      "Ð°Ð»Ð¸Ð½": 2815,
      "ÑģÑĮÐºÑĭ": 2816,
      "ÐµÐ½ÑĤÐ°": 2817,
      "ĠÐ¿Ó§": 2818,
      "ÐľÐĲ": 2819,
      "ÐľÐķ": 2820,
      "ÑħÐ¾ÑĢ": 2821,
      "ÑģÑĤÐ¾Ð½": 2822,
      "ĠÑĥÑĪÐ»Ð°": 2823,
      "ĠÐĲÑħ": 2824,
      "ÐĲÐ¥": 2825,
      "ÑĢÐµÑģÐ¿": 2826,
      "ĠÐĵÐµÑĢ": 2827,
      "Ð»ÑįÐ·": 2828,
      "ĠÐ±Ñİ": 2829,
      "Ð¼ÐµÐ½Ð°": 2830,
      "Ð¡Ð¸Ð½": 2831,
      "ĠÐĶÐ°Ð½Ð°": 2832,
      "ĠÐĶÑįÐ±ÐµÑģ": 2833,
      "ĠÑĥÐ¶ÐµÐ·": 2834,
      "ÐĵÑĢÐ¸": 2835,
      "Ð£Ð´": 2836,
      "ÑĤÑįÐ½": 2837,
      "ĠÐºÐ°ÑĢÑĭÐ½Ñĭ": 2838,
      "ĠÐ¢ÑĥÑĤÐ°ÐµÐ²Ð°": 2839,
      "ĠÐĲÐ½Ð´ÑĢÐµ": 2840,
      "ĠÐĲÐ»ÐµÐºÑģÐ°Ð½Ð´ÑĢÐ¾Ð²Ð¸Ñĩ": 2841,
      "ĠÐ°ÑĢÐ·Ñį": 2842,
      "Ð¸Ð¼Ð¾Ð¹": 2843,
      "ĠÐ²ÐµÑĤÐµÑĢÐ°": 2844,
      "ĠÐºÐ°Ð¿": 2845,
      "ĠÑģÑĳÑĤÓ¥": 2846,
      "ĠÐ¿ÑĢÐ¾ÑģÐ½": 2847,
      "Ð»ÐµÐ´Ð¶": 2848,
      "ĠÐºÐ¾Ð½ÑĨÐµÑĢ": 2849,
      "ĠÐľÐ¾ÑģÐºÐ²Ð¸Ð½Ð°": 2850,
      "ĠÐºÐ¸Ð²Ð°Ð»ÑĤÓ¥ÑģÑĮÑĳÑģ": 2851,
      "ĠÐ¿Ð¸ÑģÐ°ÑĤÐµÐ»ÑĮ": 2852,
      "Ð¨ÑĥÐ¾Ð¼": 2853,
      "ĠÐ·Ð°ÑĢÐ½Ð¸": 2854,
      "ÐµÐ»ÑĭÐ¹": 2855,
      "ÑģÑĤÐ²ÐµÐ½Ð½Ð¾Ð¹": 2856,
      "ĠÐĵÐ°Ð²ÑĢÐ¸Ð»Ð¾Ð²": 2857,
      "ÐķÐ²Ð³": 2858,
      "ĠÑĥÑģÑĮÑĤÓ¥ÑģÑĮÐºÐ¸Ð·": 2859,
      "ĠÐ¶Ð°Ð»ÐµÑİ": 2860,
      "ĠÑģÐ¾Ð»Ð´Ð°ÑĤ": 2861,
      "ĠÑģÑĤÐ°Ð´Ð¸Ð¾Ð½": 2862,
      "ĠÐ¿Ð¾ÑĩÑĤÐ°": 2863,
      "ÐµÐ¾ÑĢÐ³Ð¸Ð¹": 2864,
      "ĠÐĶÐ¾Ð±ÑĢÑıÐºÐ¾Ð²Ð°": 2865,
      "ĠÐ¡Ð¸Ð·Ð¾Ð²Ð°": 2866,
      "ÑĢÐµÑģÐ¿Ð¾Ð½Ð´": 2867,
      "Ð¸Ð³": 2868,
      "ÑģÐºÐ°": 2869,
      "Ð´Ð°Ð½": 2870,
      "Ð¼ÑĭÑĢ": 2871,
      "Ð¼ÑĥÑĢÑĤ": 2872,
      "Ð²Ð¾": 2873,
      "Ð²Ñĥ": 2874,
      "Ð²ÑĮÑİ": 2875,
      "ÑĭÐ¿Ð¾Ð²Ð°": 2876,
      "ÑıÐ²": 2877,
      "ÑĥÑĢÐ³": 2878,
      "Ð·Ð¸Ð½Ð°": 2879,
      "Ð»ÐµÐ·": 2880,
      "ÐºÐ°ÑĭÑģÑĮ": 2881,
      "Ð°ÑĢÐ¸Ð½Ð°": 2882,
      "ÐľÑĥÐ·": 2883,
      "ĠÐ¡Ð¾ÑĦ": 2884,
      "Ð¸Ð½Ð»ÑıÐ½": 2885,
      "ĠÐļÑĢÐ¸": 2886,
      "ÑİÑĢÐ¸": 2887,
      "ĠÑĥÐº": 2888,
      "ĠÐ´Ð°Ñģ": 2889,
      "ĠÐ¾Ð´ÐµÐ¶": 2890,
      "ĠÐĺÐ³Ð¾ÑĢÑĮ": 2891,
      "ĠÐ¢Ð°ÑĤÐ°ÑĢ": 2892,
      "ĠÐ³ÐµÑĢ": 2893,
      "ĠÐĳÐ°ÑĤ": 2894,
      "ĠÐ»ÐµÑĩ": 2895,
      "ĠÐ½Ð¾ÐºÑĥ": 2896,
      "ĠÑĪÐ°Ð³": 2897,
      "Ð¸ÑĤÑģÑı": 2898,
      "ÑģÐ¸Ð·": 2899,
      "ÐĽÐ¬": 2900,
      "Ð´ÐµÑĪÑĮ": 2901,
      "ÑĢÑĥÑĪ": 2902,
      "ÐĿÑĭÐ»ÐºÑĭÑĪÐ½Ð¾": 2903,
      "ÐºÑĥÑİ": 2904,
      "ĠÑĩÐµÑĤÑĭÑĢÐµ": 2905,
      "ÐµÐ¿Ð°Ð½Ð¾Ð²": 2906,
      "ÐµÐ¿ÐµÑĩ": 2907,
      "ĠÐĿÐ°ÐºÐ¸": 2908,
      "ĠÐĲÑĢÐ´Ð°": 2909,
      "ÐĶÐ¼Ð¸ÑĤ": 2910,
      "ĠÐºÐ¾Ð¼Ð¸Ñģ": 2911,
      "ĠÐ²ÐµÑĢÐ°Ð¼": 2912,
      "âĢ¢": 2913,
      "ĠÑģÑĤÐ¾ÑĢÐ¾Ð½": 2914,
      "ĠÐ²Ð¸Ð´Ð¸ÑĤ": 2915,
      "ÑĤÓ¥ÑģÑĮÑĳÑģ": 2916,
      "ĠÐºÐ°ÐºÐ°Ñı": 2917,
      "ĠÐ´ÐµÑĢÐµÐ²Ð½Ñİ": 2918,
      "ÑīÐ¸Ðµ": 2919,
      "Ð°ÑĢÐ°Ð»Ð¸": 2920,
      "Ð¾ÑĢÑĭÐ³": 2921,
      "ĠÐ¿Ð¾Ð½Ð¸Ð¼Ð°": 2922,
      "ĠÐºÑĭÐ»Ð±ÑĥÑĢÑĩÐ¸": 2923,
      "ĠÑĪÐºÐ¾Ð»Ñĭ": 2924,
      "ĠÐ»ÑĭÐºÑĤÓ¥": 2925,
      "ĠÐĵÑĢÐ¸Ð³Ð¾ÑĢÑĮÐµÐ²Ð¸Ñĩ": 2926,
      "ĠÐ¿ÑĢÐ¾Ð¸Ð·Ð²ÐµÐ´ÐµÐ½Ð¸": 2927,
      "ĠÐ¼Ð¸Ð»ÐµÐ¼ÑĭÐ·": 2928,
      "ĠÐ³ÑĢÑĥÐ¿Ð¿Ð°": 2929,
      "ÑĢÐ°Ð´Ð¾Ð²Ð°": 2930,
      "ĠÐľÐ°ÑĤÐ²ÐµÐµÐ²": 2931,
      "ĠÐ²Ð¾Ð¹Ð½Ð°": 2932,
      "ĠÐĳÐ°Ð»ÐµÐ·Ð¸Ð½Ð¾": 2933,
      "ĠÐ´Ð¾ÐºÑĥÐ¼ÐµÐ½ÑĤ": 2934,
      "ĠÐ°ÑĢÑħÐ¸Ð²": 2935,
      "ÐµÑģÐ¿ÑĥÐ±Ð»Ð¸": 2936,
      "ĠÑĢÑĭ": 2937,
      "Ð¸ÑĭÑģÑĮ": 2938,
      "Ð½ÑĥÐº": 2939,
      "ÑģÐ¾ÑĦ": 2940,
      "ĠÐ²Ð¾Ñģ": 2941,
      "ĠÐ²ÑĭÐ»Ó¥": 2942,
      "ĠÐ²Ð¸ÑĤÐµ": 2943,
      "ĠÐ½ÑĭÐ»ÐºÑĭÑĪÐ½Ð¾": 2944,
      "ÑįÑģÑĮ": 2945,
      "ÑĩÐ¸Ñħ": 2946,
      "ĠÐºÑĢÐ¾Ð¼Ðµ": 2947,
      "Ð»ÑĮÐ±": 2948,
      "ĠÐľÐ°Ð»Ñĭ": 2949,
      "ĠÑģÑĤÐ¸": 2950,
      "ĠÑģÐ±Ð¾ÑĢ": 2951,
      "Ð¾Ð½Ð¾Ð³": 2952,
      "Ð°Ð½Ð¸Ð·": 2953,
      "Ð¿ÐµÐ½": 2954,
      "ĠÐ¿Ð°ÑģÑĮ": 2955,
      "ĠÐ¿ÑģÐ¸Ñħ": 2956,
      "Ð»Ð°Ð²Ð°": 2957,
      "ĠÐ¡ÑĤÐ¾": 2958,
      "ĠÐ¡Ð¾Ð±": 2959,
      "ĠÐ¡Ð¾Ð²ÐµÑĤ": 2960,
      "ĠÐĴÐµÐ½": 2961,
      "Ð¸Ð½Ð³": 2962,
      "ĠÐļÑĥÑĢ": 2963,
      "Ð°ÑĤÐ»Ð¾Ð½": 2964,
      "ĠÐĲÐ³Ð°ÑĦ": 2965,
      "ÑĳÑģÑĤÑĭ": 2966,
      "ÑĬÑıÐ½": 2967,
      "ĠÐ¢Ð°Ð¼": 2968,
      "ÑĢÐµÐ»": 2969,
      "ÑĢÐµÑģ": 2970,
      "ĠÐĵÑĢÐ°": 2971,
      "ĠÑĤÐµÐ¿Ð»Ð¾": 2972,
      "ĠÐŁÑĢÐ°Ð²": 2973,
      "ÐĴÐ¾ÑĢÐ³Ð¾ÑĢÐ¾Ð½": 2974,
      "ĠÐ»ÑıÐ±": 2975,
      "Ð¾ÑĤÐ¾Ð²Ð°": 2976,
      "ĠÐłÑĭÑģÑĮ": 2977,
      "ÐºÑģÐ°Ð½Ð°": 2978,
      "ĠÑĥÐ¶Ð°Ð¼": 2979,
      "Ð¼Ð°ÑĢÐ°": 2980,
      "Ð¼Ð°ÑĪ": 2981,
      "ÑĭÑĢÑĬÑı": 2982,
      "ĠÑįÐºÐ¾Ð½Ð¾Ð¼": 2983,
      "ÑĤÑĮÐµÐ²": 2984,
      "ÐŁÐµÑĢ": 2985,
      "ĠÐºÑĥÐ´": 2986,
      "ÑĨÐ¸Ð¾Ð½Ð°": 2987,
      "ĠÐ£ÑĢÐ°": 2988,
      "ĠÐ¶Ðµ": 2989,
      "ĠÑĢÐ°Ð±Ð¾ÑĤÐ°Ñİ": 2990,
      "ĠÐ½Ð¸ÐºÑĤÐ¾": 2991,
      "Ð½ÑĭÑħ": 2992,
      "ÑģÑĤÐ°ÑĦ": 2993,
      "ĠÐ¼ÑĭÐ½Ó¥ÑģÑĮÐºÐ¾": 2994,
      "ĠÑģÑĤÐ°ÑĢ": 2995,
      "ĠÐ¿ÐµÑĢÐ²ÑĭÐ¹": 2996,
      "ĠÐ±Ð¾Ð»ÑĮÐ½Ð¸": 2997,
      "ÐļÐ¸Ð½Ð»Ñĭ": 2998,
      "Ð¯ÑĢÐ°": 2999,
      "ĠÐ»ÑİÐ´ÐµÐ¹": 3000,
      "ĠÐŁÐµÑĢÐ²ÑĭÐ¹": 3001,
      "ĠÑĥÑĢÐ°Ð¼": 3002,
      "ĠÐ´Ð²ÐµÑĢ": 3003,
      "ĠÐ³ÑĥÑĢÑĤÑĭÑģÑĮ": 3004,
      "ÑģÑĤÐ¾ÑĢÐ¸Ñı": 3005,
      "ĠÐ±ÑĭÑĢÑĬÑĳ": 3006,
      "ĠÐ²ÐµÑĤÐ»Ó¥ÑģÑĮÐºÐ¾": 3007,
      "ĠÐĴÑĭÐ»ÑĮ": 3008,
      "ĠÐ¡ÑĤÐµÐ¿Ð°Ð½": 3009,
      "ĠÑĨÐµÐ½ÑĤÑĢ": 3010,
      "ĠÐ¡ÐµÑĢÐ³ÐµÐµÐ²Ð°": 3011,
      "ĠÐľÐ°Ð»ÐµÐ½ÑĮÐºÐ¸Ð¹": 3012,
      "ĠÑĥÑĪÐ»Ð¸": 3013,
      "ĠÐłÐ°Ð´Ð¾ÑģÑĤÑĮ": 3014,
      "Ð¢Ð¾Ð»Ð¾Ð½": 3015,
      "ĠÑĥÐ³Ð¾Ð»Ð¾Ð²Ð½Ð¾Ð¹": 3016,
      "ĠÑģÐ¿ÐµÐºÑĤÐ°ÐºÐ»ÑĮ": 3017,
      "ĠÐ´Ð¸Ð¿Ð»Ð¾Ð¼": 3018,
      "ĠÑįÐºÐ·Ð°Ð¼ÐµÐ½": 3019,
      "ĠÐ¿ÐµÑģÑıÐ½Ð°Ð¹ÑĳÑģ": 3020,
      "ÐĽÐµÐ¾Ð½": 3021,
      "ÐĴÐµÑĤÐ»Ó¥": 3022,
      "ĠÐ·Ð´Ð¾ÑĢÐ¾Ð²ÑĮÐµ": 3023,
      "ÐĶÐ¼Ð¸ÑĤÑĢÐ¸Ð¹": 3024,
      "ĠÐłÑĭÑģÑĮÐµÐ²Ð°": 3025,
      "ÑģÐ¾Ð²": 3026,
      "ÑĥÐ³": 3027,
      "Ð¼Ð¾ÑĢ": 3028,
      "Ð¼Ð¾Ñģ": 3029,
      "Ð¼Ð°ÑĤÐ¾Ð²Ð°": 3030,
      "ÐºÑĬÑĳÑģ": 3031,
      "ÑĭÑĩ": 3032,
      "ÑıÑģÑĮ": 3033,
      "ĠÐ²Ð¾Ð¶": 3034,
      "ÑĢÐ°Ð¼Ð°": 3035,
      "ĠÑĤÑį": 3036,
      "ĠÐ¿Ñĭ": 3037,
      "ĠÐ¼Ð¸Ð»Ð¸": 3038,
      "ÑģÑĤÐ°Ð²": 3039,
      "ĠÐļÑĥÐ´": 3040,
      "ĠÐ¸Ð³ÑĢÐµ": 3041,
      "ĠÐĺÐ·": 3042,
      "Ð£Ð´Ð¼ÑĥÑĢÑĤÐ¸ÑĭÑģÑĮ": 3043,
      "ÐĲÐ»Ð¸Ð½Ð°": 3044,
      "ÑĢÐµÐ¹": 3045,
      "ĠÐŁÐ¾Ð»Ð¸Ð½Ð°": 3046,
      "Ð¾ÑģÐ¸ÑĦ": 3047,
      "Ð¾Ð¼ÑĭÐ½": 3048,
      "ÐĴÐµÑĢÐ°": 3049,
      "ÑĦÑĢÐµÐ¼": 3050,
      "ĠÐ±Ð»Ð¾Ð³": 3051,
      "ĠÐĽÐ¾Ð¶": 3052,
      "ÐºÐ¾Ð²ÑĮ": 3053,
      "ÐŀÐ´": 3054,
      "ÐĿÐ¾Ð¼ÑĭÑĢ": 3055,
      "ĠÑĩÑĭÐ»ÐºÑĭÑĤ": 3056,
      "Ð¾Ð³Ð°ÑĤ": 3057,
      "ĠÐ¨Ð°Ð³": 3058,
      "ĠÐĲÐ»ÐµÐºÑģÐ°Ð½Ð´": 3059,
      "ÑĨÐ¸ÑĭÑģÑĮ": 3060,
      "ÑĭÑģÐºÐ°": 3061,
      "ĠÐ¼ÐµÐ´Ð¸": 3062,
      "Ð°Ð¼Ð¸Ð½": 3063,
      "ĠÐ³Ð¾Ð²Ð¾ÑĢÐ¸Ð»Ð°": 3064,
      "Ð³Ð¾ÑĢÐ¾Ð´": 3065,
      "ĠÐ¾ÑĤÑĢÑıÐ´": 3066,
      "ĠÐ²Ð¸Ð¶Ñĥ": 3067,
      "ÐµÑĢÐ½ÐµÑĤ": 3068,
      "ĠÐ²ÐµÑĤÐ»Ñį": 3069,
      "ĠÑİÐ³": 3070,
      "ĠÑģÑĳÑĤÑį": 3071,
      "ĠÐ¾Ð´Ð½Ð¾": 3072,
      "ÑĤÐ¸Ð²Ð°Ð»Ðµ": 3073,
      "ĠÐŁÐµÑĢÐ¼": 3074,
      "ĠÐ´ÑĭÑĪÐµÑĤÓ¥ÑģÑĮÑĳÑģ": 3075,
      "ĠÑĤÑĥÐ°Ð»Ð°": 3076,
      "ĠÐ³Ð°Ð·ÐµÑĤÐµ": 3077,
      "ĠÐ¼Ð°ÑĤÐµÑĢÐ¸": 3078,
      "ÐµÑħÐ°Ð½Ð¸": 3079,
      "ĠÐķÐ²Ð³ÐµÐ½ÑĮ": 3080,
      "ĠÐºÐ»ÑĥÐ±Ðµ": 3081,
      "ĠÐ·Ð°Ð²Ð¾Ð´Ðµ": 3082,
      "ĠÐºÐ¾ÑĢÑĢÐµÑģÐ¿Ð¾Ð½Ð´": 3083,
      "ĠÐ¸ÑģÑĤÐ¾ÑĢÐ¸": 3084,
      "ĠÐĶÐ°Ð½Ð¸Ð»Ð¾Ð²Ð°": 3085,
      "ĠÐ²ÑĥÐ½ÑįÑĤÑĭ": 3086,
      "ÐĲÐ´ÓŁ": 3087,
      "ĠÐ²Ð°Ð»ÑįÐº": 3088,
      "ĠÐ¿ÐµÑĩÐµÐ½ÑĮ": 3089,
      "ĠÐŁÐµÑĢÐµÐ²Ð¾Ð·ÑĩÐ¸ÐºÐ¾Ð²": 3090,
      "ĠÐ¿Ð¾Ð¹Ð´ÐµÑĤ": 3091,
      "ĠÐ¯ÐºÐ¾Ð²Ð»ÐµÐ²": 3092,
      "Ð¡ÑİÐ»ÑįÐ¼": 3093,
      "Ð¾ÑģÐ¿Ð¸ÑĤ": 3094,
      "ĠÑĥÐ¿ÑĢÐ°Ð²": 3095,
      "ĠÑģÑıÑģÑĮÐºÐ°": 3096,
      "ÐĿÐ¾ÐºÐ¸Ð½": 3097,
      "ĠÐľÐ¸ÑĤÑĢÐ¾ÑĦ": 3098,
      "ĠÐĴÐ¾ÑĢÐ¾Ð½ÑĩÐ¸Ñħ": 3099,
      "ĠÐŁÐµÑĢÐµÐ²Ð¾ÑīÐ¸ÐºÐ¾Ð²Ð°": 3100,
      "ĠÐĿÐµÐ²Ð¾ÑģÑĤÑĢÑĥ": 3101,
      "ĠÐ¼Ð¾Ð»Ð¾Ð´ÑĭÐµ": 3102,
      "ÐµÐ´Ð²ÐµÐ´ÐµÐ²": 3103,
      "ĠÐļÐ°ÑĢÐ°ÐºÑĥ": 3104,
      "ĠÐķÑĢÐ¼Ð¾Ð»Ð¸Ð½Ð°": 3105,
      "ĠÐĿÑĥÑĢÐ¸Ð°ÑħÐ¼ÐµÑĤÐ¾Ð²": 3106,
      "ÐķÐ²Ð³ÐµÐ½Ð¸Ð¹": 3107,
      "ĠÐĿÐ°ÐºÐ¸Ð¿Ð¾Ð²": 3108,
      "ÑģÐ°Ð»": 3109,
      "ÑģÑģÐ¸": 3110,
      "ÑĥÐµÑĤ": 3111,
      "ÑĥÐºÐ°Ð·Ðµ": 3112,
      "Ð´ÑĢÐ°Ð²": 3113,
      "ĠÐ²Ð¾ÑĤ": 3114,
      "Ð·Ð°Ð»": 3115,
      "ĠÑĤÑĢÐµÐ½": 3116,
      "ĠÐľÑĥÑģ": 3117,
      "Ð¿ÑĥÑģ": 3118,
      "ĠÐ¿Ð¾Ð²": 3119,
      "ĠÐ¿Ð°ÑĢÐ°": 3120,
      "ÐºÐ¾ÑĤÐ¾ÑĢÑĭ": 3121,
      "ÐľÐ°Ð»Ñĭ": 3122,
      "ĠÐ¼ÐµÑĤ": 3123,
      "ĠÐĴÐµÑģ": 3124,
      "ĠÐĴÑĢÐµÐ¼": 3125,
      "Ð¸Ð½Ð»ÑįÐ½": 3126,
      "ĠÐļÑĢÐ°ÑģÐ¸Ð»ÑĮ": 3127,
      "ĠÑĥÑĩÐ¸Ð»Ð¸ÑīÐµ": 3128,
      "ÑĨÐ¸Ð½Ð°": 3129,
      "ÑĤÐ¾ÑĪ": 3130,
      "ĠÐĺÐ´": 3131,
      "ĠÐĺÐ½ÑĤ": 3132,
      "ĠÐ³ÑĢÐ°": 3133,
      "ÑĢÐµÑħ": 3134,
      "ĠÐĵÐ°Ð·": 3135,
      "ĠÐĵÐ¾ÑģÐ¿": 3136,
      "ĠÑĤÐµÑħ": 3137,
      "Ð½Ð¸ÐºÐ¸": 3138,
      "ĠÐ»Ñĥ": 3139,
      "ÑĦÑĤÐµ": 3140,
      "ĠÐ±Ð°ÑĤ": 3141,
      "ĠÐ±ÑĢÐ¸Ð³Ð°": 3142,
      "Ð¾Ð´ÑĮ": 3143,
      "ĠÑĤÐµÐ»ÐµÐ²": 3144,
      "Ð¸Ð»Ñĭ": 3145,
      "Ð¡Ð¿Ð¾ÑĢÑĤ": 3146,
      "ÑĢÐ¾Ð¹": 3147,
      "ĠÐĶÐ²Ð°": 3148,
      "Ð¸Ð·Ð¼": 3149,
      "ĠÑįÑģÑĤÐ°ÑĦ": 3150,
      "ÐµÐ½ÑĮÐ³Ð¸": 3151,
      "Ð²Ð°Ð´ÑĮ": 3152,
      "ÐŁÑĥ": 3153,
      "ĠÐĿÐ°Ñģ": 3154,
      "ÑıÐ±ÑĢÑĮ": 3155,
      "Ó§Ñģ": 3156,
      "ĠÐºÑĥÐ°ÑĪ": 3157,
      "ĠÐºÐ°ÑĢÐ¸ÑģÑĮÐºÐ¾": 3158,
      "ĠÐ»ÑİÐ±Ð¸Ð»": 3159,
      "ĠÐ»ÑİÐ±Ð¸Ð¼": 3160,
      "ĠÐłÐ¾Ð¼Ð°Ð½": 3161,
      "ĠÐļÐ°Ð±": 3162,
      "ĠÑıÑĢÐ°ÑĤÐ¾Ð½Ð¾": 3163,
      "ĠÐ¤Ð°": 3164,
      "ÑıÑĤÑģÑı": 3165,
      "ĠÐºÐ°Ð±Ð¸Ð½": 3166,
      "ÑģÑģÐ°": 3167,
      "Ð¸Ð»Ð¸Ð¿Ð¿": 3168,
      "Ð¸ÑĤÑĮÑģÑı": 3169,
      "ĠÑĪÐºÐ¾Ð»Ñĥ": 3170,
      "ĠÐ»ÑİÐºÐ°": 3171,
      "ĠÐļÑĥÐ·Ñĳ": 3172,
      "ĠÑİÑĢÑĤÑĤÑį": 3173,
      "ĠÑĢÐ°Ð·ÑĢÑĥÑĪ": 3174,
      "ĠÐŁÑĢÐ¾ÑħÐ¾ÑĢ": 3175,
      "ĠÑĤÑĥÐ»ÑĭÑģ": 3176,
      "ĠÑģÐ»ÑĭÑĪÐ¸": 3177,
      "ĠÐ¶ÑĥÑĢÐ½Ð°Ð»Ð¸": 3178,
      "ĠÐĲÐ»ÐµÐºÑģÐµÐµÐ²Ð½Ð°": 3179,
      "ĠÐ¨Ð°ÑĢÑĭÐ¿Ð¾Ð²Ð°": 3180,
      "ĠÑĥÐ·ÑĭÑĢ": 3181,
      "ĠÐķÑĢÐ¼Ð¾Ð»Ð°ÐµÐ²": 3182,
      "ĠÐ²Ð¾ÐºÑģÑĳ": 3183,
      "ĠÐĿÐ°Ð´Ñı": 3184,
      "ĠÐ´ÑĢÑĥÐ³Ð¸Ñħ": 3185,
      "ĠÐ·Ð°ÑĢÐ¿Ð»Ð°": 3186,
      "ĠÐ¿Ð°Ð´Ð°Ð»": 3187,
      "ĠÐ¼Ð¸Ð½Ð¸ÑģÑĤÑĢ": 3188,
      "ĠÐ¼Ð¸Ð½Ð¸ÑģÑĤÐµÑĢ": 3189,
      "ĠÐ²Ð¸Ð´ÐµÐ»Ð°": 3190,
      "ÐłÐ°Ð¸ÑģÐ°": 3191,
      "ĠÐ±Ð¾Ð»ÐµÐ»": 3192,
      "ĠÐĴÐ»Ð°Ð´Ð¸ÑģÐ»Ð°Ð²": 3193,
      "ÐºÐ°Ð¼ÑģÐº": 3194,
      "ĠÐĽÐµÐ±ÐµÐ´": 3195,
      "ĠÐ´ÐµÐ»ÐµÐ³Ð°": 3196,
      "ĠÐ¿ÑĢÐ¸ÑĪÐ»Ð¸": 3197,
      "ĠÐŁÑĢÐ¾ÐºÐ¾Ð¿ÑĮÐµÐ²Ð°": 3198,
      "ĠÑģÐµÑĢÐµÐ´Ð¸Ð½Ðµ": 3199,
      "Ð¾Ð¼ÑĭÐ½Ð´Ð°": 3200,
      "ĠÐĴÑĢÐµÐ¼Ñı": 3201,
      "ÑĦÑĤÐµÐºÐ°Ð¼ÑģÐº": 3202,
      "Ð°Ð³Ð°": 3203,
      "ÑĥÑĩÐ¸Ð»Ð¸ÑīÐµ": 3204,
      "Ð´Ð¾Ð½": 3205,
      "Ð¼Ð¾Ð²Ð°": 3206,
      "Ð²Ð¸": 3207,
      "ÑĢÐ°Ð±Ð¾ÑĤ": 3208,
      "Ð»ÑĮÐ½ÑĭÐ¹": 3209,
      "ĠÑĤÐ°Ð»Ñĭ": 3210,
      "ĠÑĤÑĢÐ°Ð½": 3211,
      "ĠÐľÑĥÐ¶Ñĩ": 3212,
      "ĠÑģÑį": 3213,
      "Ð¶Ð°Ð½": 3214,
      "ÐµÑĢÐµÐ·": 3215,
      "ÐµÐ½Ñĭ": 3216,
      "ÐµÐ½Ð½Ð¾": 3217,
      "ÐµÐ½Ð½Ð¾Ð¹": 3218,
      "ÑĭÐ½Ð°Ð´": 3219,
      "ÐľÐŀ": 3220,
      "ĠÐĴÑıÑĩÐµÑģÐ»Ð°Ð²": 3221,
      "ÑİÐ»Ñį": 3222,
      "ĠÑĥÐºÑģÑĳ": 3223,
      "ĠÐĿÑĭÐ½ÐµÑĪ": 3224,
      "ÐĲÐĻ": 3225,
      "Ð½Ð¸ÐºÐµ": 3226,
      "ĠÐĳÑĥÐ»": 3227,
      "ĠÐŁÑĩ": 3228,
      "ĠÐŁÐ°ÑĪÐ°": 3229,
      "ĠÐŁÑĢÐµÐ·Ð¸Ð´ÐµÐ½ÑĤ": 3230,
      "Ð¾ÑĤÐ¾ÑĢ": 3231,
      "ĠÐłÑĥ": 3232,
      "ĠÐłÐ°Ð·": 3233,
      "Ð¾Ð´Ñĭ": 3234,
      "Ð¼ÐµÑģÑĮ": 3235,
      "ĠÐĽÐ¸Ð»Ð¸Ñı": 3236,
      "ĠÐŀÐ³": 3237,
      "Ð¸ÑģÑĤÐ¸": 3238,
      "Ð¸ÑģÑĥÑģ": 3239,
      "ĠÐ·ÑįÐ¼": 3240,
      "ĠÐĶÑĢÑĥÐ¶": 3241,
      "ÐĵÐ¾ÑĢ": 3242,
      "ÐĵÐ¾Ð¶": 3243,
      "ĠÑĪÑĥÐ»": 3244,
      "ĠÐ²Ð°Ð»Ð°": 3245,
      "ĠÑįÐºÑģ": 3246,
      "Ð°Ð²Ð¾Ð´": 3247,
      "ĠÑĢÐ°Ð±Ð¾ÑĤÐ°Ð»Ð¸": 3248,
      "Ð£Ð·": 3249,
      "ĠÐļÐ¾ÑĢÐ½Ð¸": 3250,
      "ĠÐºÑĥÐ¸Ð½ÐµÑĤÓ¥": 3251,
      "ĠÐ²ÑĭÑĪÐµ": 3252,
      "ÑĭÑĪÐµÐ²Ð°": 3253,
      "ÐłÐķ": 3254,
      "ĠÑģÐºÐ°Ð·Ð°Ð»Ð¸": 3255,
      "ĠÐ¾ÑĤÐ´Ðµ": 3256,
      "ĠÐĿÐ¸ÐºÐ¾Ð»Ð°ÐµÐ²Ð½Ð°": 3257,
      "ĠÐºÐ¾Ð¼ÑģÐ¾Ð¼": 3258,
      "ĠÑĢÑĥÑģÑģ": 3259,
      "ĠÐĲÐ»ÐµÐºÑģÐ°Ð½Ð´ÑĢÐ¾Ð²": 3260,
      "ÐĹÐĺ": 3261,
      "ĠÐ»ÑİÐ±Ð¸ÑĪÑĮ": 3262,
      "ĠÐ¤Ð¸Ð½Ð»ÑıÐ½": 3263,
      "ĠÐ´ÐµÐ»Ð°Ñİ": 3264,
      "Ð¸Ð¼Ð¾Ð²": 3265,
      "Ð¸Ð½ÑįÐ½": 3266,
      "ĠÐ²Ð¸ÑģÑĮ": 3267,
      "Ð¸ÑĢÐ¾Ð²Ð°": 3268,
      "ĠÐ²ÑĢÐµÐ¼ÐµÐ½Ð¸": 3269,
      "ĠÐ°Ð´ÓŁÐ¸": 3270,
      "ÑģÐ¸Ð¼Ð¾Ð²Ð°": 3271,
      "ÑģÑĤÐ¸ÑĤÑĥ": 3272,
      "Ð®ÑĢÐ¸Ð¹": 3273,
      "ĠÑİÑĢÑĤÑĤÐ¾": 3274,
      "ĠÑģÐ¸Ð´ÐµÐ»": 3275,
      "ĠÐ¦ÐµÐ½ÑĤ": 3276,
      "Ð¸ÑģÑĮÐºÑĭ": 3277,
      "ĠÐ±Ð¸Ð±Ð»Ð¸Ð¾ÑĤÐµÐºÐµ": 3278,
      "ĠÑĦÐµÑĢÐ¼Ð°": 3279,
      "ĠÐĵÐ¾ÑĢÐ±": 3280,
      "ĠÑĤÐ²Ð¾ÑĢÑĩÐµÑģÑĤÐ²Ð¾": 3281,
      "ĠÐ³ÑĥÑĢÑĤÑį": 3282,
      "ĠÐ¾Ð³Ð½Ð°Ð¼": 3283,
      "ĠÐ·ÐµÐ¼Ð»Ðµ": 3284,
      "ĠÐºÐ¾Ð¼Ð°Ð½Ð´Ð¾Ð²Ð°": 3285,
      "ĠÑĤÓ¥Ð»ÐµÐ´Ð»Ñĭ": 3286,
      "Ð¾Ð³ÑĢÐ°ÑĦ": 3287,
      "ÓŀÑĥÑĩ": 3288,
      "ĠÐĵÐ»Ð°Ð·Ð¾Ð²Ð°": 3289,
      "ÐĲÐ´ÑıÐ¼Ð¸Ð¾Ñģ": 3290,
      "ĠÐ±ÑĭÐ´ÑįÑģÑĬÑı": 3291,
      "ĠÐĵÐ°ÑĢÐ¸Ð¿Ð¾Ð²Ð°": 3292,
      "ÐĺÐ½ÑĤÑĭ": 3293,
      "ĠÐ¢ÑĢÐ¾ÐºÐ°Ð¹": 3294,
      "ÐĶÑĭÑĪÐµÑĤÓ¥": 3295,
      "ĠÐ·ÑįÐ¼Ð¾Ñģ": 3296,
      "Ð°ÐºÐ¸": 3297,
      "Ð½ÐµÐ³": 3298,
      "ÑģÐ¾Ð²Ð°": 3299,
      "ÑģÐºÐ¾": 3300,
      "ÐºÐ»Ð°": 3301,
      "ÐºÑĭÐ»": 3302,
      "Ð·Ðµ": 3303,
      "ĠÐºÐ¾Ð³Ð¾": 3304,
      "ĠÐºÑĢÐ°ÑģÐ¸": 3305,
      "Ð»ÑĮÐ½Ð¾": 3306,
      "ĠÑĤÑĢ": 3307,
      "ĠÑĤÓ§Ð´ÑĮÑĭ": 3308,
      "ĠÐľÐ¾ÑĢ": 3309,
      "ĠÐľÐ¾Ð½Ð°": 3310,
      "ĠÑģÓ¥": 3311,
      "ĠÑģÐµÐ»": 3312,
      "ĠÑģÐ²Ð°Ð´ÑĮ": 3313,
      "Ð¾Ð½ÑĮ": 3314,
      "Ð¾Ð½Ð»ÑĭÐº": 3315,
      "Ð°Ð»Ð¾Ð²": 3316,
      "ÐµÐ²ÑĪÐ¸Ñħ": 3317,
      "Ð¿Ð°Ð»ÑĮ": 3318,
      "ĠÐ¿Ð¾Ð»Ð¾Ð²": 3319,
      "ÐľÐ¾Ñģ": 3320,
      "ÑģÑĤÐ¾Ð¹": 3321,
      "ĠÐļÐ°Ð¹": 3322,
      "ĠÐļÑĥÑĢÑĤ": 3323,
      "ĠÐķÑĦÑĢÐµÐ¼": 3324,
      "ĠÐ´Ð°Ð»Ð°": 3325,
      "ĠÐ´Ð¸Ð·Ð°Ð¹Ð½": 3326,
      "ĠÐĲÐ»": 3327,
      "ĠÐĵÐ»Ð°Ð²": 3328,
      "ÐļÐŀÐĴÐĲ": 3329,
      "ÑĢÐ¸Ð¼ÐµÑĢ": 3330,
      "ĠÑĪÐ»Ð°": 3331,
      "ĠÐłÐ¸Ð¼Ð¼Ð°": 3332,
      "Ð¾Ð´ÑĭÑĢ": 3333,
      "ĠÐ°ÑģÐ¿": 3334,
      "Ð½Ð¾Ð³Ð¾ÑĢ": 3335,
      "Ð¾Ð»Ð¶": 3336,
      "ÐºÑģÑĭ": 3337,
      "ĠÐ·Ð½Ð°": 3338,
      "ĠÐ·Ð°Ð»": 3339,
      "ĠÐĶÐ¸": 3340,
      "Ð¼Ð°Ð·": 3341,
      "Ð¾Ð¶ÐµÐ²": 3342,
      "ÑĥÐ»Ñı": 3343,
      "Ð¾Ð·Ð°": 3344,
      "Ð¾Ð»ÑĮÐº": 3345,
      "ĠÑĤÐ°ÐºÐ°Ñı": 3346,
      "ĠÐ²ÑĭÐ¸Ð³ÑĢÐ°": 3347,
      "ÑĥÐºÐ½Ð°": 3348,
      "ĠÐ¢ÑĥÐºÑĤ": 3349,
      "ÐłÐŀ": 3350,
      "ĠÐ°Ð´ÑĢÐµÑģ": 3351,
      "ÐµÐ»ÑĮÐ½Ð¸ÐºÐ¾Ð²": 3352,
      "ĠÐľÐ°ÑĢÐ³Ð°ÑĢÐ¸ÑĤÐ°": 3353,
      "Ð¨ÐĲ": 3354,
      "Ð¨Ð¾Ð½ÐµÑĢ": 3355,
      "ĠÑĢÑĥÑģ": 3356,
      "ĠÐ³Ð¾ÑĢÐ¾Ð´Ð°": 3357,
      "ĠÑıÑĢÐ°ÑĤÐ¾": 3358,
      "ÐµÐ½Ð¸Ð°Ð¼Ð¸Ð½": 3359,
      "ĠÐ¥ÑĢÐ¸ÑģÑĤ": 3360,
      "ĠÐ¥Ð°Ð¹Ð´": 3361,
      "ĠÐºÐ¾Ð½ÑĦ": 3362,
      "ĠÑİÐ°": 3363,
      "Ð°Ð½Ð¸Ð¸Ð»": 3364,
      "ĠÐ½Ð°Ð¿ÑĢÐ¸Ð¼ÐµÑĢ": 3365,
      "ĠÓĿÑĭÐ½Ñĭ": 3366,
      "Ð¾Ð´Ð°Ð¼": 3367,
      "ĠÐ¸Ð³ÑĢÐ°ÑĤÑĮ": 3368,
      "ĠÐ³ÑĥÑĢÑĤÑĭÐ½": 3369,
      "ĠÐ¿ÑĢÐ¾ÑģÐ¸Ð»": 3370,
      "ĠÐ¿ÑĢÐ¾ÑģÐ¸Ð»Ð¸": 3371,
      "ÐľÑĭÐ½Ó¥": 3372,
      "ĠÐ²ÐµÑĢÐ½Ñĥ": 3373,
      "ĠÐ±ÐµÑĢÑĤÓ¥": 3374,
      "ĠÐĴÑĭÐ±Ð¸ÑĢÐ°": 3375,
      "Ð²ÐµÑĢÐ´": 3376,
      "ĠÑģÐ¸Ð´Ð¸ÑĤ": 3377,
      "ĠÐ»ÑĭÐºÑĤÓ¥Ð·": 3378,
      "ĠÐºÐ¾Ð¼Ð¿Ð»ÐµÐºÑģ": 3379,
      "ĠÑĥÐ»Ð¾Ð½ÑįÐ·": 3380,
      "ĠÐŁÐµÑĤÑĢÐ¾Ð²Ð¸Ñĩ": 3381,
      "ÑĢÐ¾ÑĤÐ¸Ð²ÐµÐ²ÑĪÐ¸Ñħ": 3382,
      "Ð¼ÑĥÐ½Ð¸": 3383,
      "ĠÑĨÐµÐ½ÑĤÑĢÐµ": 3384,
      "ĠÑĥÐ»Ð¸ÑĨÐ°": 3385,
      "ĠÐ²ÑģÑĤÑĢÐµÑĩÐ°Ð»": 3386,
      "ĠÑħÐ¾ÑĢÐ¾ÑĪÐ¾": 3387,
      "ĠÐ²Ð¾Ð·Ð¼Ð¾Ð¶": 3388,
      "ĠÐ¯ÐºÐ¾Ð²Ð»ÐµÐ²Ð°": 3389,
      "ĠÑĢÐµÐ´Ð°ÐºÑĤÐ¾ÑĢ": 3390,
      "ĠÓĿÑĥÑĤÑįÐ¼ÑĭÐ½": 3391,
      "ÐľÑĥÐºÐµÑĤÑĭÐ·": 3392,
      "ĠÑĢÑĭÑģÐºÐ°": 3393,
      "ĠÐ¡ÐµÑĢÐµÐ±": 3394,
      "ĠÐ³Ð¾Ð»Ð¾Ð²Ðµ": 3395,
      "Ð¾ÑģÑģÑįÑģ": 3396,
      "Ð°ÑĢÑĤÑģ": 3397,
      "ĠÐļÐ°ÑĤÑı": 3398,
      "ÑĥÐ´Ð¾Ð¶Ð½Ð¸Ðº": 3399,
      "ĠÐ²ÐµÑĢÐ°Ð½ÑįÐ·": 3400,
      "ĠÑģÑĨÐµÐ½Ð°ÑĢÐ¸Ð¹": 3401,
      "ĠÐ¢ÑĢÐ¾Ð½Ð¸Ð½Ð°": 3402,
      "ĠÑģÐ´ÐµÐ»Ð°Ð»": 3403,
      "ĠÐ³ÐµÑĢÐ¾Ð¹": 3404,
      "ÐŀÐ´Ó¥Ð³": 3405,
      "ĠÐºÐ¾ÑĢÑĢÐµÑģÐ¿Ð¾Ð½Ð´ÐµÐ½ÑĤ": 3406,
      "ĠÑģÐ»ÑĭÑĪÐ¸ÑĪÑĮ": 3407,
      "ĠÐļÑĥÑĢÑĤÐµÐµÐ²Ð°": 3408,
      "ĠÐ²ÑģÑĤÑĢÐµÑĩÐ°Ð»ÑģÑı": 3409,
      "ĠÑĨÐ¸": 3410,
      "ÐµÑı": 3411,
      "ÐµÐ¼Ðµ": 3412,
      "Ð½ÑĮ": 3413,
      "Ð´ÑĭÑĢ": 3414,
      "Ð´ÑĥÑħ": 3415,
      "Ð¼Ð±": 3416,
      "ÐºÑģÑĤ": 3417,
      "Ð½Ð°ÐµÐ²": 3418,
      "ÑıÑĤÐ¸": 3419,
      "Ð´Ð¼ÐµÑĤ": 3420,
      "ĠÐ½ÐµÐ½": 3421,
      "Ð´Ð¸ÑĪÑĮ": 3422,
      "ĠÑĤÐ°Ð½Ð¸": 3423,
      "ĠÐľÐ¾": 3424,
      "ĠÑģÑĥÐ´": 3425,
      "ÐµÑĢÐ¸Ð½Ð°": 3426,
      "Ð°Ð½Ðº": 3427,
      "Ð¿ÐµÑĤ": 3428,
      "ĠÑĢÐ°ÑģÐ¿": 3429,
      "ĠÐ¿Ð¸ÑĪÐµÑĤ": 3430,
      "ÐºÐ¾Ð»ÑĮ": 3431,
      "ĠÐ¼Ñı": 3432,
      "ÑģÑĤÑĢÑĥ": 3433,
      "ĠÐĴÐ¸ÑĤÐ°Ð»Ð¸Ð¹": 3434,
      "ĠÑĥÐ»": 3435,
      "ĠÐ´ÑĢÐ°Ð¼": 3436,
      "ÑĤÐ¾ÑĢÐ°": 3437,
      "ĠÐ¢Ð¸Ð¼": 3438,
      "ĠÐ³Ð¾Ñģ": 3439,
      "ÑĢÐµÐ´": 3440,
      "ĠÐĵÐ°": 3441,
      "ĠÐĵÐ°Ð½ÑĮ": 3442,
      "Ð´Ð°Ð³Ð¾Ð³": 3443,
      "ĠÐĳÑĥ": 3444,
      "ĠÐĳÐ°Ð»": 3445,
      "Ð»ÑįÐ¼Ñĭ": 3446,
      "Ð¾ÑģÑĬÑı": 3447,
      "ÐĴÐ¾": 3448,
      "Ð¢Ð°Ð·": 3449,
      "Ð°Ð»ÐµÑĤ": 3450,
      "ĠÑĪÐµÑģÑĤÑĮ": 3451,
      "ĠÐ±ÐµÐ»ÑĭÐ¹": 3452,
      "ĠÐĽÑĥÐºÐµÑĢÑĮÑı": 3453,
      "ÐĽÑĭÐº": 3454,
      "ÐĽÑĥÐºÐµÑĢÑĮÑı": 3455,
      "ÐĺÐŁ": 3456,
      "Ð¼Ð¸Ñĩ": 3457,
      "ĠÐĹÐ¾Ð»Ð¾": 3458,
      "ĠÐĹÐ¾Ñı": 3459,
      "ĠÐ·Ð°ÐºÐ¾Ð½": 3460,
      "Ð»ÑĭÑĪ": 3461,
      "ÐºÑĥÐ¼": 3462,
      "ĠÑĩÐ¸ÑģÑĤ": 3463,
      "ĠÐĶÐ°Ð¼Ð°": 3464,
      "ĠÑĥÐ¶ÑĬÑĳÑģ": 3465,
      "ĠÑĥÐ¶Ð°Ð½Ð¾": 3466,
      "Ð¸Ð·Ð¾ÑĢ": 3467,
      "Ð¼Ð°ÐºÐ¾Ð²Ð°": 3468,
      "ĠÑĪÑĥÐ¾Ð´": 3469,
      "ÐµÐ»Ð¸Ð½Ð°": 3470,
      "Ð£Ð¹": 3471,
      "ÑĥÐ½Ð´Ñĭ": 3472,
      "ĠÐ§ÐµÑĤÑĭÑĢÐµ": 3473,
      "Ð¼ÑĭÑģ": 3474,
      "Ð°Ð´ÑĥÑĤ": 3475,
      "ĠÐĿÐ¸ÐºÐ¸ÑĤÐ¸Ð½": 3476,
      "ĠÑĦÐ¾ÑĢ": 3477,
      "ĠÑĦÐ¾Ð½": 3478,
      "ÑĭÐ»Ð¾Ð²Ð°": 3479,
      "Ð¾Ð´Ð¸ÑĤÐµÐ»ÑĮ": 3480,
      "ĠÐºÐ°ÑĢÐ¸Ð·Ñĭ": 3481,
      "ÑĥÐ´Ð°ÑĢ": 3482,
      "ÑĩÐ¸Ð¾Ñģ": 3483,
      "ÑĭÑģÐµÐ·": 3484,
      "ĠÐŃÐ»ÑĮÐ²Ð¸ÑĢÐ°": 3485,
      "ĠÐ£ÑĢÐ°Ñģ": 3486,
      "ĠÐ£Ð»ÑĮÑıÐ½Ð°": 3487,
      "ÐĳÐ¾Ð³Ð´": 3488,
      "ĠÐ³Ð¾Ð²Ð¾ÑĢÑİ": 3489,
      "Ð¾Ð»Ð¾Ð³Ð¸": 3490,
      "ÐĶÐ°ÑĢÑĮÑı": 3491,
      "Ð»ÑıÐ´": 3492,
      "ĠÐºÐ¾Ð¼Ð½Ð°": 3493,
      "ĠÐ°ÑĢÐ¼Ð¸": 3494,
      "Ð´Ð¾ÐºÐ¸": 3495,
      "ĠÐ²ÐµÑĤÐ»": 3496,
      "ĠÐ·Ð°Ð²Ð¸Ð´": 3497,
      "ĠÑģÑĳÑĤÑįÐ¼ÑĭÐ½": 3498,
      "ĠÑĢÐµÐ¿": 3499,
      "ĠÐ³Ð¾Ð¶ÑĤÑį": 3500,
      "ĠÐ¸Ð½ÑĤÐµÑĢÐ²ÑĮÑİ": 3501,
      "ÑĥÑħÐ°Ð¼": 3502,
      "ĠÐ°Ð´ÓŁÑĭ": 3503,
      "ĠÐºÑĭÐ»Ð´Ñĭ": 3504,
      "ĠÐĸÐµÐ½Ñı": 3505,
      "Ð´Ð°ÑĤÐµÐ»ÑĮ": 3506,
      "ĠÑĪÑĥÐ¼Ð¿Ð¾ÑĤÑĭÑģÐ°": 3507,
      "ĠÐ²ÑĭÐ±Ð¸ÑĢÐ°Ð»Ð°": 3508,
      "ĠÐ´ÑĭÑĪÐµÑĤÓ¥Ð·": 3509,
      "ĠÑĪÑĥÐ´ÑĭÐ½Ñĭ": 3510,
      "ĠÐ¾Ð´Ó¥Ð³ÐµÐ·": 3511,
      "ĠÐ¼Ð°Ð»ÐµÐ½ÑĮÐºÐ°Ñı": 3512,
      "ĠÑģÐºÐ°Ð¶ÑĥÑĤ": 3513,
      "ĠÐļÑĥÐ»Ð¸": 3514,
      "ÑĢÐµÐ·Ð¸Ð´ÐµÐ½": 3515,
      "ĠÐ´ÑĭÑĪÐµÑĤÑį": 3516,
      "ĠÐ¸ÑģÑĤÐ¾ÑĢÐ¸Ð¸": 3517,
      "ĠÐ½ÑĭÑĢÑĭÑģÐµÑĤÓ¥ÐµÐ·": 3518,
      "ĠÑģÐ¿ÑĢÐ¾ÑģÐ¸ÑĤ": 3519,
      "ĠÐļÑĥÐ·Ð½ÐµÑĨÐ¾Ð²Ð°": 3520,
      "ĠÑĢÐ¾Ð»ÑĮ": 3521,
      "ĠÐ¿ÐµÐ´Ð°Ð³Ð¾Ð³": 3522,
      "ĠÐľÐ¸ÑĪÐ°": 3523,
      "ĠÐ¾Ð¿ÐµÑĢÐ°": 3524,
      "ĠÑĢÑĥÐºÐ¾Ð²Ð¾Ð´ÑıÑīÐ¸Ð¹": 3525,
      "ĠÐĵÐ°Ð²ÑĢÐ¸Ð»Ð¾Ð²Ð°": 3526,
      "ĠÐ¿ÐµÑĢÐ²Ð¾Ð¼": 3527,
      "ĠÐ¾Ð±ÑīÐµÐ¶Ð¸": 3528,
      "ĠÐ¿Ð¾ÑįÑĤ": 3529,
      "ÐµÐ»ÑĮÑģÐ¸Ð½": 3530,
      "ĠÐľÐ¾Ð»Ð¾Ð´Ð°Ñı": 3531,
      "ĠÐĺÐ³Ð½Ð°": 3532,
      "ĠÐĲÐ½Ð¸ÑģÐ¸Ð¼Ð¾Ð²": 3533,
      "ÐŁÐµÑĤÑĢÐ¾Ð²": 3534,
      "ĠÐĲÑĦÐ°Ð½Ð°": 3535,
      "ĠÐºÑĢÑĥÐ¶Ð¾Ðº": 3536,
      "ĠÑĥÑģÐ»ÑĭÑĪ": 3537,
      "ĠÐ¸ÑģÐºÑĥÑģÑģÑĤÐ²Ð¾": 3538,
      "ĠÐĹÐ°Ð³ÑĢÐµÐ±Ð¸Ð½": 3539,
      "ĠÐĴÐ¾ÑĤÐºÐ¸Ð½ÑģÐº": 3540,
      "ÐľÐ¾Ð¶Ð³Ð°": 3541,
      "ĠÑģÐ¾ÑģÑĤÐ°ÑĢ": 3542,
      "ĠÐ¿Ð¾Ð½Ð¸Ð¼Ð°Ñİ": 3543,
      "Ð»ÑĮÐ±ÐµÑĢÑĤ": 3544,
      "Ð°Ð½Ð¸Ð·Ð°ÑĤÐ¾ÑĢ": 3545,
      "ÑĢÐµÐ»ÐºÐ¾Ð²": 3546,
      "ÐĽÐµÐ¾Ð½Ð¸Ð´": 3547,
      "ĠÐķÐ²Ð³ÐµÐ½ÑĮÐµÐ²Ð¸Ñĩ": 3548,
      "ĠÐĵÐ¾ÑģÐ¿Ð¾Ð´ÑĮ": 3549,
      "Ð¾Ð»ÑĮÐºÐ»Ð¾ÑĢ": 3550,
      "ĠÑİÐ±": 3551,
      "Ð´Ð¶ÐµÑĤ": 3552,
      "Ð²ÐµÑģÑĮ": 3553,
      "Ð¾Ð²ÐµÐ´": 3554,
      "ÑıÐºÐ¾Ð²": 3555,
      "ÑĥÑĢÐµ": 3556,
      "ĠÐ²Ó§Ð»": 3557,
      "ĠÐ²Ð¸Ð·ÑĮ": 3558,
      "ĠÐ²ÑĢÐ°Ñĩ": 3559,
      "Ð³Ð°Ð»": 3560,
      "Ð³ÑĥÑĤ": 3561,
      "ÑĪÑĥ": 3562,
      "Ð±Ð¾Ð³Ð°ÑĤ": 3563,
      "ĠÑģÐµÐ»Ðµ": 3564,
      "ÐµÑĢÑĬÑĳÑģ": 3565,
      "ÐµÐ²ÐµÑĢ": 3566,
      "Ð¿Ð°ÑĢ": 3567,
      "ĠÐ¯Ð¿": 3568,
      "ÑħÐ¾Ð´": 3569,
      "Ð»Ð°Ð³": 3570,
      "ĠÐļÐ¾ÑĤ": 3571,
      "ĠÐļÐµÐ·": 3572,
      "ĠÐļÐ¾ÑģÑĤÑı": 3573,
      "ĠÐļÑĥÐ»Ð°ÐºÐ¾Ð²Ð°": 3574,
      "ĠÐķÐł": 3575,
      "ĠÐķÐ»Ð¸Ð·Ð°Ð²ÐµÑĤÐ°": 3576,
      "ĠÐ´Ð¾ÑĢ": 3577,
      "ĠÐ´ÐµÐ½ÑĮÐ³Ð¸": 3578,
      "ĠÐ´Ð°Ð´ÑĥÑĤ": 3579,
      "ĠÐĲÐ³": 3580,
      "ĠÐĿÐ¾Ð²": 3581,
      "ĠÐ¾ÑĢÐ³": 3582,
      "Ð»Ð¸ÐºÐ°": 3583,
      "ĠÐ³Ð°ÑģÑĤ": 3584,
      "ÐļÐ°ÑĢ": 3585,
      "ÐļÐ½Ð¸Ð³Ð°": 3586,
      "ÐļÐ°Ð»Ð°ÑĪÐ½Ð¸ÐºÐ¾Ð²": 3587,
      "Ð»ÑįÐ¿": 3588,
      "ĠÐŁÐ°Ñħ": 3589,
      "Ð¾Ð¼Ð¾Ð²Ð°": 3590,
      "ÐĴÐ°Ð»": 3591,
      "ÐķÐĴ": 3592,
      "ĠÐ±Ð°Ð»": 3593,
      "ĠÐłÐµÑģÐ¿ÑĥÐ±Ð»Ð¸": 3594,
      "ĠÐŀÑĢ": 3595,
      "ĠÐ°ÑĤ": 3596,
      "ĠÐ°Ð³": 3597,
      "ĠÐ°Ð±": 3598,
      "ÐµÑģÑĤÐ¸Ð²Ð°Ð»ÑĮ": 3599,
      "ÐµÐ·Ð»Ñĭ": 3600,
      "Ð¸Ð»Ð»ÑıÐ¼": 3601,
      "Ð¡ÑıÑģÑĮ": 3602,
      "ĠÐ¡Ð°ÑĪÐ°": 3603,
      "ÐĿÐ¾ÐºÑĥ": 3604,
      "ÐºÑĥÑĤ": 3605,
      "ĠÑĥÐ¶Ð·Ñį": 3606,
      "ĠÐķÐ¼ÐµÐ»ÑĮÑıÐ½Ð¾Ð²": 3607,
      "ÑĭÑĢÑĭ": 3608,
      "ÑĥÐ¶ÐµÐ¼": 3609,
      "ĠÐ²Ð°Ð»Ð°ÑģÑĮÐºÐ¾": 3610,
      "Ð¾Ð³Ð¾Ð²Ð¾ÑĢ": 3611,
      "ĠÑĢÐ°Ð±Ð¾ÑĤÐ°Ð»Ð°": 3612,
      "Ð£Ð»ÑĮÑĦÐ°ÑĤ": 3613,
      "ĠÐ§Ð°Ð¹ÐºÐ¾Ð²": 3614,
      "ÑĤÐ°Ðµ": 3615,
      "ÐŁÑĢÐ°Ð·Ð´Ð½Ð¸Ðº": 3616,
      "ĠÑĦÐ¸Ð»ÑĮ": 3617,
      "ĠÐĿÐ°ÑĥÑĩ": 3618,
      "ÑĥÑĤÐ´Ð¸Ð½Ð¾Ð²Ð°": 3619,
      "ĠÐ¾Ð±ÑĢÐ°": 3620,
      "ĠÐ£Ñģ": 3621,
      "ĠÐ£Ð»ÑĮÑĦÐ°ÑĤ": 3622,
      "ĠÐ¶ÐµÐ½Ð°": 3623,
      "ÑģÑĤÐ²Ð¾Ð¼": 3624,
      "ÐµÑĤÓ¥ÐµÐ·": 3625,
      "ĠÐ³Ð¾Ð²Ð¾ÑĢÐ¸Ð»Ð¸": 3626,
      "ĠÐ¾ÑĤÐ²ÐµÑĤ": 3627,
      "ÐĶÑĥÐ½": 3628,
      "ĠÐºÐ¾Ð¼Ð°Ð½Ð´Ð¸": 3629,
      "ĠÐ½Ð°ÑĥÐºÑĥ": 3630,
      "ĠÑĤÑĭÑĢÐ¾": 3631,
      "ĠÐļÐ°Ð¼Ð°": 3632,
      "ĠÐ¤Ð¸Ð»Ð¸Ð¿Ð¿": 3633,
      "Ð¸Ð¼Ð¾Ð²Ð°": 3634,
      "ÑĢÑıÐºÐ¾Ð²": 3635,
      "ĠÐ¼ÑĥÐºÐµÑĤÑĬÑĳÑģ": 3636,
      "ÑĪÐ¸Ð¹": 3637,
      "ĠÐ³Ð¾Ð¶ÑĤÓ¥": 3638,
      "ĠÑģÐµÑĢÐµÐ±": 3639,
      "ĠÐºÐ¾ÑĪÐºÐµ": 3640,
      "ĠÑĪÐºÐ¾Ð»Ð°Ðµ": 3641,
      "ĠÐ¼Ð¸ÑĢÐµ": 3642,
      "ÑģÐºÐ¾Ð½": 3643,
      "ĠÑĪÑĥÐ¼Ð¿Ð¾ÑĤÓ¥ÑģÑĮÐºÐ¾": 3644,
      "ĠÐŁÐµÑĢÐ²Ð°Ñı": 3645,
      "ĠÑĥÑĢÐ¾Ðº": 3646,
      "ĠÐ¼ÑĥÐ·ÑĬÐµÐ¼": 3647,
      "ÑĬÑıÑģÑĮÐº": 3648,
      "ĠÑģÑİÐ»": 3649,
      "ÑĥÐ»ÑĮÑĤ": 3650,
      "ĠÐłÐ¾ÑģÑģÐ¸ÑĭÑģÑĮ": 3651,
      "ĠÐļÐ¾Ð½Ð´ÑĢÐ°": 3652,
      "Ð²ÑĭÐµ": 3653,
      "ĠÐ±Ð¾ÑĢÐ´Ñĭ": 3654,
      "ĠÐ¿ÑĢÐµÐ´Ð¼ÐµÑĤ": 3655,
      "ĠÑĥÑĩÑĭÑĢÑĬÑı": 3656,
      "ĠÑĦÐµÑģÑĤÐ¸Ð²Ð°Ð»Ðµ": 3657,
      "ĠÑģÐ¿ÑĢÐ¾ÑģÐ¸Ð»": 3658,
      "ĠÐĽÐµÐ¾Ð½Ð¸Ð´Ð¾Ð²Ð½Ð°": 3659,
      "ĠÐľÐ°Ð»ÐµÐ½ÑĮÐºÐ°Ñı": 3660,
      "ĠÐĶÐ°Ð½Ð¸Ð»": 3661,
      "Ð´Ð¾Ð²Ð¾Ð¹": 3662,
      "ĠÐ±ÑĭÑĢÐ¹Ð¸": 3663,
      "ĠÐľÐ¾ÑģÐºÐ²Ð°ÑĭÑģÑĮ": 3664,
      "ĠÐ¿ÑĥÐ¼Ð¸ÑĤÐ°Ð·Ñĭ": 3665,
      "ĠÑĥÑĪÑĬÑı": 3666,
      "ĠÑıÑĢÐºÑĭÑĤ": 3667,
      "ĠÐ³ÑĥÑĢÑĤÐ¾": 3668,
      "ĠÐ»Ð¸ÑĤÐµÑĢÐ°ÑĤÑĥÑĢÑĭ": 3669,
      "Ð°Ð»ÑįÑģÑĮ": 3670,
      "ĠÐ®ÐºÐ°Ð¼ÐµÐ½ÑģÐº": 3671,
      "Ð¸ÑĩÐµÑģÐºÐ¾Ð¹": 3672,
      "ÐºÐ¾ÑĢÑĤÐ¾": 3673,
      "ĠÐ¿ÑĢÑıÐ¼": 3674,
      "ĠÐ´Ð¾Ð±Ð°Ð²Ð¸Ð»": 3675,
      "ÐļÐ¾Ð»ÑħÐ¾Ð·": 3676,
      "ĠÐĳÑĥÑĢÐ°Ð½Ð¾Ð²Ð°": 3677,
      "ĠÐļÑĭÑĤÑĭÐ½": 3678,
      "ĠÐ´ÐµÐ²ÑĥÑĪÐºÐ°": 3679,
      "ĠÑĤÐ°ÑĤÑĩÑĭ": 3680,
      "ĠÐĳÐ°ÑĪÐºÐ¾ÑĢÑĤÐ¾": 3681,
      "ĠÐ¼ÐµÐ»Ð¾Ð´Ð¸Ñİ": 3682,
      "ĠÐĽÐµÐºÐ¾Ð¼ÑĨÐµÐ²Ð°": 3683,
      "ĠÐ£ÑĤÐºÐ¸Ð½Ð°": 3684,
      "ĠÐĴÐ»Ð°Ð´ÑĭÐºÐ¸Ð½": 3685,
      "ĠÐºÐ¾Ð¼Ð¸ÑģÑģÐ¸": 3686,
      "ĠÐ²Ð¾ÑģÐµÐ¼ÑĮ": 3687,
      "ĠÐĲÐ³Ð°ÑĦÐ¾Ð½Ð¾Ð²Ð°": 3688,
      "ĠÐĲÐ»ÐµÐºÑģÐ°Ð½Ð´ÑĢÐ°": 3689,
      "ĠÑİÐ³ÑĭÑĤ": 3690,
      "ĠÐĵÐ°Ð·Ð¸Ð·": 3691,
      "ĠÑįÑģÑĤÐ°ÑĦÐµÑĤÐ°": 3692,
      "ĠÐĿÐ°ÑģÐºÐ¾Ð»ÑĮÐºÐ¾": 3693,
      "ĠÐºÐ°Ð±Ð¸Ð½ÐµÑĤ": 3694,
      "ĠÐŁÑĢÐ¾ÑħÐ¾ÑĢÐ¾Ð²Ð½Ð°": 3695,
      "ĠÐ°ÑģÐ¿Ð¸ÑĢÐ°": 3696,
      "ÐĳÐ¾Ð³Ð´Ð°Ð½": 3697,
      "ĠÐŁÐ°ÑħÐ¾Ð¼Ð¾Ð²Ð°": 3698,
      "ÐµÐ´Ð¸Ñı": 3699,
      "ÑĤÐ¸Ð¸": 3700,
      "ĠÐ²Ð°ÑĢ": 3701,
      "ĠÐ²Ð°Ñģ": 3702,
      "ĠÐ½ÑĮÑĭÐ»ÑĮ": 3703,
      "ĠÑĤÐ¾Ð¿": 3704,
      "ĠÑģÐ²ÐµÑĤ": 3705,
      "Ð°Ð»Ð¾Ð·": 3706,
      "ĠÐ¿Ð°Ð»ÑįÐ½": 3707,
      "ÐµÑĤÑĮ": 3708,
      "ĠÐ¡Ð²": 3709,
      "ĠÐ¡Ñİ": 3710,
      "ĠÐ¼Ð°ÑĤÑĭÐ½": 3711,
      "ĠÐ¼Ð¾ÑĢÐµ": 3712,
      "ĠÐļÐ¸": 3713,
      "ĠÐļÐ°Ð½Ð´Ð¸Ð´Ð°ÑĤ": 3714,
      "ĠÐļÐ°Ð»Ð°ÑĪÐ½Ð¸ÐºÐ¾Ð²": 3715,
      "ĠÐķÐ³Ð¸": 3716,
      "ĠÑĥÐ½Ð¾": 3717,
      "ĠÑĥÑģÐ¸Ð·": 3718,
      "Ð°ÑĤÑĢ": 3719,
      "ĠÐ´ÐµÑģ": 3720,
      "ĠÐ´Ð¾Ðº": 3721,
      "ĠÐ´ÑĭÑĢÐµ": 3722,
      "ĠÐ´Ó¥ÑģÑĮ": 3723,
      "ĠÐ´Ð¾Ð³Ð¾Ð²Ð¾ÑĢ": 3724,
      "ĠÐ¾Ñĩ": 3725,
      "ÑĳÐ»": 3726,
      "ĠÐ³Ð°ÑĢÐ¼Ð¾Ð½": 3727,
      "ĠÐĵÐ»": 3728,
      "ĠÐĵÐ¸Ð»ÑĮ": 3729,
      "ÐļÐ°": 3730,
      "ĠÐĳÐµÐ»": 3731,
      "ĠÐŁÐ¾Ð»": 3732,
      "ĠÐ»Ñı": 3733,
      "ĠÐ»ÐµÐº": 3734,
      "ĠÐ±ÐµÑĢÑĤ": 3735,
      "Ð¸ÑĤÐ°Ð¹": 3736,
      "ÑģÐ¸Ð¹": 3737,
      "ÐĽÐ¸Ð´Ð¸Ñı": 3738,
      "ĠÐŀÑĤÐµ": 3739,
      "ĠÐŀÐºÑģÐ°Ð½Ð°": 3740,
      "Ð´ÐµÑĨ": 3741,
      "Ð´ÐµÐ»Ð¸": 3742,
      "Ð¾Ð»Ð¾Ð²Ð°": 3743,
      "ĠÐĿÐ¸ÐºÐ°": 3744,
      "Ð¼Ð¸Ð»Ð¸": 3745,
      "ĠÐĹÐ°ÑĢ": 3746,
      "ĠÐ·Ð¾Ð»Ð¾": 3747,
      "ÐµÐ¼ÑģÑı": 3748,
      "ĠÐĶÐ¸Ð¼Ð°": 3749,
      "ÑīÐ°Ð³": 3750,
      "Ð£Ðł": 3751,
      "Ð£Ð³Ð¾": 3752,
      "ÑĤÐ°Ñģ": 3753,
      "ÐŁÐ°ÑĢ": 3754,
      "ĠÐĿÐ¸ÐºÐ¸ÑĦÐ¾ÑĢ": 3755,
      "ĠÐĿÐ°Ð·": 3756,
      "ĠÐĿÐ°Ð¿": 3757,
      "ÑĨÐ¸Ð¾Ð½": 3758,
      "ÑģÐºÐ¸Ð·": 3759,
      "ÑĥÐ´Ð¾ÑĢ": 3760,
      "ÑĥÑĪÐºÐ¸Ð½": 3761,
      "ĠÐ£Ð¶": 3762,
      "ĠÐ¶ÑİÑĢÐ¸": 3763,
      "ÐłÐ¸Ð¼Ð¼Ð°": 3764,
      "ÑģÑĤÐ²ÑĥÐ¹": 3765,
      "Ð¸Ð´Ñĭ": 3766,
      "Ð¾Ð»Ð¾Ð´Ñı": 3767,
      "ĠÐľÐ°ÑĢÐ¸": 3768,
      "Ð»ÑıÐ´Ñĭ": 3769,
      "ĠÐ·Ð°Ð¿": 3770,
      "ĠÐ·Ð°Ð¿Ð¾Ð»": 3771,
      "ÐŃÐ¼Ð¸Ð»Ð¸Ñı": 3772,
      "ÐµÐ½Ð¸ÑĢÐ¾Ð²": 3773,
      "ĠÐ¼ÑĭÐ½Ð¾Ð½Ð¾": 3774,
      "ÑĢÑıÐ²": 3775,
      "Ð°ÑĪÐºÐ¸": 3776,
      "ÐºÑĭÐ»Ð¸": 3777,
      "Ð¸Ð»Ð¸ÑĤÐ¸Ð½Ð°": 3778,
      "ĠÐ±Ð¾Ð»ÑĮÑĪÐ¸Ðµ": 3779,
      "ĠÑĨÐµÐ½": 3780,
      "ĠÐĲÐ½Ð°ÑĤÐ¾": 3781,
      "ÑĥÑħÐ³Ð°Ð»": 3782,
      "ĠÐ°Ð´ÓŁÐ¸ÑģÑĮÐºÑĭ": 3783,
      "ĠÐºÐ¾ÑĪÐºÐ¾": 3784,
      "ĠÑĪÐºÐ¾Ð»Ð°ÑĭÑģÑĮ": 3785,
      "ĠÐĽÐµÐ»Ð¸": 3786,
      "ĠÐ¾Ð³Ð»ÑıÐ´Ñĭ": 3787,
      "ĠÐĵÑĢÐ¸ÑĪÐ°": 3788,
      "ĠÐŁÐµÑĢÐµÐ´": 3789,
      "ÐĿÐ°ÑģÑĤÑı": 3790,
      "ĠÐ´Ð²Ð¾ÑĢ": 3791,
      "ĠÐ²ÑĭÐ±Ð¸ÑĢÐ°Ð»Ð¸": 3792,
      "ĠÑģÑİÐ´Ð°": 3793,
      "ĠÐ¢Ð°Ð¼Ð°ÑĢÐ°": 3794,
      "ĠÑĢÐ°Ð·Ð±Ð¾Ð³Ð°ÑĤ": 3795,
      "ĠÑįÑĤÐ¾Ð¼Ñĥ": 3796,
      "ĠÑģÐµÐºÑĢÐµÑĤ": 3797,
      "ĠÐ¸Ð½ÑĤÑĭÐµÐ·": 3798,
      "ĠÑĦÐ¸Ð»Ð¾ÑģÐ¾ÑĦ": 3799,
      "ĠÐ¿Ð¾Ð»Ð¸ÑĤÐ¸": 3800,
      "ĠÐ¸ÑģÑĤÐ¾ÑĢÐ¸Ñı": 3801,
      "Ð°Ð»ÑıÑģÐ°": 3802,
      "ĠÐ±Ð¸Ð±Ð»Ð¸Ð¾ÑĤÐµÐºÐ°": 3803,
      "ĠÐ¾ÑĤÐºÑĢÑĭÐ»": 3804,
      "ĠÐ´ÐµÐ»Ð°Ð»Ð¸": 3805,
      "ĠÑĦÐµÑĢÐ¼ÐµÑĢ": 3806,
      "ĠÐ¼ÑĥÐ·Ñĭ": 3807,
      "Ð¸ÑĤÐµÐ»ÑĮÑģÑĤÐ²Ð¾": 3808,
      "ĠÑģÐ°Ð¹ÐºÐ°": 3809,
      "ĠÐºÑĭÑģÑĤ": 3810,
      "ĠÐ¼Ð¸Ð»ÐµÐ¼Ð»Ñĭ": 3811,
      "ĠÐļÑĥÐ·ÑĮÐ¼Ð¸Ñĩ": 3812,
      "ĠÑĪÑĥÐ½Ð´Ñĭ": 3813,
      "ĠÑĦÐµÐ´ÐµÑĢÐ°Ð»": 3814,
      "ĠÐºÑĥÐ»ÑĮÑĤÑĥÑĢÐ°Ñı": 3815,
      "ĠÑĤÐµÑħÐ½Ð¸ÐºÐ°": 3816,
      "ĠÐļÐ¾Ð»Ñı": 3817,
      "ĠÑĩÐµÐ¼Ð¿Ð¸": 3818,
      "ĠÐºÐ¾Ð½ÐºÑĥÑĢÑģ": 3819,
      "ÑĭÐ¿ÑĭÑĤ": 3820,
      "ĠÐ¼Ð°ÑĤÐµÐ¼Ð°ÑĤÐ¸": 3821,
      "Ð¦ÐµÐ½ÑĤ": 3822,
      "ĠÐĽÑİÐ±Ð°": 3823,
      "ĠÐ¥Ð¾ÑħÑĢÑıÐºÐ¾Ð²": 3824,
      "ĠÐĴÐ»Ð°Ð´Ð°": 3825,
      "ĠÐ¼ÑĥÐ½Ð¸ÑĨÐ¸Ð¿Ð°Ð»ÑĮ": 3826,
      "ĠÐĴÐµÐºÑĪÐ¸Ð½Ð°": 3827,
      "ĠÐļÑĢÐµÑģÑĤÑĮÑıÐ½Ð¸Ð½Ð¾Ð²Ð°": 3828,
      "ÐĳÑĭÑĢÐ¹": 3829,
      "Ð§Ð°Ð¹ÐºÐ¾Ð²ÑģÐºÐ¸Ð¹Ð»ÑįÐ½": 3830,
      "ĠÑĢÐ°ÑģÑģÐºÐ°Ð·": 3831,
      "ĠÑĦÑĥÑĤÐ±Ð¾Ð»": 3832,
      "ĠÑıÑĢÐ°ÑĤÓ¥ÑģÑĮÐºÑĭ": 3833,
      "ĠÐ¿ÑĢÐ¾ÑģÐ½ÑĥÐ»ÑģÑı": 3834,
      "ĠÐ¢Ð°ÑĤÐ°ÑĢÑģÑĤÐ°Ð½": 3835,
      "ĠÐĲÑĢÐ´Ð°ÑĪÐµÐ²Ð°": 3836,
      "ĠÐĽÐ¾Ð¶ÐºÐ¸Ð½": 3837,
      "Ð´ÑĢÐ°Ð²ÑģÑĤÐ²ÑĥÐ¹": 3838,
      "ĠÑĤÐµÑħÐ½Ð¾": 3839,
      "ĠÐ»ÑĥÐ¾Ð½Ð»ÑĭÐº": 3840,
      "ĠÐ±Ð°ÑĤÐ°Ð»ÑĮ": 3841,
      "ÐľÐŀÐĽÐĺÐĿÐĲ": 3842,
      "ĠÐĶÑĢÑĥÐ¶Ð±Ð°": 3843,
      "ĠÐĵÐ¾ÑĢÐ±ÑĥÐ½": 3844,
      "ÐľÐ¾ÑģÐºÐ²Ð°": 3845,
      "ĠÐĲÑĦÐ°Ð½Ð°ÑģÑĮ": 3846,
      "ĠÐķÐłÐľÐŀÐĽÐĺÐĿÐĲ": 3847,
      "ĠÐ³Ð°ÑģÑĤÑĢÐ¾": 3848,
      "ĠÐĳÐ°ÑĪÐºÐ¾ÑĢÑĤÐ¾ÑģÑĤÐ°Ð½": 3849,
      "ĠÐĵÐ°Ð·Ð¸Ð·ÑĥÐ»Ð»Ð¸Ð½Ð°": 3850,
      "ĠÐ°ÑģÐ¿Ð¸ÑĢÐ°Ð½ÑĤ": 3851,
      "ĠÐŀÑĤÐµÑĨ": 3852,
      "Ð£Ð³Ð¾ÑģÑĮ": 3853,
      "ÑĥÑħÐ³Ð°Ð»ÑĤÐµÑĢ": 3854,
      "ĠÐ¾Ð³Ð»ÑıÐ´ÑĭÐ²Ð°Ð»": 3855,
      "Ó¦": 3856,
      "Ð°ÐºÐ°": 3857,
      "Ð¾ÑģÑĮ": 3858,
      "Ð¾ÐµÐ²": 3859,
      "Ð¸ÐºÐ¸": 3860,
      "Ð½ÑĨÐµ": 3861,
      "ÑģÐ°ÑĤ": 3862,
      "ÑģÑĤÐ¸Ð½Ð°": 3863,
      "ÑģÑĬÑĳÑģ": 3864,
      "ÑĮÓ§Ð»": 3865,
      "ÑıÐºÐ¾Ð²Ð°": 3866,
      "ÑĤÐ¸Ð·": 3867,
      "Ð³ÐµÐ»Ð¸Ð½Ð°": 3868,
      "ĠÐ½ÑıÐ½ÑĮ": 3869,
      "Ð¹ÐºÐ¾": 3870,
      "ÑįÐº": 3871,
      "Ð´Ð¸Ð²": 3872,
      "ĠÐ£Ð´Ð¼ÑĥÑĢÑĤÐ¸ÑĭÐ½": 3873,
      "ĠÐºÑĢÑĥ": 3874,
      "ĠÐºÑĥÐ»": 3875,
      "ĠÑĤÓ§Ð»": 3876,
      "ĠÐľÐµÐ½": 3877,
      "ĠÐľÑĭÐ½": 3878,
      "ĠÐľÐµÐ´Ð²ÐµÐ´ÐµÐ²": 3879,
      "Ð°Ð»Ð°ÑĤ": 3880,
      "Ð°Ð½Ð½Ð°": 3881,
      "Ð¿Ð¾Ð¶": 3882,
      "ĠÐ¿ÑĥÐ½": 3883,
      "ĠÐ¯Ðº": 3884,
      "ĠÐ¯Ð³ÑĥÑĤ": 3885,
      "ĠÐ¼Ð½Ð¾Ð³Ð¾": 3886,
      "ÑģÑĤÑĢ": 3887,
      "ÑģÑĤÑĢÐ¾": 3888,
      "Ð¸Ð½Ð¾": 3889,
      "Ð¸Ð½ÑģÐºÐ¸Ð¹": 3890,
      "ĠÐļÐ»Ð°": 3891,
      "ĠÐļÐŀ": 3892,
      "ĠÐļÐµÐ»ÑĮ": 3893,
      "ĠÐ¸Ð³": 3894,
      "Ð»Ð¸Ð¼Ð¿": 3895,
      "ÐĲÐĿÐŀÐĴÐĲ": 3896,
      "ĠÐĵÐ¾Ð²Ð¾ÑĢ": 3897,
      "ĠÑĤÐµÐ¼Ð°": 3898,
      "ÐļÑĥÑĢ": 3899,
      "Ð¾ÑģÑĭ": 3900,
      "Ð¾ÑĤÑĮ": 3901,
      "ĠÑĪÑĭÐ¿ÑĭÑĤ": 3902,
      "ĠÐ±Ð°ÑĢ": 3903,
      "ĠÐ±ÑĥÑħÐ³Ð°Ð»ÑĤÐµÑĢ": 3904,
      "ÑĬÑĳÑģÐ¼Ñĭ": 3905,
      "Ð´ÐµÐ»Ð°": 3906,
      "ÐŀÑĤÓ¥": 3907,
      "Ð¼Ð¸Ð¹": 3908,
      "ĠÐ·Ð°Ð»Ðµ": 3909,
      "ÑīÐ°Ð´": 3910,
      "Ð½ÑıÑı": 3911,
      "ÐµÐ»ÑģÑı": 3912,
      "ÐºÑĤÑĥ": 3913,
      "ĠÐ§ÐµÑħ": 3914,
      "ÐŁÐ°ÑĪÐ°": 3915,
      "ĠÑĦÑĢÐ¾Ð½": 3916,
      "Ð¾Ð·Ð¸": 3917,
      "ĠÐĺÐ¶Ð¼Ð°ÑĪ": 3918,
      "ĠÑĤÐ°Ð·": 3919,
      "ÑĨÐ¸ÐµÐ·": 3920,
      "ĠÐĲÑĢÐ·Ð°": 3921,
      "ÑĩÐ¸Ðº": 3922,
      "ĠÐ¿Ð¾Ð¿": 3923,
      "ĠÐ¼ÐµÑĪ": 3924,
      "Ð·ÑĮÑĭÐ»": 3925,
      "ĠÐ¾ÑĤÐºÑĥÐ´Ð°": 3926,
      "ÐĶÑįÐ±ÐµÑģ": 3927,
      "ĠÐ²ÐµÑĢÐ°ÑģÐ°": 3928,
      "ĠÐ¤ÐµÐ´ÐµÑĢÐ°": 3929,
      "Ð³ÑĢÐ°ÑĦ": 3930,
      "ĠÐ¿ÑĢÐ¸ÑħÐ¾Ð´Ð¸": 3931,
      "ĠÐ¥Ð¾ÑĢ": 3932,
      "ĠÐ¥Ð°Ð»Ð¸Ð»ÑĮ": 3933,
      "ÑĤÓ¥ÑģÑĮÐºÐµ": 3934,
      "ĠÐ²ÐµÑĤÐ»Ñĭ": 3935,
      "ĠÑİÐ°ÑģÑĮÐºÐ¾": 3936,
      "ÑĤÐµÑħÐ½Ð¸": 3937,
      "ĠÑĢÑĥÐºÐ¾Ð²Ð¾Ð´Ð¸Ð»Ð°": 3938,
      "Ð°ÑĢÐ°Ð¹ÐºÐ¾": 3939,
      "Ð°Ð»Ð°ÑģÑĮ": 3940,
      "Ð¼ÐµÐ½ÑĤÐ°": 3941,
      "ĠÓĿÐ¾Ð³": 3942,
      "Ð¶ÐµÐ»Ð¸ÐºÐ°": 3943,
      "ĠÐ¸Ð½ÑĤÐµÑĢÐµÑģÑĥÐµÑĤÑģÑı": 3944,
      "ĠÐ¾Ð³ÐµÐ·": 3945,
      "Ð¥Ð°Ð»Ð¸Ð»ÑĮ": 3946,
      "Ð®ÑĢÑĤ": 3947,
      "ĠÑĢÐ°Ð·Ð°": 3948,
      "ÑĩÐµÑģÐºÐ¸Ð¹": 3949,
      "ÐľÑĭÐ½Ó¥ÑģÑĮÐºÐ¾": 3950,
      "ÐĿÐ¸ÐºÐ¸": 3951,
      "ĠÐ±ÑĭÑĢÑĬÐµÐ¼": 3952,
      "ĠÐ²ÐµÑĤÐ»Ó¥Ð·": 3953,
      "ĠÐºÐ»Ð°ÑģÑģÐµ": 3954,
      "Ð»Ð¸Ð½Ð¾": 3955,
      "ĠÑħÐ¾Ð·ÑıÐ¹ÑģÑĤÐ²Ðµ": 3956,
      "ĠÐľÐ°ÐºÑģÐ¸": 3957,
      "ÐĺÐ¶ÐºÐ°ÑĢ": 3958,
      "ĠÐ»ÑĭÐºÑĤÐ¾": 3959,
      "ĠÐ»ÑĭÐºÑĤÐ¾Ð·": 3960,
      "ĠÐĳÐ¾ÑĢÐ¸ÑģÐ¾Ð²Ð½Ð°": 3961,
      "ĠÐĲÐ½ÑĤÐ¾Ð½": 3962,
      "ĠÐ°Ð·ÑĮÐ»Ð°Ð½": 3963,
      "ĠÐ·Ð°Ð²Ð¾Ð´ÑĭÐ½": 3964,
      "ĠÐ¦Ð²ÐµÑĤ": 3965,
      "ĠÑģÐ»ÑĭÑĪÐ¸ÑĤ": 3966,
      "ĠÐ²Ð¾Ð¾Ð±ÑīÐµ": 3967,
      "ĠÐ¿ÐµÐ½ÑģÐ¸Ð¸": 3968,
      "ĠÐ¼ÑĥÐ¶ÑĩÐ¸Ð½Ñĭ": 3969,
      "ĠÐ±Ð¸Ð»ÐµÑĤ": 3970,
      "ĠÐ±Ð¸Ð°ÑĤÐ»Ð¾Ð½": 3971,
      "ĠÐ²Ð°Ð»Ð°ÑģÑĮÐºÐµ": 3972,
      "ÐºÑĤÐ¾ÑĢÐ°": 3973,
      "ĠÐĶÐ°Ð½Ð¸Ð»Ð¾Ð²": 3974,
      "ĠÐ²ÑģÑĤÑĢÐµÑĩ": 3975,
      "ĠÐ°Ð²ÑĤÐ¾Ð±ÑĥÑģÐµ": 3976,
      "ÐµÐ½ÑĭÐ·Ñĭ": 3977,
      "ĠÑħÐ¾ÑĢÐ¾ÑĪÐ¸Ð¹": 3978,
      "ĠÐ²Ð°Ð»ÑįÐºÑĤÑį": 3979,
      "ÑĭÑģÑĮÑĤÑĭÐ·Ñĭ": 3980,
      "ÐµÑĢÐµÐ½Ð´Ñı": 3981,
      "ÑĬÑĳÑģÑģÑįÑģ": 3982,
      "ĠÐ¿Ð¾Ð¼Ð¾Ð³Ñĥ": 3983,
      "ÐµÑģÑĤÐ¾Ð»ÐºÐ¾Ð²": 3984,
      "ĠÐĳÐ¾Ð»ÑĮÑĪÐ°Ñı": 3985,
      "ĠÐĳÐ¾Ð»ÑĮÑĪÐ¸Ðµ": 3986,
      "ĠÐ²ÐµÑĢÐ¾Ñģ": 3987,
      "ĠÑĦÐµÐ´ÐµÑĢÐ°Ð»ÑĮ": 3988,
      "ĠÐ¾ÐºÑĢÑĥÐ³": 3989,
      "ÐĲÐ²ÑĤÐ¾": 3990,
      "ÐľÐ°ÐºÐµÐ¼": 3991,
      "ĠÑĩÐ°ÑģÑĤÐ¸": 3992,
      "ĠÐºÐ²Ð°ÑĢÑĤÐ¸ÑĢÐ°": 3993,
      "ÑģÑİÐ´Ð°": 3994,
      "ĠÐ»ÐµÑģÑĥ": 3995,
      "ĠÐ¿Ð¾ÑħÐ²Ð°Ð»": 3996,
      "ĠÑģÐ¾Ð³ÑĢÐµ": 3997,
      "ĠÐĵÐ¾Ð»ÑĥÐ±": 3998,
      "ĠÐ´Ð¸ÑĢÐµÐºÑĤÐ¾ÑĢÐµÐ·": 3999,
      "ĠÐºÑĥÐ»ÑĮÑĤÑĥÑĢÑĭ": 4000,
      "ĠÑĨÐµÑĢÐºÐ¾Ð²ÑĮ": 4001,
      "ĠÐ¿ÑĢÐµÐ´Ð¿ÑĢÐ¸": 4002,
      "ĠÐ²ÐµÑĤÐµÑĢÐ°Ð½": 4003,
      "ÑİÐ»ÑįÑģ": 4004,
      "ĠÐĳÑĥÐ»Ð´Ð°": 4005,
      "ĠÐ¤Ð¸Ð½Ð»ÑıÐ½Ð´Ð¸": 4006,
      "ĠÐĵÐ»Ð°Ð²Ð°ÑĤ": 4007,
      "ĠÐ¢ÑĥÐºÑĤÐ°Ð¼Ñĭ": 4008,
      "ĠÐ²ÐµÑĤÐ»ÑĭÐ½Ñĭ": 4009,
      "Ð´ÑĢÐ°Ð²ÑģÑĤÐ²ÑĥÐ¹ÑĤÐµ": 4010,
      "Ð¸ÑģÑĤÐ°": 4011,
      "ÐºÑĢÐ°": 4012,
      "ÑĭÐµ": 4013,
      "ÑĮÑıÐ½": 4014,
      "ÑĮÑģÑı": 4015,
      "Ð¾Ð²ÐµÐ·": 4016,
      "ÑĤÐ¸Ð²Ð°Ð»": 4017,
      "ĠÐ²Ð¾ÑĢ": 4018,
      "ĠÐ²ÑĥÐ¶": 4019,
      "ĠÐ½ÐµÐ¼": 4020,
      "Ð¾Ð²Ð°ÑĢ": 4021,
      "ĠÐºÐ¾ÑģÑĤ": 4022,
      "Ð»ÑĮÐ½Ð¸Ðº": 4023,
      "ĠÑĤÐ°Ð»": 4024,
      "ÐºÐ°Ð»": 4025,
      "ĠÐľÐµ": 4026,
      "ĠÐľÐ½Ðµ": 4027,
      "ĠÑģÐ¾ÑĢ": 4028,
      "Ð¶Ð°": 4029,
      "Ð¶ÐµÐ»Ð°": 4030,
      "Ð°Ð»ÐºÐ¾": 4031,
      "Ð¿Ð¾": 4032,
      "ÐµÐ½Ð¾": 4033,
      "ÐµÐ½ÐµÑĢÐ°": 4034,
      "ĠÐ¿Ð»Ð°Ð½": 4035,
      "ÐľÐ°ÑĪÐ°": 4036,
      "ÑħÐ¾Ð²Ð°": 4037,
      "Ð»Ð°ÑģÑĤÑĮ": 4038,
      "ĠÐ¡Ð¸Ð¼Ð°": 4039,
      "ĠÐ¡Ð¾ÑİÐ·": 4040,
      "ĠÐ¡Ð¨ÐĲ": 4041,
      "ĠÐ¡ÑĮÓ§Ð»": 4042,
      "ĠÐ¼Ð¸ÑĢÐ°": 4043,
      "ĠÐ¼Ð¾Ð´Ð°": 4044,
      "ÑģÑĤÑĢÐ¾Ð²": 4045,
      "ĠÐĴÐ¸Ð½Ð¾Ð³": 4046,
      "ĠÑĥÐ´Ð¸Ð²": 4047,
      "ĠÐ´Ð°ÑĤÑĮ": 4048,
      "ĠÐ´Ð°ÑģÑĤ": 4049,
      "ĠÐ´Ð°Ð¼Ð°": 4050,
      "ĠÐ´ÑĢÐ°Ð¼Ð°": 4051,
      "ÑĨÐµÐ½ÑĤ": 4052,
      "ĠÐ¸Ð´Ðµ": 4053,
      "ĠÐĲÐ¼ÐµÑĢ": 4054,
      "ĠÐ¾Ñħ": 4055,
      "ĠÐ¢ÑĥÑĢ": 4056,
      "ĠÐ¢Ñİ": 4057,
      "ĠÐ¢ÑĢÐ¾ÑĦ": 4058,
      "ÐºÐ¸Ð²Ð°Ð»": 4059,
      "ÐĲÐĽ": 4060,
      "ĠÐ³Ð¾ÑģÑĤÐ¸": 4061,
      "Ð³Ð°Ñı": 4062,
      "Ð³Ð°Ð·": 4063,
      "ĠÐĵÐ°Ð»": 4064,
      "ĠÐĵÐµÐ¾ÑĢÐ³Ð¸Ð¹": 4065,
      "ĠÑĤÐµÐºÑģÑĤ": 4066,
      "ÐļÐĴ": 4067,
      "ĠÐĳÐ°Ð±ÑĥÑĪÐºÐ°": 4068,
      "ĠÐĳÐµÐ»Ñĭ": 4069,
      "ĠÐĳÑĢÐµÑĩÐ°Ð»": 4070,
      "ĠÐ»Ð°": 4071,
      "ĠÐ»ÐµÐ¶": 4072,
      "ÐķÐ³Ð¸ÑĤ": 4073,
      "ĠÐłÐµÐ·": 4074,
      "ÑĬÑĳÑģÐ¼Ðµ": 4075,
      "ÑĬÑĳÑģÐ»ÑįÑģÑĮ": 4076,
      "ÐĽÐ¸Ð»Ð¸Ñı": 4077,
      "ĠÐŀÑģ": 4078,
      "ĠÐ°Ð¿": 4079,
      "Ð¡ÐµÑĢ": 4080,
      "Ð¡Ð¿": 4081,
      "Ð¡Ñĳ": 4082,
      "ÐĺÐ¥": 4083,
      "ĠÐĹÐ¸Ð¼Ð¾Ð¹": 4084,
      "ĠÐ·Ð¾": 4085,
      "ĠÐ·Ð°Ð¼": 4086,
      "ĠÐ·Ð´ÑĢÐ°Ð²ÑģÑĤÐ²ÑĥÐ¹ÑĤÐµ": 4087,
      "ĠÑĩÐ°Ð¹": 4088,
      "ĠÐĶÐµÑĢÐµÐ½Ð´Ñı": 4089,
      "ĠÑĥÐ¶Ð´ÑĥÐ½": 4090,
      "ĠÑĪÑĥÐ¼Ð¿": 4091,
      "ĠÐ²Ð°Ð»Ð°Ð¹": 4092,
      "Ð£Ð¼": 4093,
      "Ð¾Ð¶Ðµ": 4094,
      "ĠÐĴÐ°Ð´Ð¸Ð¼": 4095,
      "ĠÑĦÐ¾Ð»ÑĮÐºÐ»Ð¾ÑĢ": 4096,
      "ĠÑħÐ²Ð°Ð»": 4097,
      "ĠÐĿÐ°Ñĥ": 4098,
      "ÑĥÐ·Ð¸": 4099,
      "Ð°ÐºÑĩÐ°": 4100,
      "ĠÑĤÐ°Ð¸Ð·": 4101,
      "ÑĨÐ¸ÐµÐ½": 4102,
      "ĠÐŃÑģÑĤÐ¾Ð½": 4103,
      "ÐĳÐ°": 4104,
      "ĠÐ¾ÑĤÑĭÑģÑĮ": 4105,
      "ĠÐľÐ°ÑĢÑĤ": 4106,
      "ĠÐ½Ð°ÑĥÐºÐµ": 4107,
      "ĠÐĲÐ½Ð´": 4108,
      "ĠÐ²ÐµÑĢÐ°Ð½Ñĭ": 4109,
      "ĠÑĥÐ´Ð¼ÑĥÑĢÑĤÑģÐºÐ¾Ð¹": 4110,
      "ĠÐ°ÑĢÐ½Ñı": 4111,
      "ĠÐļÐ°ÑģÐ°ÑĤ": 4112,
      "ĠÐ¤Ð¾Ð¼": 4113,
      "ĠÐ¤Ð¾ÑĤÐ¾": 4114,
      "Ð´Ð¸Ð½ÑģÑĤÐ¸ÑĤÑĥÑĤ": 4115,
      "ĠÐ¼ÑĭÐ½Ó¥Ð·": 4116,
      "ĠÑģÑĤÑĥÐ´Ð¸": 4117,
      "ĠÐ²Ð¸Ð´Ð¸ÑĪÑĮ": 4118,
      "ĠÑĥÐ¶Ð°Ð·Ñĭ": 4119,
      "Ð¾ÐºÐ·Ð°Ð»": 4120,
      "ĠÐ¼ÑĥÐºÐµÑĤÑĭÐ·": 4121,
      "Ð°Ð½Ð¸ÑĭÑģÑĮ": 4122,
      "ÑĤÓ¥ÑģÑĮÐºÐ¾Ð¼": 4123,
      "ÑĤÑĭÐ¼Ñĭ": 4124,
      "ĠÐ³Ð¾Ð¶ÑĤÓ¥Ð·": 4125,
      "ĠÐ³Ð¾Ð¶ÑĤÑįÐ¼ÑĭÐ½": 4126,
      "Ð¸Ð¿Ð¾Ð²": 4127,
      "ĠÐĸÐ°Ð»ÐºÐ¾": 4128,
      "ĠÑĥÑģÑĮÑĤÓ¥Ð·": 4129,
      "Ð§ÐµÑĢ": 4130,
      "ĠÐ¼Ð¾Ð»Ð¾Ð´Ð°Ñı": 4131,
      "ĠÑĪÑĥÐ´Ó¥": 4132,
      "ÑĥÐ»ÑĮÑĤÑĥÑĢÐ°": 4133,
      "ÑĢÐ°Ð½Ð³ÑĥÑĢÑĤÑĭÑģÑĮ": 4134,
      "ÑĢÐµÑĤÑĮÑı": 4135,
      "ÐļÑĥÐ½Ð¾": 4136,
      "ĠÐľÐ¸ÑħÐ°Ð¹Ð»Ð¾Ð²Ð½Ð°": 4137,
      "Ð£Ð¶Ð´ÑĥÐ½": 4138,
      "ĠÐľÐ¾ÑģÐºÐ²Ñĥ": 4139,
      "ĠÐ½Ð°Ð¿Ð¸ÑģÐ°Ð»Ð¾": 4140,
      "Ð°ÑĤÐµÐ»ÑĮÐ½Ð¾": 4141,
      "ĠÐĽÐµÐ½Ð¸Ð½": 4142,
      "Ð»Ð¾Ð³Ð¸Ñı": 4143,
      "ÐºÑĥÑĢÐ¾ÑĢ": 4144,
      "ĠÐ¿ÑĢÐ¾ÑĦÐµÑģÑģÐ¸": 4145,
      "ĠÑĢÐ°Ð´Ð¾Ð²Ð°ÑĤÑĮÑģÑı": 4146,
      "ĠÐ¡ÐµÑĢÐ³ÐµÐµÐ²Ð¸Ñĩ": 4147,
      "ÐŀÑĤÑĭÑģÑĮ": 4148,
      "ĠÑģÑĤÐ¾Ð»ÑĮÐºÐ¾": 4149,
      "Ð¸Ð¿Ð»Ð¾Ð¼": 4150,
      "ĠÐ±ÑĭÑĢÐ¹Ð¸Ð·Ñĭ": 4151,
      "ĠÑģÑĩÐ°ÑģÑĤÐ»Ð¸Ð²Ð¾": 4152,
      "ĠÐ³Ð¾Ð´Ñĭ": 4153,
      "ĠÐĲÐ²Ð³Ñĥ": 4154,
      "ĠÐķÐ³Ð¾ÑĢÐ¾Ð²Ð°": 4155,
      "ĠÐºÑĭÐºÐµÑĤÓ¥Ð·Ñį": 4156,
      "ĠÐ°Ð·Ð±Ð°ÑĢ": 4157,
      "ĠÐºÐ½Ð¸Ð³Ñĥ": 4158,
      "ĠÑĤÐ¸Ñħ": 4159,
      "ĠÐºÑĭÑĤÑĭÐ½": 4160,
      "ĠÐ¿ÑĢÐ¾Ð¸Ð·Ð²ÐµÐ´ÐµÐ½Ð¸Ñı": 4161,
      "ĠÑĢÑĥÐºÐ¾Ð²Ð¾Ð´ÑıÑīÐ¸Ðµ": 4162,
      "ÐĻÑĭÑĢ": 4163,
      "ĠÑĥÐ³Ð¾Ð»Ð¾Ð²Ð½ÑĥÑİ": 4164,
      "ĠÐļÑĢÐ°ÑģÐ½Ð¾Ð³Ð¾ÑĢ": 4165,
      "ÐµÑĢÐ¾ÐµÐ²": 4166,
      "ĠÐ¿Ð¾Ð´Ð½ÑıÐ»": 4167,
      "ĠÑĤÑĥÑĢÑĭÐ½": 4168,
      "ĠÐ±ÑĥÐ¼Ð°": 4169,
      "ĠÑģÑİÐ»ÑįÐ¼Ð¼Ðµ": 4170,
      "ĠÐºÐ°ÑĦÐµ": 4171,
      "ĠÑĩÐ°ÑģÑĤÑĮ": 4172,
      "ĠÐĹÐ°Ð¹ÑĨÐµÐ²Ð°": 4173,
      "ĠÐ·Ð°Ð±ÑĥÐ´Ñĥ": 4174,
      "ĠÐĵÑĥÐ»ÑĮÐ·Ð¸Ð´Ð°": 4175,
      "ĠÑĦÐ¸Ð»Ð¾Ð»Ð¾Ð³Ð¸Ñı": 4176,
      "ĠÑĦÐ¸Ð»Ð¾Ð»Ð¾Ð³Ð¸Ð¸": 4177,
      "ĠÐļÑĥÐ·ÑĮÐ¼Ð¸Ð½Ð°": 4178,
      "ĠÐļÑĥÐ·ÑĮÐ¼Ð¸Ð½": 4179,
      "ÐłÐ¾ÑģÑģÐ¸ÑĭÑģÑĮ": 4180,
      "ĠÐ¿ÐµÐ´ÐºÐ¾Ð»": 4181,
      "ĠÐļÐ½ÑıÐ·ÐµÐ²Ð°": 4182,
      "ĠÐ²ÑĭÑĢÐ°ÑīÐ¸Ð²Ð°ÑİÑĤ": 4183,
      "ĠÐ½Ð¾ÑĩÑĮ": 4184,
      "ĠÐ±Ð°Ð´ÓŁÑĭÐ¼ÐµÑģÑĮ": 4185,
      "ĠÑįÐ»ÐµÐºÑĤÑĢÐ¸": 4186,
      "ÐĵÑĥÐ»ÑĮÐ·Ð¸Ð´Ð°": 4187,
      "ĠÐ§Ð¸ÑĢÐºÐ¾Ð²Ð°": 4188,
      "ĠÐºÐ¾Ð¼Ð¿ÑĮÑİÑĤÐµÑĢ": 4189,
      "ĠÐĵÐµÑĢÐ´": 4190,
      "ĠÐ±ÑİÐ´Ð¶ÐµÑĤ": 4191,
      "ĠÑģÑĤÐ¸Ð¿ÐµÐ½": 4192,
      "ĠÐļÐ°ÑĢÐ°ÐºÑĥÐ»Ð¸Ð½Ð¾": 4193,
      "ÐºÐ¾ÑĤÐ¾ÑĢÑĭÐµ": 4194,
      "ĠÐĺÐ´Ð½Ð°": 4195,
      "ĠÐłÐ°Ð·Ð¸Ð½": 4196,
      "ĠÑĪÑĥÐ»Ð´ÑĭÑĢ": 4197,
      "ĠÐļÐ¾ÑĢÐ½Ð¸Ð»Ð¾Ð²": 4198,
      "ĠÐ¥Ð°Ð¹Ð´Ð°ÑĢ": 4199,
      "ĠÐºÐ¾Ð½ÑĦÐµÑĢÐµÐ½": 4200,
      "ĠÐ²ÐµÑĢÐ½ÑĥÐ»Ð¸ÑģÑĮ": 4201,
      "ĠÑĢÐ°ÑģÐ¿ÑĢÐ¾": 4202,
      "ĠÐ³Ð¾ÑģÑĥÐ´Ð°ÑĢ": 4203,
      "Ð¢Ð°Ð·Ð°Ð»ÑĭÐº": 4204,
      "ĠÐ¯Ð³ÑĥÑĤÐºÐ¸Ð½Ð°": 4205,
      "ĠÐ¡Ð¸Ð¼Ð°ÐºÐ¾Ð²Ð°": 4206,
      "Âķ": 4207,
      "ĠÑĢÑı": 4208,
      "Ð¾Ñĥ": 4209,
      "Ð¾Ð³Ð°": 4210,
      "Ð¸ÐºÐ¾Ð²Ð°": 4211,
      "ÐµÑĩÐ¸": 4212,
      "ÐµÐ¾Ð³ÑĢÐ°ÑĦ": 4213,
      "Ð½Ð´Ð°": 4214,
      "Ð½Ð¾ÑģÑĤÐ¸": 4215,
      "Ð²Ðµ": 4216,
      "ÑĭÐ»Ð¾": 4217,
      "Ð¾Ð²Ð¾Ð¹": 4218,
      "ĠÐ²Ñģ": 4219,
      "ÑĢÐ°Ð´Ð¸Ð¾": 4220,
      "Ð»ÐµÑĢ": 4221,
      "Ð³ÐµÑĢ": 4222,
      "ÑĪÐ½Ð¾Ð¹": 4223,
      "Ð±ÐµÑĢ": 4224,
      "Ð±Ð°Ð¹": 4225,
      "ĠÐºÐ¸": 4226,
      "ĠÐºÑĢÐ¸": 4227,
      "ĠÐºÑĥÐ·": 4228,
      "Ð»ÑĮÑĳÑģ": 4229,
      "ĠÑĤÑĢÑĥ": 4230,
      "ĠÑĤÐ°ÑĤÐ°ÑĢ": 4231,
      "ĠÑĤÑĢÐµÑħ": 4232,
      "ĠÐľÐµÑĢ": 4233,
      "ĠÑģÐµÐ½ÑĤ": 4234,
      "ĠÑģÐµÐ»Ð°": 4235,
      "Ð¾Ð½ÑĤÐ¾Ð²": 4236,
      "Ð¶Ð±Ð°ÐµÐ²": 4237,
      "ÐµÐ²Ð»ÑįÐ½": 4238,
      "Ð¿Ñĥ": 4239,
      "ÐµÐ½ÐºÐ¾Ð²Ð°": 4240,
      "ĠÐ¿Ð¾Ð¶": 4241,
      "ĠÐ¿ÑĢÐ°Ðº": 4242,
      "ĠÐ¯ÑĪÐ¸Ð½": 4243,
      "ÑħÐ°Ð½Ð¾Ð²Ð°": 4244,
      "ĠÐ¡Ð¸Ð´": 4245,
      "ĠÐ¼ÐµÑĢ": 4246,
      "ĠÐĴÐ¾": 4247,
      "ĠÑĥÐ»Ó¥": 4248,
      "ĠÑĥÑģÑĤÐ¾": 4249,
      "ÑĨÐµÐ¿": 4250,
      "ÑĤÐ¾Ð¿": 4251,
      "ĠÐĺÐ¾ÑģÐ¸ÑĦ": 4252,
      "ĠÐ¢Ð¸": 4253,
      "ĠÐ¢ÐµÐ±": 4254,
      "ĠÐ¢Ð°ÑĢÐ°": 4255,
      "ÐĲÐļ": 4256,
      "ÐĲÐĿ": 4257,
      "ĠÐĵÑĥÑģ": 4258,
      "ĠÐĵÐ¾ÑĤÐ¾Ð²": 4259,
      "Ð´Ð°Ð·": 4260,
      "ĠÐĳÐ°Ñħ": 4261,
      "Ð»ÑįÐ¼ÑĭÐ½": 4262,
      "ĠÐŁÐ»Ð°": 4263,
      "ĠÐŁÑĢÐµÐ·Ð¸Ð´ÐµÐ½": 4264,
      "Ð¾ÑģÐ¼ÑĥÑĢÑĤ": 4265,
      "ÐĴÑĭÐ»ÑĮ": 4266,
      "Ð¢Ð°ÑĤ": 4267,
      "Ð¢Ð°Ð»Ñĭ": 4268,
      "ÑĦÐµÑĢÐ°": 4269,
      "ÑĦÐ¸ÑĨ": 4270,
      "ĠÐ±ÑĭÐ·": 4271,
      "ĠÐ±Ð°Ð·": 4272,
      "ĠÐ±Ð°Ð»ÐµÑĤ": 4273,
      "ĠÐłÐ¾Ð´Ð¸": 4274,
      "Ð¸ÑĤÐº": 4275,
      "Ð¼ÐµÑĨ": 4276,
      "ĠÑĤÐµÐ»ÐµÑĢÐ°Ð´Ð¸Ð¾": 4277,
      "ÑģÐ¸Ðº": 4278,
      "ĠÐĽÑĥÐ´Ð¾ÑĢ": 4279,
      "ĠÐ°Ðº": 4280,
      "ĠÐ°ÑĤÐ°Ð¹": 4281,
      "Ð½Ð¾Ðº": 4282,
      "ÐµÑģÑģÐ¸Ñı": 4283,
      "ÐĺÐ²": 4284,
      "ÑĢÐ¾Ð¿Ð°": 4285,
      "Ð¼Ð¸Ð·": 4286,
      "Ð¼Ð¸Ð»ÑĮ": 4287,
      "ÐĿÐµ": 4288,
      "ĠÐĶÑı": 4289,
      "ĠÐĶÐ¾Ð½": 4290,
      "ĠÐĶÐ°Ð½Ð¸Ð¸Ð»": 4291,
      "ĠÑĪÑĥÐ·Ð¸": 4292,
      "ÑĢÐ°Ð¼Ð¼Ð°": 4293,
      "ÑĭÐ·Ñĭ": 4294,
      "ĠÐ¨Ñĥ": 4295,
      "ĠÐ§ÐµÐ¼": 4296,
      "ÑĤÐ°Ñı": 4297,
      "ÐµÐ³Ð¾ÑĢ": 4298,
      "ÑĤÑįÑĤ": 4299,
      "ÑģÑıÐ·": 4300,
      "Ð¼ÑĭÐ¹": 4301,
      "ÐŁÑĥÑĤÐ¸Ð½": 4302,
      "ĠÐĲÐ»ÐµÐºÑģÐµÐµÐ²Ð¸Ñĩ": 4303,
      "ĠÑħÐ¸": 4304,
      "ĠÑħÐ»ÐµÐ±": 4305,
      "ĠÐºÐ°ÑĢÐ¾Ð¼": 4306,
      "ĠÐºÐ°ÑĢÑĭÐ¼Ð¾Ð½": 4307,
      "ĠÐºÐ°ÑĢÑĤÐ¾ÑĪ": 4308,
      "ÑĨÐ¸Ðº": 4309,
      "ÑĥÑĪÐºÐ¸": 4310,
      "ĠÐ¿Ð¾Ðº": 4311,
      "ĠÐŃÐ¶Ð±Ð°ÐµÐ²": 4312,
      "ĠÐ£ÑĪÐµÐ»": 4313,
      "ÐĳÐµÑĢ": 4314,
      "Ð³Ð¾ÑĢÐµÐ»ÑģÑı": 4315,
      "Ð¨ÑĥÐ´": 4316,
      "Ð¨Ð¸ÑĢÐ¾Ð±Ð¾": 4317,
      "Ð¨ÑĥÐ½Ð´Ñĭ": 4318,
      "Ð¾Ð±ÑĢÐ°Ð±Ð¾ÑĤ": 4319,
      "Ð¾Ð±ÐµÐ½Ð½Ð¾": 4320,
      "ĠÐĿÐ¸ÐºÐ¾Ð»Ð°ÐµÐ²": 4321,
      "Ð°Ð»Ð¸Ð¼Ð¾Ð²": 4322,
      "ĠÐ½Ð¸Ð¶Ðµ": 4323,
      "ĠÐĺÐ¶ÐµÐ²ÑģÐºÐ°": 4324,
      "ĠÐ³Ð¾ÑĢÐ¾Ð´ÑĭÐ½": 4325,
      "ĠÐļÐ°ÐºÐ¾Ðµ": 4326,
      "ĠÐ®Ð»Ð¸Ñı": 4327,
      "ĠÑĢÐµÐºÐ»Ð°": 4328,
      "Ð¸ÑĢÑĮ": 4329,
      "ĠÐ¿ÑĥÐºÐ¾": 4330,
      "ĠÐ³Ð¾Ð¶ÑĤÑįÐ¼": 4331,
      "ĠÐ°Ð´ÑıÐ¼Ð¸ÐµÐ·": 4332,
      "ÐºÐ°ÑĢÑĮ": 4333,
      "ĠÐ´ÑĭÑĢÑĭÑģÐµÐ½": 4334,
      "ÑīÐµÐµ": 4335,
      "ĠÐ¸Ð½ÑĤÐµÑĢÐµÑģÐ¾Ð²Ð°": 4336,
      "ĠÐ¸Ð½ÑĤÐµÑĢÐµÑģÐ¾Ð²Ð°Ð»ÑģÑı": 4337,
      "ÑĬÑĳÑģÑĤ": 4338,
      "Ð¯ÐĿÐŀÐĴÐĲ": 4339,
      "ĠÐ¾Ð³ÑĬÑı": 4340,
      "ĠÐŁÐµÑĢÐ²": 4341,
      "Ð¤Ð¾ÑĤÐ¾": 4342,
      "ÑģÑĤÐ¸ÐºÐ°": 4343,
      "ĠÑĪÑĥÐ´Ó¥Ð·": 4344,
      "ĠÐ¿ÑĢÐ¾ÑģÐ¸Ð»Ð°": 4345,
      "ÑĢÐµÑĤÑĮÑģÑı": 4346,
      "ĠÐ¼Ð°Ð»ÐµÐ½ÑĮÐºÐ¾Ðµ": 4347,
      "ÑĢÐ¾Ð½Ð¸Ð½": 4348,
      "ĠÐ³Ð°Ð·ÐµÑĤÑĭ": 4349,
      "ĠÐ±ÐµÑĢÑĤÓ¥Ð·": 4350,
      "ĠÑįÑĤÐ¸Ð¼": 4351,
      "ĠÑįÑĤÐ¸Ñħ": 4352,
      "ĠÐ±Ð¾Ð»ÑĮÑĪÐ¾Ð¼": 4353,
      "Ð±ÑĥÑĢÐµÑģÑĮ": 4354,
      "ĠÐ·Ð°Ð±ÑĭÐ»": 4355,
      "ĠÐ½Ð¾Ð¼Ð¸Ð½Ð°": 4356,
      "ÑĦÐµÑģÑģÐ¾ÑĢ": 4357,
      "Ð¸ÑĪÐºÐ¸Ð½": 4358,
      "Ð»ÐµÐ½Ð¸Ñı": 4359,
      "ĠÐ¡ÑĤÐµÐ¿Ð°Ð½Ð¾Ð²Ð°": 4360,
      "ĠÑĦÐµÑģÑĤÐ¸Ð²Ð°Ð»": 4361,
      "ĠÐŀÑĤÐº": 4362,
      "ĠÐ´Ð¸ÐºÑĤ": 4363,
      "ĠÐŃÑĤÐ¾ÑĤ": 4364,
      "ĠÑģÑĤÐ¾Ð»Ð¸": 4365,
      "ĠÑģÑĤÐ¾Ð»Ð¾Ð²": 4366,
      "Ó¥ÑģÑĮÐºÐµ": 4367,
      "ĠÐľÐ¾ÑģÐºÐ²Ð°Ðµ": 4368,
      "ĠÐĳÐµÐ»Ð¾Ð¼Ð¾ÑĢ": 4369,
      "ĠÐĺÐ¶ÐºÐ°ÑĢÑĭÐ½": 4370,
      "ĠÐ¿Ð°Ð´Ð°Ð»Ð¸": 4371,
      "ĠÐķÐ³Ð¾ÑĢÐ¾Ð²": 4372,
      "ĠÐŁÐ¸ÑģÐ°Ð½Ð¸Ðµ": 4373,
      "ĠÐļÐ°Ð·Ð°Ð½Ð¸": 4374,
      "ĠÐ¸Ð·Ð´Ð°ÑĤÐµÐ»ÑĮ": 4375,
      "ĠÐ¹ÑĭÑĢÑĭÐ·": 4376,
      "ĠÐŁÐ¾Ñį": 4377,
      "ĠÐºÐ¾Ð¼Ð°Ð½Ð´Ñĭ": 4378,
      "ĠÐ²ÐµÑģÐ½Ð°": 4379,
      "ĠÐŁÐµÑĢÐµÐ²Ð¾ÑīÐ¸ÐºÐ¾Ð²": 4380,
      "ĠÐ²Ó§Ð·ÑĭÐ½": 4381,
      "ĠÐ¤ÐµÐ´ÑĥÐ»Ð¾Ð²Ð°": 4382,
      "ÐļÐ¾ÑĢÐµÐ¿Ð°Ð½Ð¾Ð²": 4383,
      "ÑĦÐ¾ÑĢÐ¼Ð°": 4384,
      "ĠÑĩÐµÐ±ÐµÑĢÐµÑģÑĮ": 4385,
      "ĠÑģÐ¾Ð³ÑĢÐµÑĤÑĮÑģÑı": 4386,
      "ĠÐļÐ°Ð¼Ð±Ð°ÑĢ": 4387,
      "ĠÐŁÐ¾Ð¿Ð¾Ð²": 4388,
      "ĠÐ¼Ð°ÑĤÐµÐ¼Ð°ÑĤÐ¸ÐºÐ°": 4389,
      "ĠÐ¢ÐµÑĤÐ¸Ð²Ð°": 4390,
      "ĠÐļÐ½ÑıÐ·ÐµÐ²": 4391,
      "ÐļÑĥÐ´Ó¥Ð·": 4392,
      "ĠÐ¼ÐµÑħÐ°Ð½Ð¸": 4393,
      "ĠÑģÐ°Ð´Ð¸": 4394,
      "ĠÐ½Ð°Ð·Ð°Ð´": 4395,
      "ĠÐ¾ÑĢÐºÐµ": 4396,
      "ĠÐĳÐµÐºÐ¼Ð°Ð½Ð¾Ð²": 4397,
      "ĠÐĲÑħÐ¼ÐµÑĤ": 4398,
      "ĠÐĴÐµÐ½Ð³": 4399,
      "ĠÐ´Ð²ÐµÑĢÑĮ": 4400,
      "ĠÐ²Ð°Ð»ÑįÐºÑĤÓ¥Ð·": 4401,
      "ĠÐĴÐ¾ÑĢÐ¾Ð½ÑĩÐ¸ÑħÐ¸Ð½Ð°": 4402,
      "ĠÑĤÑĢÐµÐ½ÐµÑĢ": 4403,
      "ĠÐļÑĢÐ°ÑģÐ¸Ð»ÑĮÐ½Ð¸ÐºÐ¾Ð²": 4404,
      "ĠÐ¦ÐµÐ½ÑĤÑĢ": 4405,
      "ĠÐ²ÑĭÐ¸Ð³ÑĢÐ°Ð»Ð°": 4406,
      "ĠÐ¥ÑĢÐ¸ÑģÑĤÐ¾Ñģ": 4407,
      "ĠÐľÐ¾Ð¸Ñģ": 4408,
      "ĠÑĥÑģÐ»ÑĭÑĪÐ¸ÑĤ": 4409,
      "ĠÑİÐ±Ð¸": 4410,
      "ĠÐ°ÑĤÐ¼Ð¾Ñģ": 4411,
      "ĠÑģÐµÑĢÐµÐ±ÑĢÐ¾": 4412,
      "ĠÐ´ÐµÑģÑıÑĤÑĮ": 4413,
      "ĠÐ¾ÑĩÐµÑĢ": 4414,
      "ÑĢÑıÐ²ÑĨÐµÐ²Ð°": 4415,
      "ĠÐ¾Ð³Ð»ÑıÐ´ÑĭÐ²Ð°Ð»ÑģÑı": 4416,
      "ĠÐ°Ð·ÑĮÐ»Ð°Ð½ÑıÐ·": 4417,
      "ĠÐ¦Ð²ÐµÑĤÐºÐ¸": 4418,
      "ÐµÑģÑĤÐ¾Ð»ÐºÐ¾Ð²Ð¾": 4419,
      "ĠÐ¡ÑĮÓ§Ð»ÑĤÐ°": 4420,
      "ĠÑĪÑĥÐ¼Ð¿Ð¾ÑĤÐ¾": 4421,
      "ĠÐ¿ÐµÐ´ÐºÐ¾Ð»Ð»ÐµÐ´Ð¶": 4422,
      "ĠÑĤÐµÐ»ÐµÑĢÐ°Ð´Ð¸Ð¾ÐºÐ¾Ð¼Ð¿": 4423,
      "Ð¾Ð±ÑĢÐ°Ð±Ð¾ÑĤÐºÐ°": 4424,
      "ĠÑĦÐµÑģÑĤÐ¸Ð²Ð°Ð»Ñı": 4425,
      "ĠÐ©": 4426,
      "Ð°Ð´Ð°": 4427,
      "Ð¸ÑĭÐ½": 4428,
      "Ð¸Ð°Ð½Ð°": 4429,
      "ÐµÐºÐ°": 4430,
      "ÑģÐ¾": 4431,
      "ÑģÐ»Ð°": 4432,
      "Ð¼Ð¸Ð½": 4433,
      "Ð¼Ð°Ð½Ð¾Ð²Ð°": 4434,
      "Ð¼Ð¾Ð±": 4435,
      "Ð²Ð°ÑĤÐµÐ»ÑĮ": 4436,
      "ÑĮÓ§": 4437,
      "ÑıÑī": 4438,
      "ÑıÐ¼Ñĭ": 4439,
      "ÑĤÐ¸Ðµ": 4440,
      "ĠÐ²Ó§": 4441,
      "ĠÐ²Ð¾Ð´Ð°": 4442,
      "ĠÐ²Ð¾ÑģÐ¿Ð¸ÑĤ": 4443,
      "ĠÐ²Ð¾Ð´Ð¸ÑĤÐµÐ»ÑĮ": 4444,
      "ÑĢÐ°ÑĤÐ¾ÑĢ": 4445,
      "Ð³Ð°ÑĤ": 4446,
      "ĠÐ½ÑĭÐ½ÐµÑĪ": 4447,
      "Ð¾Ð²Ð°ÑĤÑĮ": 4448,
      "ÑįÑģ": 4449,
      "ÑįÐ¹": 4450,
      "ÑĩÐ¸ÑĤ": 4451,
      "ÑĩÐµÐ½ÐºÐ¾": 4452,
      "ĠÐºÐ°ÑĤ": 4453,
      "ĠÐºÑĢÐµÑģÑĤÑĮÑıÐ½": 4454,
      "ĠÑĤÐµÐ½": 4455,
      "ĠÑĤÑĭÐ½Ð°Ð´": 4456,
      "ÐºÐ°ÐµÐ·": 4457,
      "Ð¾ÑĢÐ¾Ð½Ð°": 4458,
      "ĠÐľÐ°ÑģÑĤÐµÑĢ": 4459,
      "ĠÑģÑĥÑĢ": 4460,
      "ĠÑģÐ¾Ñģ": 4461,
      "ĠÑģÑĥÐ¼": 4462,
      "ĠÑģÐ°Ð»Ð°ÑĤ": 4463,
      "Ð¾Ð½Ð½Ð¸": 4464,
      "Ð¶Ð´Ð°Ð½": 4465,
      "Ð°Ð»Ð¾Ð³": 4466,
      "Ð°Ð»Ð¸Ð·Ð°": 4467,
      "ĠÐ½Ð°ÑĢ": 4468,
      "Ð¿Ð¸Ð½": 4469,
      "Ð¿Ð¾Ð´Ð°": 4470,
      "ĠÐ¿ÑĢ": 4471,
      "ĠÐ¿ÐµÐ»ÑĮ": 4472,
      "ĠÐ¿ÐµÑĩ": 4473,
      "ĠÐ¿ÑĢÐ°Ð·Ð´": 4474,
      "ÐµÑĤÐµÐµÐ²": 4475,
      "ĠÐ¡Ð¸": 4476,
      "ĠÐ¡Ð¾Ð»": 4477,
      "ĠÐ¡ÐµÐ»": 4478,
      "ĠÐ¡ÐµÐ²ÐµÑĢ": 4479,
      "ĠÐ¼ÑĭÐ½Ñĭ": 4480,
      "ĠÐĴÐ¾Ð²Ð°": 4481,
      "ĠÐĴÐµÑĢÐ°": 4482,
      "ĠÐĴÐ¾Ð·": 4483,
      "ĠÐĴÑĭÑĪ": 4484,
      "ĠÐĴÐµÑĢÐ½": 4485,
      "ĠÐĴÐµÐ½Ð¸Ð°Ð¼Ð¸Ð½": 4486,
      "ĠÐļÐ¾Ð¶ÐµÐ²": 4487,
      "ĠÑĥÑĤ": 4488,
      "ĠÑĥÐºÐ°Ð·": 4489,
      "ĠÑĥÑģÐµ": 4490,
      "ÑĬÐµÑĤ": 4491,
      "Ð»Ð¸Ð¿": 4492,
      "ĠÐĺÑĤ": 4493,
      "ĠÐĺÑģÑĤÐ¾ÑĢÐ¸Ñı": 4494,
      "ĠÐĺÐ¸ÑģÑĥÑģ": 4495,
      "ÐĲÐ·": 4496,
      "ĠÐ³Ð´Ðµ": 4497,
      "ĠÐĵÑĢÐµ": 4498,
      "ÐļÐ¸ÑĢÐ¸Ð»": 4499,
      "ĠÐĳÑĭ": 4500,
      "ĠÐĳÐ°Ð´ÓŁÑĭÐ¼": 4501,
      "ĠÐŁÐ¾Ð½": 4502,
      "ĠÐŁÐ¾Ð´": 4503,
      "Ð¾ÑģÐ¼Ñĭ": 4504,
      "ÐĴÐ»Ð°Ð´": 4505,
      "Ð¢ÑĥÑĢ": 4506,
      "ĠÑĪÐ°ÑĪÐºÐ¸": 4507,
      "ÐķÐļ": 4508,
      "ĠÐ±Ð¸Ñĩ": 4509,
      "ĠÐ±Ð°Ð±": 4510,
      "ĠÐłÑĥÑĩ": 4511,
      "Ð¼ÐµÐ¹": 4512,
      "ĠÐ°Ð½": 4513,
      "ÐµÐ·Ð´Ðµ": 4514,
      "ÐŀÐ¡": 4515,
      "Ð¾Ð»ÑİÐ±": 4516,
      "ĠÐĿÐ¸ÐºÑĤÐ¾": 4517,
      "Ð¡Ð°Ð¼": 4518,
      "ĠÐ¡Ð°Ð¿Ð¾Ð¶": 4519,
      "ĠÑĩÐ¾ÑĢÑĭÐ³": 4520,
      "ĠÑĥÐ¶ÑĭÐ½": 4521,
      "ĠÑĪÑĥÐ¸": 4522,
      "ĠÑĪÑĥÑĭ": 4523,
      "ÑĢÐ°Ð¼Ñĭ": 4524,
      "ĠÑįÑĤÐ½Ð¾": 4525,
      "ÐµÐ¿ÐµÑĩÐ¸": 4526,
      "ÐµÐ½ÑĮÑİ": 4527,
      "ĠÐ¨Ð°Ð¹": 4528,
      "ĠÐ¨Ð¸ÑĢÐ¾": 4529,
      "ĠÐ§Ð¸Ð±": 4530,
      "ĠÐ§ÑĥÐ´ÑĮÑı": 4531,
      "ÑĤÐ°Ðº": 4532,
      "ĠÑħÐ¾Ðº": 4533,
      "ĠÐºÑĥÐ¿": 4534,
      "ĠÐĺÐ¶Ðµ": 4535,
      "ĠÑĤÐ°ÐºÑĥÑİ": 4536,
      "ĠÐºÐ°ÑĢÐ¸": 4537,
      "ÑĨÐ¸Ð¾Ñģ": 4538,
      "ĠÐŃÑĢ": 4539,
      "ĠÐŃÑĤÐ¸": 4540,
      "ĠÐ£ÐºÑĢÐ°": 4541,
      "ĠÐ¶Ð°Ð½": 4542,
      "ÐłÐļ": 4543,
      "Ð°Ð¼Ð¿": 4544,
      "Ð¢Ð°Ð¸Ð½": 4545,
      "ĠÐºÐ¾Ð¼ÐµÐ´Ð¸": 4546,
      "ĠÐºÐ¾Ð¼Ð¼ÑĥÐ½Ð¸": 4547,
      "ÐµÐ²ÑģÐº": 4548,
      "ÑģÑĤÐ°Ð»ÑĮ": 4549,
      "ĠÐ¸Ð½ÑĤÐµÑĢÐ½ÐµÑĤ": 4550,
      "ÐŃÐ»ÑĮÐ²Ð¸ÑĢÐ°": 4551,
      "ĠÑģÑĤÑĢÐ°": 4552,
      "ĠÑģÑĤÐ°ÑĤÑĮÑı": 4553,
      "Ð¸ÑģÑĤÑĭ": 4554,
      "ĠÐ¥Ð¾Ð´ÑĭÑĢ": 4555,
      "ĠÑĢÐµÐºÑĤÐ¾ÑĢ": 4556,
      "ĠÐ¿ÐµÑĢÐµÑģÑĮ": 4557,
      "ĠÐĴÐ»Ð°Ð´Ð¸Ð¼Ð¸ÑĢÐ¾Ð²Ð½Ð°": 4558,
      "ĠÑģÐµÐ¼Ð¸Ð½Ð°": 4559,
      "ÑģÑĤÑĭÐ¹": 4560,
      "ĠÐ»Ð¾ÑĪÐ°Ð´ÑĮÑİ": 4561,
      "ÑĤÑĭÐ´": 4562,
      "ĠÐ¿ÑĥÐºÐ¸": 4563,
      "ĠÐ°Ð´ÓŁÐ¸ÑģÑĮÐºÐ¾": 4564,
      "ĠÓĿÑĥÑĤ": 4565,
      "ĠÐ¼Ð¸Ðº": 4566,
      "ĠÐĸÐ¸Ð·Ð½ÑĮ": 4567,
      "ĠÑĥÑģÑĮÑĤÓ¥": 4568,
      "ĠÐ¡ÑĤÑĢÐµÐ»ÐºÐ¾Ð²": 4569,
      "Ð¢Ð¾Ð½Ñį": 4570,
      "ĠÓµÑĥÐºÐ½Ð°": 4571,
      "ĠÑİÑĢÑĤÑĤÑĭ": 4572,
      "ĠÑİÑĢÑĤÑĤÐ¾Ð·": 4573,
      "ĠÑģÐµÐ¼ÑĮÑıÐ·Ñĭ": 4574,
      "ĠÐļÐ¾Ð½ÑĮ": 4575,
      "ÑıÐ·Ð°ÑĤÐµÐ»ÑĮÐ½Ð¾": 4576,
      "ĠÑĩÐµÑĢÐº": 4577,
      "ĠÐ¼Ð°Ð»ÐµÐ½ÑĮÐºÐ¸Ðµ": 4578,
      "Ð²ÑĭÑħ": 4579,
      "ĠÑĪÑĥÐ¸Ð·Ñĭ": 4580,
      "Ð¾Ð»ÐµÐ¹": 4581,
      "ĠÐ»Ð¸ÑĤÐµÑĢÐ°ÑĤÐ¾ÑĢ": 4582,
      "ĠÐ¿ÑĢÐµÐ¼Ð¸": 4583,
      "ĠÐĽÐµÐ¾Ð½ÑĤÑĮÐµÐ²Ð°": 4584,
      "ĠÐ½Ð¾Ð¼ÐµÑĢ": 4585,
      "ĠÓµÐ¾ÑĪÐµÐ½": 4586,
      "ĠÐ´ÑĭÑĪÐµÑĤÑģÐºÐ¾Ð½": 4587,
      "ĠÐºÐ¾ÑĢÐ¾Ð²Ð°": 4588,
      "ÐµÑĢÐ¼Ð°Ð½": 4589,
      "Ð´ÑıÑħ": 4590,
      "ĠÐŁÐ°ÑĢÑĩÐ°": 4591,
      "ĠÐ¡ÐµÑĢÐ³ÐµÐµÐ²": 4592,
      "ÐĸÐ°Ð»ÑıÑģÐ°": 4593,
      "ĠÐĴÐ¸ÐºÑĤÐ¾ÑĢÐ¸Ñı": 4594,
      "ĠÐ»ÑĭÐºÑĤÑįÐ¼": 4595,
      "ĠÐ¾Ð±ÑĬÑıÑģÐ½Ð¸Ð»Ð°": 4596,
      "ĠÐ°ÑĢÑĤÐ¸ÑģÑĤÑĬÑĳÑģ": 4597,
      "ĠÐĹÐ¾ÑĢÐ¸Ð½": 4598,
      "ĠÐ²Ð¾Ð·Ð´ÑĥÑħ": 4599,
      "Ð±Ð¸Ð»ÐµÐ¹": 4600,
      "ĠÐ¿Ð»Ð¾ÑīÐ°Ð´": 4601,
      "ĠÐŁÐ°Ð²Ð»Ð¾Ð²Ð¸Ñĩ": 4602,
      "ĠÐ¿Ð°Ð¼ÑıÑĤ": 4603,
      "ĠÐĶÐµÐ±ÐµÑģÐ¾Ð²": 4604,
      "ĠÐ®ÐºÐ°Ð¼ÐµÐ½ÑģÐºÐ¾Ðµ": 4605,
      "ĠÑĢÐ°Ð¹Ð¾Ð½Ðµ": 4606,
      "ĠÑģÑıÑģÑĮÐºÐ°Ð¾Ñģ": 4607,
      "ĠÐ¿ÑĢÐ°Ð²Ð´Ð°": 4608,
      "ĠÑĥÐ»ÑĮÑĩÐ°ÑĭÐ½": 4609,
      "Ð¸Ð·ÑĮÑĭÐ¼": 4610,
      "ĠÐ¿ÑĢÑıÐ¼Ð¾": 4611,
      "ÐľÐ°Ð¸Ð½": 4612,
      "ĠÐĲÐ±ÑĢÐ°Ð¼": 4613,
      "ĠÑĦÐ°ÐºÑĥÐ»ÑĮÑĤÐµÑĤÐµ": 4614,
      "ĠÐ³Ð¾ÑĤÐ¾Ð²Ñĭ": 4615,
      "ĠÐŀÐ¿ÐµÑĢÐ°": 4616,
      "ĠÐĹÐ°Ð¹ÑĨÐµÐ²": 4617,
      "ĠÑįÐ¼ÑĬÑı": 4618,
      "Ð¨ÐºÐ¾Ð»Ð°ÑĭÐ½": 4619,
      "ĠÐŀÐ´Ð½Ð°": 4620,
      "ĠÐĽÐµÐºÐ¾Ð¼ÑĨÐµÐ²": 4621,
      "ĠÐ¿ÐµÐ´ÑĥÑĩÐ¸Ð»Ð¸ÑīÐµ": 4622,
      "ĠÐ¿Ð»Ð¾ÑħÐ¾Ð³Ð¾": 4623,
      "ĠÐ½Ð¾ÑĩÑĮÑİ": 4624,
      "ĠÐ¿Ð¾ÑĩÑĤÐ°Ð¼": 4625,
      "ĠÐ¼Ð°ÑĤÐµÑĢÐ¸Ð°Ð»": 4626,
      "ĠÐľÐ¸ÑĤÑĢÐ¾ÑĦÐ°Ð½Ð¾Ð²Ð°": 4627,
      "Ó§ÑģÑĭÑĢ": 4628,
      "ĠÐºÑĥÐ°ÑĪÐºÐ°": 4629,
      "ĠÐºÐ°ÑĢÐ¸ÑģÑĮÐºÐ¾Ð´": 4630,
      "ĠÐ·Ð°ÑĢÐ¿Ð»Ð°ÑĤÐ°": 4631,
      "ĠÑĤÑĢÐ°Ð½ÑģÐ¿Ð¾ÑĢÑĤ": 4632,
      "ĠÐľÑĥÐ¶ÑĩÐ¸Ð½Ð°": 4633,
      "ĠÑĥÐ»ÓŁ": 4634,
      "ĠÐ´ÑĢÐ°Ð¼Ð°ÑĤ": 4635,
      "ĠÐĹÐ¾Ð»Ð¾ÑĤÐ¾Ð¹": 4636,
      "ĠÐ£ÑĢÐ°ÑģÐ¸Ð½Ð¾Ð²Ð°": 4637,
      "ĠÐļÑĥÐ»Ð¸ÐºÐ¾Ð²Ð°": 4638,
      "ÐµÐ»ÑĮÑģÐ¸Ð½ÐºÐ¸": 4639,
      "Ð¡ÑıÑģÑĮÐºÐ°": 4640,
      "Ð¦ÐµÐ½ÑĤÑĢÐµÐ·": 4641,
      "ĠÐ±Ð°ÑĤÐ°Ð»ÑĮÐ¾Ð½": 4642,
      "ĠÐºÑĥÐ»Ó¥Ð·": 4643,
      "ĠÐ±ÑĭÑĢÑĬÐµÐ¼ÑĭÐ½": 4644,
      "ĠÐ¢ÑĥÐºÑĤÐ°Ð¼ÑĭÑĪÐµÐ²Ð°": 4645,
      "ĠÐ¤Ð¾Ð¼Ð¸Ð½": 4646,
      "ÑĢÐµÑĤÑĮÑıÐºÐ¾Ð²Ð°": 4647,
      "ĠÐĺÐ´Ð½Ð°ÐºÐ°ÑĢ": 4648,
      "ĠÐ²ÑģÑħÐ¾Ð´Ð¸": 4649,
      "ĠÐ¿Ð¾ÐºÑĩÐ¸": 4650,
      "Ð¿Ð¾Ð´Ð°Ð²Ð°ÑĤÐµÐ»ÑĮ": 4651,
      "ĠÐĴÑĭÑĪÐµ": 4652,
      "ĠÐĴÐµÑĢÐ½ÐµÐ¼ÑģÑı": 4653,
      "ĠÑī": 4654,
      "Ð¾ÑĤÐ¸": 4655,
      "Ð¾Ð·Ñĭ": 4656,
      "ÐµÐºÑĤÐ¾ÑĢ": 4657,
      "ÑĤÐ°Ð½": 4658,
      "ÑĥÐµÐ²": 4659,
      "Ð´ÑĨ": 4660,
      "Ð´ÑĥÐ»Ð»Ð¸Ð½Ð°": 4661,
      "Ð¼ÑĤÑį": 4662,
      "Ð²Ð¾Ð´": 4663,
      "Ð²ÐµÑģ": 4664,
      "Ð²Ð¾Ð»Ð¶": 4665,
      "Ð½Ð°Ð»": 4666,
      "ÑĤÐ¸Ð»ÑįÐ½": 4667,
      "ĠÐ²Ð¸Ð´": 4668,
      "ĠÐ²Ð¸Ð´ÑıÑĤ": 4669,
      "Ð·ÐµÐ²": 4670,
      "Ð·ÐµÑĢÐ¾": 4671,
      "ÑĢÐ°Ð³": 4672,
      "ÑĢÐ°Ð¹": 4673,
      "ÑĢÐ°ÐºÑĤÐ¾ÑĢ": 4674,
      "Ð»ÐµÑĤÓ¥": 4675,
      "ÑĪÐ¾Ð¹": 4676,
      "ÑĪÐ¼Ð°ÑĤÐ¾Ð²Ð°": 4677,
      "Ð±Ð»Ð¾": 4678,
      "ĠÐºÐ»Ð¸Ð¿": 4679,
      "ĠÑĤÑĭÐ»": 4680,
      "ĠÐľÑĥÑĢ": 4681,
      "ĠÐľÑĥÐ»": 4682,
      "ĠÐľÐ»Ð°Ð´": 4683,
      "ĠÐľÐµÑħÐ°Ð½Ð¸": 4684,
      "ĠÐľÐ°ÑĢÐ°Ð¹ÐºÐ¾": 4685,
      "ĠÑģÑĨÐµÐ½": 4686,
      "ĠÑģÐ¾ÑĨÐ¸": 4687,
      "Ð¶Ð¸Ð½": 4688,
      "Ð°Ð½Ðµ": 4689,
      "Ð°Ð½ÑģÐ¸": 4690,
      "ĠÐ½Ð°Ð¹": 4691,
      "Ð¿ÐµÐ´Ð¸": 4692,
      "ÐµÐ½Ð½ÑĭÐ¹": 4693,
      "ĠÐ¿Ð»Ð°": 4694,
      "ĠÐ¿ÑĢÐ¸Ð¹": 4695,
      "ĠÐ¿Ó§Ð·": 4696,
      "Ð°ÑĢÐ¸Ð½": 4697,
      "Ð°ÑĢÑĤÑĥ": 4698,
      "ĠÐ¡Ñĥ": 4699,
      "ĠÐ¼ÐµÐ½": 4700,
      "ĠÐ¼Ð°Ð½Ð´": 4701,
      "ĠÐ¼Ð°Ðº": 4702,
      "ÑģÑĤÑĥÐ¿": 4703,
      "ĠÐļÐ¸ÑĤÐ°Ð¹": 4704,
      "ĠÐķÐ»ÑĮ": 4705,
      "ĠÐķÐľÐķ": 4706,
      "ĠÐ´Ñĭ": 4707,
      "ÑĭÐ½ÑĭÐ·": 4708,
      "ĠÐĲÐ´": 4709,
      "ĠÐĿÑĥÑĤ": 4710,
      "ĠÐ¾Ð·ÐµÑĢÐ¾": 4711,
      "ÑĳÐ¼": 4712,
      "ÑĬÑİ": 4713,
      "ĠÐ¢ÑĢÐµ": 4714,
      "ĠÐ³Ð¾ÑģÑĤ": 4715,
      "ĠÐ³Ð»Ð°Ð²Ð°": 4716,
      "ÑĢÐµÐ¶": 4717,
      "ĠÐĵÐĲ": 4718,
      "ĠÐĵÐĺ": 4719,
      "ĠÐĵÐµÑĢÐ¾ÐµÐ²": 4720,
      "ÐļÐ°ÑĤ": 4721,
      "ĠÐĳÐµÑģ": 4722,
      "ĠÐĳÐ¾Ð»": 4723,
      "ĠÐĳÑĢÐ¾Ð´": 4724,
      "ĠÐŁÐ¾Ð»Ð¾Ð²": 4725,
      "ĠÐŁÑĢÐ¾Ð½Ð¸Ð½": 4726,
      "Ð¢ÐŀÐĴÐĲ": 4727,
      "Ð¢Ð°Ð½Ñı": 4728,
      "Ð¢ÑĭÐ½ÑĭÐ´": 4729,
      "Ð¢Ó§Ð´ÑĮÑĭ": 4730,
      "Ð¢Ð¾Ð´Ð°Ð¼": 4731,
      "ĠÐ»Ð°Ð²": 4732,
      "Ð¾ÑĤÑĥ": 4733,
      "Ð¾ÑĤÐ²Ð¾ÑĢ": 4734,
      "ĠÐ½Ð¾ÐºÐ¸Ð½": 4735,
      "ÐķÐ³Ð¾ÑĢ": 4736,
      "ĠÐ±ÑĥÑĢ": 4737,
      "ĠÐłÐ°ÑĪ": 4738,
      "Ð¸ÑĤÐ°ÑĢ": 4739,
      "ĠÐĽÐ°Ð¿": 4740,
      "ÐĽÐ¸ÑĤÐµÑĢÐ°": 4741,
      "ĠÐ°ÑĢÐµ": 4742,
      "ÐµÑģÑĤÐ¸": 4743,
      "ÐµÑģÑģÐ¸": 4744,
      "ÐµÐ·Ð»ÑįÐ½": 4745,
      "ÐµÐ·ÑĬÑı": 4746,
      "Ð¸Ð»Ð»Ð¸": 4747,
      "Ð¸Ð»Ð°ÑĢÐ¼Ð¾Ð½": 4748,
      "ÐŀÐ±": 4749,
      "ÐŀÐĿ": 4750,
      "ÐŀÐ»Ñı": 4751,
      "Ð¡Ð¼Ð¸ÑĢ": 4752,
      "ÐĺÐ»ÑĮÑı": 4753,
      "ÐºÑĥÑģÐ¿": 4754,
      "ÐºÑĥÐ»Ð¾Ð²Ð°": 4755,
      "ĠÐĶÐ¾ÑĢ": 4756,
      "ĠÐĶÐµÐ²": 4757,
      "ĠÐĶÑĢÑĥ": 4758,
      "ĠÐĶÑĥÑĪ": 4759,
      "ĠÐĶÐ°ÑĪÐ°": 4760,
      "ĠÐĶÐ°ÑĢÐ°Ð»Ð¸": 4761,
      "ÑīÐ¸Ð²Ð°Ð»": 4762,
      "ĠÐ²Ð°Ð»Ð°Ð»Ð¾": 4763,
      "ĠÑįÑģÐºÐ¸Ð·": 4764,
      "Ð£ÐĹÐĺ": 4765,
      "ĠÐ¨Ð¸Ð±": 4766,
      "ÐºÐµÐ»ÑĮ": 4767,
      "ĠÑħÑĢÐ°Ð¼": 4768,
      "ĠÑĤÐ°ÐºÐ¾Ð¼": 4769,
      "ÐľÐ°ÑĢÐ»Ñĭ": 4770,
      "Ð°ÑħÐ¼Ð°ÑĤ": 4771,
      "ÐºÐ²Ð¸": 4772,
      "ĠÐŃÐ½": 4773,
      "ĠÐŃÑģÐµÐ½": 4774,
      "ĠÐ¢ÑĥÐ¹": 4775,
      "ĠÐ¶Ð¸Ð²": 4776,
      "Ð¾Ð»Ð¾ÑħÐ¾Ð²": 4777,
      "ĠÐľÐ°ÑĢÑĮÑı": 4778,
      "Ð¨ÑĥÑĢ": 4779,
      "Ð¨Ð°ÑĢ": 4780,
      "ĠÐ£Ð´Ð¼ÑĥÑĢÑĤÐµ": 4781,
      "ĠÑĥÐ³Ð¾ÑģÑĮ": 4782,
      "ĠÐºÐ¾Ð¼Ñĥ": 4783,
      "ĠÐºÐ¾Ð¼Ð¸ÑĤÐµÑĤ": 4784,
      "Ð°Ð»Ð¸ÑģÑĮ": 4785,
      "ĠÐ²ÐµÑĢÐ°ÑģÐ°Ð»": 4786,
      "ĠÐ·Ð°Ð³Ð¾ÑĢÐµÐ»ÑģÑı": 4787,
      "ĠÐ¿ÑĢÐ¾ÑĦ": 4788,
      "ĠÐ¤Ð¾Ð¼Ð°": 4789,
      "ĠÐ´ÐµÐ»Ð°ÑİÑĤ": 4790,
      "ĠÐ¿ÑĢÐ¸Ðº": 4791,
      "Ð°ÑĪÐ»Ñĭ": 4792,
      "Ð´ÑĮÐµÐ²Ð¸Ñĩ": 4793,
      "ĠÑĢÐµÐºÐ°": 4794,
      "ĠÐ¾Ð´Ð½Ð¾Ð³Ð¾": 4795,
      "Ð½Ð¸ÐºÑĬÑĳÑģ": 4796,
      "Ð¸Ð±Ð°ÑĪÐ»Ñĭ": 4797,
      "ĠÐķÐ²ÑĢÐ¾Ð¿Ð°": 4798,
      "ÑĥÑħÐ¾Ð²": 4799,
      "ÑĥÐ»Ð°ÑģÑĮ": 4800,
      "ĠÐ°Ð´ÓŁÐ¾Ð½": 4801,
      "ĠÐĸÐ°Ð½Ð½Ð°": 4802,
      "ĠÑĥÑģÑĮÑĤÓ¥Ð·Ñĭ": 4803,
      "ĠÐ¾Ð³Ð¾Ð½ÑĮ": 4804,
      "ĠÓŁÑĭÐ³": 4805,
      "ÑĥÑĩÑĪÐµ": 4806,
      "Ð¤ÐµÑģÑĤÐ¸Ð²Ð°Ð»ÑĮ": 4807,
      "ĠÐºÐ¾Ð»Ð»ÐµÐ´Ð¶": 4808,
      "ĠÐ´ÑĭÑĪÐµÑĤÓ¥ÑģÐµ": 4809,
      "ĠÑĪÑĥÐ´Ó¥ÑģÑĮÐºÐ¾": 4810,
      "ĠÑģÑİÐ°Ð½": 4811,
      "ĠÑĢÐ°Ð´ÑĥÐµÑĤÑģÑı": 4812,
      "ĠÐ¿ÑĢÐ¾ÑģÐ¸ÑĤ": 4813,
      "ĠÐ³Ð°Ð·ÐµÑĤÑĭÐ½": 4814,
      "ĠÐ±ÐµÑĢÑĤÓ¥ÑģÑĮÐºÐ¾": 4815,
      "Ð£Ð¶Ð°ÑģÑĮÐºÐ¾": 4816,
      "ÐµÐ´Ð¸Ð½Ð¾Ðµ": 4817,
      "ĠÐ±Ð¾Ð»ÑĮÑĪÐµ": 4818,
      "ĠÐĳÐ¾ÑĢÐ¸ÑģÐ¾Ð²Ð°": 4819,
      "ĠÐĿÐµÑĦÑĤÐµÐºÐ°Ð¼ÑģÐº": 4820,
      "ĠÐŁÐµÑĤÑĢÐ¾Ð²Ð½Ð°": 4821,
      "ĠÑģÐµÐ¼ÑĮÐ¸": 4822,
      "ĠÑĩÐµÑĢÐºÐ¾Ð³ÑĥÑĢÑĤÑĭÑģÑĮ": 4823,
      "ĠÐľÐ°ÐºÑģÐ¸Ð¼Ð¾Ð²": 4824,
      "ÐĿÐ°ÑĤÐ°ÑĪÐ°": 4825,
      "ĠÑĢÑĥÐºÐ¾Ð²Ð¾Ð´ÑģÑĤÐ²Ð¾": 4826,
      "Ð´ÑıÐ¼": 4827,
      "ĠÐ¿Ð¸ÑģÐ°ÑĤÑĮ": 4828,
      "ĠÐŁÐ°ÑĢÐ¸": 4829,
      "ĠÐ¶ÑĥÑĢÐ½Ð°Ð»Ð¸ÑģÑĤÐ¾Ð²": 4830,
      "ĠÑĦÐµÑĢÐ¼Ðµ": 4831,
      "Ð¾Ð»Ð¸ÑĤ": 4832,
      "Ð¿Ð°Ð»Ð°Ð½": 4833,
      "ĠÐºÐ½Ð¸Ð³Ðµ": 4834,
      "ĠÑĢÑĥÐºÐ¾Ð²Ð¾Ð´ÑıÑī": 4835,
      "ĠÐ²Ð¾ÑĢÐ³Ð¾ÑĢÐ¾Ð½ÑĬÑĳÑģ": 4836,
      "ĠÑĤÐ¾Ð»ÑįÐ·": 4837,
      "ĠÐ²Ð¸Ð´ÐµÐ»Ð¸": 4838,
      "Ð¡ÑĤÑĥÐ´ÐµÐ½ÑĤ": 4839,
      "ĠÐ¿Ð¾ÑĤÑĥÑĪ": 4840,
      "ĠÐľÐ°ÑĤÐ²ÐµÐµÐ²Ð°": 4841,
      "ĠÑģÑĬÐµÐ»": 4842,
      "ÐĲÐ²ÑĤÐ¾ÑĢ": 4843,
      "ĠÐºÐ¾Ð»Ð»ÐµÐºÑĤÐ¸Ð²Ðµ": 4844,
      "ĠÐ³Ð¾Ð¶ÑĬÑıÐ¼": 4845,
      "ĠÐ·ÐµÐ¼Ð»Ñı": 4846,
      "Ó´Ð¾ÑĪ": 4847,
      "ÓľÑĭÑĤ": 4848,
      "ĠÐ¡Ð²ÐµÑĤÐ°": 4849,
      "ĠÐ¶Ð°Ð»ÑıÑģÑĮÐºÑĭ": 4850,
      "ĠÑģÐ¿ÐµÑĨÐ¸Ð°Ð»Ð¸ÑģÑĤÑĬÑĳÑģ": 4851,
      "ĠÐ´Ð°ÑģÑıÐ·": 4852,
      "ĠÐĽÐµÐ±ÐµÐ´Ð¸Ð½Ð¾Ðµ": 4853,
      "ĠÐºÐ¾Ð½ÐºÑĥÑĢÑģÐµ": 4854,
      "ĠÐ¿ÑĥÐ¼Ð¸ÑģÑĮÐºÐ¸": 4855,
      "ĠÐŁÑĢÑıÐ¼": 4856,
      "Ð³Ð°Ð½Ð¸ÑģÑĤ": 4857,
      "ĠÐĵÑĥÐ»ÑĮÑģÐ¸Ð½Ð°": 4858,
      "ĠÐ·Ð°Ð±ÑĭÑĤÑĮ": 4859,
      "ĠÐ¡Ð¿Ð¸ÑĢÐ¸": 4860,
      "ĠÑĦÐ¸Ð·ÐºÑĥÐ»ÑĮ": 4861,
      "ĠÑĦÐ¸Ð»Ð¾Ð»Ð¾Ð³Ð¸Ñİ": 4862,
      "ĠÐ¥Ð¾ÑħÑĢÑıÐºÐ¾Ð²Ð°": 4863,
      "ĠÐ²Ð°ÑĤÑģÐ°": 4864,
      "ĠÐºÐ¾ÑĤÐ¾ÑĢÑĭ": 4865,
      "ÐľÐ¸Ð»ÐµÐ¼Ð»Ñĭ": 4866,
      "ÐľÐ¸Ð»ÐµÐ¼ÑĭÐ·": 4867,
      "ĠÐ±Ð°Ð´ÓŁÑĭÐ¼ÐµÐ·": 4868,
      "ĠÑģÑĤÐ°Ð½ÑĨÐ¸Ñı": 4869,
      "ĠÑĨÐµÑĢÐºÐ²Ð¸": 4870,
      "ĠÐ¿ÑĢÐµÐ´ÑģÐµÐ´": 4871,
      "ÐļÑĭÐºÐµÑĤÓ¥": 4872,
      "ÐĵÑĥÐ»ÑĮÑģÐ¸Ð½Ð°": 4873,
      "ĠÐ§Ð¸ÑĢÐºÐ¾Ð²": 4874,
      "Ð»ÐµÐ³Ð¶Ð°Ð½": 4875,
      "ĠÑģÐ°Ð¼Ð¾Ð¹": 4876,
      "ÐľÐķÐ¢ÐŀÐĴÐĲ": 4877,
      "ĠÐļÑĢÐ¸ÑģÑĤÐ¸Ð½Ð°": 4878,
      "ĠÐ´Ð°ÑģÐµÑģÑĮ": 4879,
      "ĠÐ¾Ð´ÐµÐ¶Ð´Ðµ": 4880,
      "ÐĽÐ¬Ð¯ÐĿÐŀÐĴÐĲ": 4881,
      "ĠÑģÑĤÐ¾ÑĢÐ¾Ð½Ñĥ": 4882,
      "ĠÐ¿ÑĢÐ¾Ð¸Ð·Ð²ÐµÐ´ÐµÐ½Ð¸Ð¾ÑģÑģÑįÑģ": 4883,
      "ÑĬÑıÐ½Ñĭ": 4884,
      "ĠÐĵÑĢÐ°ÑħÐ¾Ð²": 4885,
      "ĠÐŁÑĢÐ°Ð²Ð¸ÑĤÐµÐ»ÑĮÑģÑĤÐ²Ð¾": 4886,
      "ĠÐ£ÑĢÐ°ÑģÑĮ": 4887,
      "ĠÐ±Ð¾Ð»ÑĮÐ½Ð¸ÑĨÐµ": 4888,
      "ĠÐ²Ð¾Ð¶ÑĬÑıÑģÑĮ": 4889,
      "ĠÐļÑĥÐ´ÑĢÑıÐ²ÑĨÐµÐ²Ð°": 4890,
      "ĠÐ¼ÐµÐ´Ð¸ÑĨÐ¸Ð½Ð°": 4891,
      "ĠÐ¿ÐµÑĩÐµÐ½ÑĮÐµ": 4892,
      "ĠÐĿÐµÐ²Ð¾ÑģÑĤÑĢÑĥÐµÐ²": 4893,
      "ĠÑĢÐ°Ð·ÑĢÑĥÑĪÐ¸Ð»ÑģÑı": 4894,
      "ĠÐ¼Ð¸Ð½Ð¸ÑģÑĤÐµÑĢÑģÑĤÐ²Ð¾": 4895,
      "ĠÐĽÐµÐ±ÐµÐ´ÐµÐ²Ð°": 4896,
      "ĠÐºÐ¾Ð¼ÑģÐ¾Ð¼Ð¾Ð»": 4897,
      "ĠÑģÓ¥Ð·ÑĮÑĭÐ»": 4898,
      "Ð²ÐµÑĢÐ´Ð»Ð¾Ð²": 4899,
      "ĠÐ²Ð¾Ð·Ð¼Ð¾Ð¶Ð½Ð¾ÑģÑĤÑĮ": 4900,
      "ÑģÑĤÑĢÑĥÐºÑĤÐ¾ÑĢ": 4901,
      "ĠÑĩÐ¸ÑģÑĤÐ¾ÑĤÐ°": 4902,
      "Ð´Ð¾ÐºÐ¸Ñı": 4903,
      "ĠÐºÑĭÐ»Ð´ÑĭÑĤÑįÑĤ": 4904,
      "ĠÐ¾ÑĢÐ³Ð°Ð½": 4905,
      "ÐŁÑĢÐ°Ð·Ð´Ð½Ð¸ÐºÐµÐ½": 4906,
      "ĠÐ¾Ð±ÑĢÐ°Ð´Ñĥ": 4907,
      "ÐĶÑĥÐ½Ð½Ðµ": 4908,
      "ĠÐ¿ÑĢÑıÐ¼Ð¾Ð¹": 4909,
      "ĠÐķÐ³Ð¸Ð¿ÐµÑĤ": 4910,
      "ĠÐĴÐ¸Ð½Ð¾Ð³ÑĢÐ°Ð´Ð¾Ð²Ð°": 4911,
      "ÐºÐ¸Ð²Ð°Ð»ÑĤÓ¥ÑģÐµÐ·": 4912,
      "ĠÐĶÐµÑĢÐµÐ½Ð´ÑıÐµÐ²": 4913,
      "ĠÐĲÐ½Ð´ÑĢÐ¸": 4914,
      "ĠÑĢÐ°ÑģÐ¿ÑĢÐ¾ÑģÑĤÑĢÐ°": 4915,
      "ĠÑĢÑıÐ´Ð¾Ð²Ð¾Ð¹": 4916,
      "ĠÐĽÑĥÐ´Ð¾ÑĢÐ²Ð°Ð¹": 4917,
      "ĠÐ´Ð¸ÐºÑĤÐ°Ð½ÑĤ": 4918,
      "ĠÐļÐ°Ð¼Ð±Ð°ÑĢÐºÐ°": 4919,
      "ĠÐĲÑħÐ¼ÐµÑĤÑħÐ°Ð½Ð¾Ð²Ð°": 4920,
      "ĠÑģÐ¾ÑģÐµÐ´": 4921,
      "ĠÐ¡ÐµÐ»ÑĤÑĭ": 4922,
      "ĠÐ§Ð¸Ð±ÑĭÑĪÐµÐ²Ð°": 4923,
      "ĠÐķÐľÐķÐĽÐ¬Ð¯ÐĿÐŀÐĴÐĲ": 4924,
      "ĠÐĿÑĥÑĤÑĦ": 4925,
      "ÐºÑĥÑģÐ¿Ð¾": 4926,
      "ĠÐŃÑģÐµÐ½ÐºÑĥÐ»Ð¾Ð²Ð°": 4927,
      "Ð°ÐµÑĢ": 4928,
      "Ð¾ÐºÑĤÐ¾ÑĢ": 4929,
      "ÐµÑģÑĤÐ²": 4930,
      "Ð½ÐµÑĤ": 4931,
      "Ð½ÐµÐ¹": 4932,
      "Ð½ÑıÐ½ÑĮ": 4933,
      "Ð´ÐµÐ½": 4934,
      "ÐºÐ½Ð¾": 4935,
      "ÐºÐµÐ¹": 4936,
      "ÑĭÐ¾Ñģ": 4937,
      "ÑıÐ·Ñĭ": 4938,
      "ÑıÐ·ÑĮ": 4939,
      "ÑĥÑĢÐ¾Ð²": 4940,
      "ĠÐ²ÑĥÑĢ": 4941,
      "ĠÐ²Ð¸Ñģ": 4942,
      "ĠÐ²Ð¾Ð»": 4943,
      "ĠÐ²Ð½ÑĥÐº": 4944,
      "Ð·Ð°Ð²Ð¾Ð´": 4945,
      "Ð³Ð¸Ð½Ð°": 4946,
      "ĠÐ½ÑĮÑĭ": 4947,
      "Ð±Ð¾Ð²": 4948,
      "Ð±Ð°ÑĤ": 4949,
      "ÑįÐ¼ÐµÐ½": 4950,
      "Ð´Ð¸ÑĢ": 4951,
      "ÑĩÐ¾": 4952,
      "ÑĩÑĮ": 4953,
      "ÑĩÐµÑĤ": 4954,
      "ÑĩÐ¸Ð½": 4955,
      "ĠÐºÐ°Ð½": 4956,
      "ĠÑĤÐ°Ð½": 4957,
      "ĠÑĤÑĢÐ°Ð¼": 4958,
      "ĠÑĤÑĥÑģ": 4959,
      "ÐºÐ°Ðµ": 4960,
      "ĠÐľÑĥÑħÐ°Ð¼": 4961,
      "ĠÑģÐ¾Ð¼ÑĭÐ½Ð´Ð°": 4962,
      "Ð¾Ð½Ð¸Ð½Ð°": 4963,
      "Ð¶ÐµÐ¹": 4964,
      "ÑģÑĮÐºÐµ": 4965,
      "ÑģÑĮÐºÐµÐ¼": 4966,
      "ÑģÑĮÑĤÑĭÐ¼": 4967,
      "Ð°Ð½ÐºÐ°": 4968,
      "Ð°Ð½Ð¸Ñģ": 4969,
      "ĠÐ½Ð°Ñĩ": 4970,
      "ĠÑĢÐ°Ð´Ñĭ": 4971,
      "ĠÑĢÐ°Ð±Ð¾": 4972,
      "ĠÐ¿Ð¾ÑĢ": 4973,
      "ĠÐ¿ÑĢÐ¾Ð´": 4974,
      "ÐľÐ°ÑĤ": 4975,
      "ÐľÐ£Ðł": 4976,
      "ĠÐ¡Ð¾": 4977,
      "ĠÐ¡Ð°Ð»": 4978,
      "ĠÐ¡Ð²ÐµÑĢÐ´Ð»Ð¾Ð²": 4979,
      "ĠÐ¼Ð¾ÑĢ": 4980,
      "ĠÐ¼Ð¾Ð´": 4981,
      "ĠÐ¼Ð¾Ð³": 4982,
      "ĠÐ¼ÑĥÐ½": 4983,
      "ĠÐĴÑĥÐ¶": 4984,
      "ĠÐļÐ°Ð´": 4985,
      "ĠÐļÐ½Ð¸Ð³Ð°": 4986,
      "ĠÐļÑĥÐ±": 4987,
      "ĠÐļÐ¸ÑĢ": 4988,
      "ĠÐļÐ¾Ñĩ": 4989,
      "ĠÐļÑĢÐ¾Ð¼Ðµ": 4990,
      "ĠÐķÐ³Ð¸ÑĤ": 4991,
      "ÑİÑī": 4992,
      "ĠÑĥÑĤÐ¸": 4993,
      "ĠÑĥÑĤÓ¥Ð·": 4994,
      "ĠÑĥÑĩÐ°ÑģÑĤ": 4995,
      "ĠÑĥÐ²Ð¸": 4996,
      "ĠÑĥÐ»ÑįÐ¿": 4997,
      "ĠÐ´Ð¾Ð¼": 4998,
      "ĠÐ´Ð°Ð¹": 4999,
      "ÑĨÑĥÐ·": 5000,
      "ÑĨÐµÑĢÑĤ": 5001,
      "ĠÐĲÐ·": 5002,
      "ĠÐĲÑĤÐ°": 5003,
      "ĠÐ¾Ð³Ð¾ÑĢÐ¾Ð´": 5004,
      "ÑĬÐµ": 5005,
      "Ð»Ð¸ÑĤÐ°": 5006,
      "ĠÐĺÑĤÐµ": 5007,
      "ĠÐ¢Ð¸ÑĤÐ¾Ð²Ð°": 5008,
      "ĠÐ¢ÑĢÐµÑĤÑĮÑıÐºÐ¾Ð²Ð°": 5009,
      "ÐºÐ¸ÑĪÐµÐ²": 5010,
      "ÐĲÐ±": 5011,
      "ÐĲÐ¡": 5012,
      "Ð»Ð¾Ð¼": 5013,
      "ĠÐĵÑĥÑĢÑĤ": 5014,
      "ĠÐĵÑĢÐ°Ðº": 5015,
      "ĠÐĵÐ¾Ð´Ñĭ": 5016,
      "ÐļÑĢÐ¸": 5017,
      "ÐļÐ°Ð·": 5018,
      "ÐļÐ»ÑĥÐ±": 5019,
      "Ð»ÑįÐ·ÑĮ": 5020,
      "ĠÐŁÐ°": 5021,
      "ÐĴÐ°ÑĤ": 5022,
      "Ð¢Ðµ": 5023,
      "Ð¢ÑĭÐ»": 5024,
      "ĠÐ»Ð°Ð³": 5025,
      "ÑĦÑĥÑĤ": 5026,
      "ÑĳÑģÐ»ÑįÐ½": 5027,
      "ĠÑĪÐ°ÑĢÐ°": 5028,
      "ĠÑĪÐ°Ð³Ð°": 5029,
      "ÐķÑĢ": 5030,
      "ĠÐ±Ð¾Ð»": 5031,
      "ĠÐ±Ð»Ð°Ð³": 5032,
      "ĠÐłÐµÑĪ": 5033,
      "Ð¸ÑĤÑı": 5034,
      "Ð¼ÐµÐ¼ÑĭÐ½": 5035,
      "ÑĬÑĳÑģÑĭÑģÑĮ": 5036,
      "ÐĽÐŀÐĴÐĲ": 5037,
      "Ð½Ð¾ÐµÑģÑĮ": 5038,
      "Ð¡Ð°ÑĢÐ°": 5039,
      "Ð¡Ð¾Ð¼ÑĭÐ½Ð´Ð°": 5040,
      "ÐĺÑģÑĤÐ¾ÑĢÐ¸Ñı": 5041,
      "ĠÐĹÐµÐ¼": 5042,
      "ĠÐ·Ð¸Ð¼Ð¾Ð¹": 5043,
      "Ð»ÑĭÐ¼ÑĤÑį": 5044,
      "ĠÐĶÐ¾Ð¼": 5045,
      "Ð¼Ð°Ñı": 5046,
      "Ð¼Ð°Ð¹": 5047,
      "ÐĵÐŃ": 5048,
      "ÐĵÐ°Ð²ÑĢÐ¸": 5049,
      "ÐĵÐµÐ¾ÑĢÐ³Ð¸Ð¹": 5050,
      "Ð°Ð¹Ð»Ð¾Ð²": 5051,
      "Ð¾Ð³Ð¾Ð»ÑĮ": 5052,
      "ÐµÐ»Ð»Ð¸": 5053,
      "ĠÐ½ÐµÐ´ÐµÐ»Ð¸": 5054,
      "ÐµÐ´Ð¶": 5055,
      "ÑĤÐ°Ð·": 5056,
      "ÑĤÐ°Ð¶": 5057,
      "ÑĤÐ°ÐµÐ½": 5058,
      "ÐŁÐ¾": 5059,
      "ÐŁÐµÑĢÐµÐ²": 5060,
      "ÐŁÐ¾Ð»Ð¸": 5061,
      "ÑģÑĮÐºÐ¾Ð´": 5062,
      "Ð¾Ð·Ð¾Ð²": 5063,
      "ÑĥÑĤÐ¾Ð²": 5064,
      "ÑĥÑĤÐ½Ð¾": 5065,
      "ĠÐºÑĥÐ°Ñģ": 5066,
      "ĠÐĺÐ¶ÐºÐ°ÑĢÑĭÑģÑĮ": 5067,
      "ĠÑĤÐ°ÐºÐ¾Ð³Ð¾": 5068,
      "ĠÑĤÐ°ÐºÐ¸Ðµ": 5069,
      "ĠÐ²ÑĭÑıÐ²": 5070,
      "Ð°Ð½Ð¾Ð²Ð¸Ñĩ": 5071,
      "ĠÐ¿Ð¾ÑįÐ·": 5072,
      "ÐĳÐ°Ð»": 5073,
      "ĠÐ³Ð¾Ð²Ð¾ÑĢÐ¸Ð»Ð¾": 5074,
      "Ð¸Ð´ÑĭÑģ": 5075,
      "Ð¸Ð´ÐµÐ½Ð¸": 5076,
      "ÑģÐºÐ¸Ð¹Ð»ÑįÐ½": 5077,
      "ĠÐ¾ÑĤÑĨÐ°": 5078,
      "ĠÐ¾ÑĤÑģÑİÐ´Ð°": 5079,
      "ĠÐľÐ°ÑĢÐºÐ¾Ð²": 5080,
      "ÐĶÓ¥ÑģÑĮ": 5081,
      "ĠÐ£Ð´Ð¼ÑĥÑĢÑĤÑģÐºÐ°Ñı": 5082,
      "ĠÐ£Ð´Ð¼ÑĥÑĢÑĤÑģÐºÐ¾Ð³Ð¾": 5083,
      "ĠÐºÐ¾Ð¼ÐµÐ´Ð¸Ñı": 5084,
      "Ð°Ð»Ð¸Ð¼": 5085,
      "ĠÐ½Ð¸ÐºÐ°": 5086,
      "ĠÐĴÐ°ÑģÐ¸Ð»ÑĮÐµÐ²Ð½Ð°": 5087,
      "ÐµÑĩÐ±ÑĥÑĢÐµÑģÑĮ": 5088,
      "ÐĹÐ¾Ñı": 5089,
      "ĠÑĥÐ´Ð¼ÑĥÑĢÑĤÑģÐºÐ¾Ð¼": 5090,
      "ĠÐ°ÑĢÐ»Ñĭ": 5091,
      "ĠÐļÐ°ÑģÐ¸Ð¼Ð¾Ð²": 5092,
      "ĠÐ¼ÑĭÐ½ÑĭÐ½Ñĭ": 5093,
      "ÑıÑĤÐ½Ð¾": 5094,
      "ĠÐ¥ÐµÐ»ÑĮÑģÐ¸Ð½ÐºÐ¸": 5095,
      "ĠÐ®Ð»Ñı": 5096,
      "ĠÐ®Ð»Ð¾Ð²": 5097,
      "ĠÐºÐ¸Ð²Ð°Ð»ÑĤÓ¥": 5098,
      "ĠÑİÐ»": 5099,
      "ÑĤÐµÐ½Ð°": 5100,
      "ĠÐ¾Ð´Ð½Ñĥ": 5101,
      "ĠÐ¿ÑĥÐºÑģ": 5102,
      "ĠÐ¿ÑĥÐºÑģÑĳ": 5103,
      "Ð±Ð¾ÑĢÐ°ÑĤÐ¾ÑĢ": 5104,
      "ĠÓŀ": 5105,
      "ĠÐ½Ð°Ð¿Ð¸ÑĪÐµÑĤ": 5106,
      "Ð½Ð¸ÐºÐ¾Ð²Ð»ÑįÐ½": 5107,
      "ĠÐ³Ð¾Ð¶ÑĬÑıÑģÑĮ": 5108,
      "Ð¸Ð¿ÑģÐ¸Ðº": 5109,
      "ĠÓĿÑĥÐ¶": 5110,
      "ĠÐĽÐµÐ½Ð°": 5111,
      "ĠÐĸÑĥÐ¹": 5112,
      "ĠÐ½Ð¾Ð²ÑĭÑħ": 5113,
      "Ð¯ÐºÐ¾Ð²": 5114,
      "Ð¯ÐºÑĤÑĭ": 5115,
      "ĠÑĪÑĥÐ¼Ð¿Ð¾ÑĤÓ¥Ð·": 5116,
      "ĠÐ¼Ð¾Ð»Ð¾Ð´ÐµÑĨ": 5117,
      "Ð¤ÐµÑĢ": 5118,
      "ĠÐºÐ¸Ð½Ð¾ÑĤÐµ": 5119,
      "ĠÐłÐ°Ð¼Ð¸Ð»ÑĮ": 5120,
      "ĠÐ¸Ð½ÑģÑĤÐ¸ÑĤÑĥ": 5121,
      "ĠÐºÑĥÑĢÐ¸Ð·": 5122,
      "ĠÓµÑĭ": 5123,
      "ĠÑİÑĢÑĤÑĤÑĭÐ½Ñĭ": 5124,
      "ĠÐ¢Ð°ÐºÐ¾Ð¹": 5125,
      "ĠÐ¢Ð°ÐºÐ¾Ðµ": 5126,
      "ÑĢÐ°Ð½ÑĨÑĥÐ·": 5127,
      "ĠÐ²ÐµÑĤÐ»Ó¥Ð·Ñĭ": 5128,
      "ĠÐºÐ»Ð°ÑģÑģÑį": 5129,
      "ĠÐ³Ð°Ð·ÐµÑĤÐ°": 5130,
      "ĠÐ¡Ð°Ð¼ÑģÐ¾Ð½Ð¾Ð²": 5131,
      "ĠÐĴÑĭÐ»ÐµÐ³Ð¶Ð°Ð½": 5132,
      "Ð¿Ð¿Ð°ÑĢÐ°": 5133,
      "ĠÐ¿Ð°ÑĢÐº": 5134,
      "ĠÐ¿Ð°ÑĢÐ»Ð°": 5135,
      "Ð£Ð¶Ð°Ð½Ñĭ": 5136,
      "ÐºÐ°Ð½Ð¾Ð²Ð°": 5137,
      "ÐĺÐ¶ÐµÐ²ÑģÐº": 5138,
      "Ð¾Ð»ÐµÐ½": 5139,
      "ĠÐĳÐ°Ð¹Ð³ÑĥÑĢ": 5140,
      "ĠÐºÐ¾ÑĪÐºÐ¸Ð·Ñĭ": 5141,
      "ĠÐ½Ð°Ð¿Ð¸ÑģÐ°Ð»Ð°": 5142,
      "ĠÐ²ÑĭÐ»ÑĮÑĭÑģÑĮ": 5143,
      "ĠÑĥÐ»Ð¾Ð½Ñį": 5144,
      "ĠÐºÐ»ÑĥÐ±ÑĭÐ½": 5145,
      "ÑģÐµÑģÑĤÑĢÐ°": 5146,
      "ĠÐ¿Ð¾Ð»Ð¸ÑĤÐ¸ÐºÐ°": 5147,
      "ĠÑģÐ»ÑĭÑĪÐ°ÑĤÑĮ": 5148,
      "ÐºÑĥÑĢÑģ": 5149,
      "ĠÐ¿Ð¸ÑģÐ°Ð»": 5150,
      "ĠÑĢÐ°Ð¹ÐºÐ¾": 5151,
      "ĠÐļÐ¸ÑĢÐ¸Ð»Ð»Ð¾Ð²": 5152,
      "ĠÑĢÐ°Ð´Ð¾Ð²Ð°Ð»Ð°ÑģÑĮ": 5153,
      "ĠÐľÐ°Ð»ÐµÐ½ÑĮÐºÐ¾Ðµ": 5154,
      "ĠÐ²ÑĥÐ½ÑįÑĤÐ¾": 5155,
      "ĠÐ²ÑĥÐ½ÑįÑĤÓ¥": 5156,
      "ĠÐ³Ð»Ð°Ð·Ð°Ð¼Ð¸": 5157,
      "ĠÑģÐ¿ÐµÑĨÐ¸Ð°Ð»Ð¸": 5158,
      "ĠÐ³Ð¾Ð´Ñĥ": 5159,
      "ĠÐ¿Ð°Ð´Ð°Ð»Ð°": 5160,
      "ĠÐĲÐ²ÑĤÐ¾ÑĢÑĭ": 5161,
      "ÑĭÐ»Ó¥Ð·Ñĭ": 5162,
      "ĠÐ¼ÑĥÑģÐ¾Ðµ": 5163,
      "ĠÐºÑĭÐºÐµÑĤÓ¥ÐµÐ·": 5164,
      "ÐĵÑĥÑĢÑĤÑĭÑģÑĮ": 5165,
      "Ð¾ÑıÑĢ": 5166,
      "ĠÐļÐ¾Ð¼Ñĥ": 5167,
      "ĠÐºÐ½Ð¸Ð³Ð¸": 5168,
      "ĠÑĤÐ²Ð¾ÑĢÑĩÐµ": 5169,
      "Ð¸ÑĤÐµÐ»ÑĮÐ½Ð¾Ð¹": 5170,
      "ĠÐ¼ÐµÑģÑıÑĨÐ°": 5171,
      "ĠÑĥÐ¶Ð°ÑģÑĮÐºÐ¾Ð¼": 5172,
      "ĠÑģÐ°Ð¹ÑĤ": 5173,
      "ĠÐ²ÑĭÑĢÐ°ÑīÐ¸Ð²Ð°Ð»": 5174,
      "ĠÑĩÐµÐ»Ð¾Ð²ÐµÐºÑĥ": 5175,
      "ĠÐ¿ÐµÑĢÐ²Ð¾Ðµ": 5176,
      "ĠÓĿÑĥÑĤÓ¥Ð·": 5177,
      "ĠÑĤÑĥÐ½ÑģÑĭÐºÑĬÑıÑģÑĮÐºÐµ": 5178,
      "ĠÑģÐ¾Ð»Ð½ÑĨÐµ": 5179,
      "ÐĿÐ¾ÐºÑĭÓµÐµ": 5180,
      "ĠÑĪÑĥÐ¼Ð¿Ð¾ÑĤÓ¥Ð·Ñĭ": 5181,
      "ĠÐ±Ð¾Ð»ÐµÐ»Ð°": 5182,
      "Ð¾Ð»Ð¾Ð³Ð¸Ñı": 5183,
      "Ð¾ÑģÑĤÑıÑħ": 5184,
      "ĠÑĢÐµÑģÐ¿ÑĥÐ±Ð»Ð¸ÐºÐ¸": 5185,
      "Ó´ÑĥÐºÐ°Ð·Ðµ": 5186,
      "ĠÐľÐ¸ÑĤÑĢÐµÐ¹": 5187,
      "ĠÐĳÐ°Ð¶ÐµÐ½": 5188,
      "ĠÐºÐ°ÑĦÐµÐ´": 5189,
      "Ð½Ð¸ÑıÑħ": 5190,
      "ÑģÑİÑĪÐ°": 5191,
      "ĠÐ¿Ð°Ð»Ð°ÑĤ": 5192,
      "Ð±ÐµÐºÐ¾Ð²Ð°": 5193,
      "Ð¿ÐµÑĢÐµÐ´Ð¸": 5194,
      "ĠÐĵÐµÑĢÐ¼Ð°Ð½": 5195,
      "ĠÐ°ÐºÐ°Ð´ÐµÐ¼Ð¸Ð¸": 5196,
      "ĠÐĹÐ°Ð³ÑĢÐµÐ±Ð¸Ð½Ð°": 5197,
      "ĠÐ²Ð°ÑĤÑģ": 5198,
      "ĠÐºÑĭÑĪÐ½Ð¾ÐµÐ·": 5199,
      "ĠÐ¼ÐµÑħÐ°Ð½Ð¸Ð·Ð°ÑĤÐ¾ÑĢ": 5200,
      "ÐļÑĥÐ·Ð½Ðµ": 5201,
      "ĠÑģÐ»ÑĥÐ¶Ð¸ÑĤÑĮ": 5202,
      "ĠÐ¾Ð±ÑĢÐ°Ð·Ð¾Ð²Ð°Ð½Ð¸Ðµ": 5203,
      "ÐĲÐ¥ÐľÐķÐ¢ÐŀÐĴÐĲ": 5204,
      "ĠÐĲÐ½Ð´ÑĢÐµÐµÐ²": 5205,
      "ĠÐºÐ¾Ð½ÑĨÐµÑĢÑĤÐµ": 5206,
      "ÐľÑĥÐ·ÐµÐ¹": 5207,
      "ĠÐ°ÑĢÑħÐ¸Ð²Ðµ": 5208,
      "ĠÐ¿Ð°ÑģÑĮÐºÑĭ": 5209,
      "ĠÐ¡Ð¾Ð²ÐµÑĤÑģÐºÐ¾Ð¹": 5210,
      "ĠÐ¼ÑĭÐ½Ó¥ÑģÑĮÐºÐ¾Ð¼": 5211,
      "ĠÑĥÐ¿ÑĢÐ°Ð²Ð»Ñı": 5212,
      "ĠÐĿÐµÐ²Ð¾ÑģÑĤÑĢÑĥÐµÐ²Ð°": 5213,
      "ĠÐ¶ÑĥÑĢÐ½Ð°Ð»Ð¸ÑģÑĤÐ¸": 5214,
      "ĠÐ´ÐµÐ»ÐµÐ³Ð°ÑĨÐ¸Ñı": 5215,
      "ĠÐ²Ð¸ÑģÑĮÑĭÐ½Ñĭ": 5216,
      "ÐĶÑĭÑĪÐµÑĤÓ¥ÑģÐµÐ·": 5217,
      "ĠÐļÐ°Ð¹ÑĪÐµÐ²Ð°": 5218,
      "ĠÐ·Ð½Ð°ÑĩÐ¸ÑĤ": 5219,
      "ĠÐĴÑĭÐ±Ð¸ÑĢÐ°ÑĤÑĮ": 5220,
      "ĠÑĨÐ¸ÑĢ": 5221,
      "ĠÐ²Ð°ÑĢÐ¸ÑĤÑĮÑģÑı": 5222,
      "ĠÐĿÐ¸ÐºÐ¸ÑĦÐ¾ÑĢÐ¾Ð²Ð°": 5223,
      "ĠÐ¼ÑĥÐ·ÑĭÐºÐ°": 5224,
      "ĠÐĵÐ¾ÑĢÐ±ÑĥÐ½Ð¾Ð²": 5225,
      "ĠÐļÐ»Ð°Ð±Ñĥ": 5226,
      "ĠÐĵÐ¾Ð²Ð¾ÑĢÐ¸ÑĤ": 5227,
      "ĠÐ²ÑģÑĤÑĢÐµÑĩÐ°Ð»Ð¸ÑģÑĮ": 5228,
      "ĠÐ¿ÑĢÐµÐ´Ð¿ÑĢÐ¸ÑıÑĤÐ¸": 5229,
      "ĠÐĳÑĥÐ»Ð´Ð°ÐºÐ¾Ð²Ð°": 5230,
      "ĠÑĥÐ´Ð¸Ð²Ð¸Ð»ÑģÑı": 5231,
      "ĠÐĳÑĢÐµÑĩÐ°Ð»Ð¾Ð²": 5232,
      "ĠÑĥÑģÑĤÐ¾ÑĩÐ¸Ð¾Ñģ": 5233,
      "ĠÐ¢ÐµÐ±ÐµÑĤÐµÐµÐ²": 5234,
      "ĠÐŁÑĢÐµÐ·Ð¸Ð´ÐµÐ½ÑĤÑįÐ·": 5235,
      "ĠÐ±ÑĭÐ·Ðµ": 5236,
      "ÐĺÐ²Ð°Ð½Ð¾Ð²Ð°": 5237,
      "ĠÑħÐ¸Ð¼Ð¸": 5238,
      "ÐĳÐµÑĢÑĤÓ¥ÑģÑĮÐºÐ¾": 5239,
      "ĠÐ°ÑĤÐ¼Ð¾ÑģÑĦÐµÑĢÐ°": 5240,
      "ĠÐ£ÐºÑĢÐ°Ð¸Ð½Ð°": 5241,
      "ĠÐ¼Ð¸ÐºÑĢÐ¾": 5242,
      "ĠÐ¿Ð¾ÑĩÑĤÐ°Ð¼ÑĤ": 5243,
      "ĠÐ¿ÑĢÐ¸Ð¹ÑĤÐ¸": 5244,
      "ĠÐ¼ÐµÐ½ÐµÐ´Ð¶": 5245,
      "ĠÐ¢ÑĢÐµÑĦÐ¸Ð»Ð¾Ð²Ð°": 5246,
      "ĠÐŁÐ¾Ð»Ð¾Ð²Ð¸Ð½Ð°": 5247,
      "ĠÐ¨Ð¸Ð±Ð°Ð½Ð¾Ð²": 5248,
      "ĠÐ¿ÑĢÐ¸ÐºÐ»Ðµ": 5249,
      "ĠÐĿÑĥÑĤÑĦÑĥÐ»Ð»Ð¸Ð½": 5250,
      "Ð°Ð½Ð¸ÑģÐ»Ð°Ð²": 5251,
      "Ðģ": 5252,
      "Ð¾ÐºÐ°": 5253,
      "Ð¸ÐµÐ½": 5254,
      "Ð¸Ñİ": 5255,
      "Ð¸ÐºÐ¾Ð²": 5256,
      "Ð¸ÑģÐ¸Ñı": 5257,
      "Ð¸ÑĨÐ°": 5258,
      "ÐµÐµ": 5259,
      "ÐµÐ¼Ð¸": 5260,
      "ÐµÑīÐ°Ð³": 5261,
      "Ð½ÑĥÑĩ": 5262,
      "ÑĤÐ°Ð»": 5263,
      "ÑĤÑİ": 5264,
      "ÑģÐ¸Ð½": 5265,
      "Ð²Ð¸ÑģÑĤ": 5266,
      "Ð²Ð¸Ð»ÑĮ": 5267,
      "Ð²Ð¾Ð½Ð¾Ð³": 5268,
      "ÑĭÑĢÐ¸": 5269,
      "ÑıÐº": 5270,
      "ĠÐ²Ð¸ÑĤ": 5271,
      "ĠÐ²Ð½Ñĥ": 5272,
      "ĠÐ²Ð¾Ð»ÐµÐ¹": 5273,
      "Ð·Ð¾ÑĢ": 5274,
      "Ð·Ð»Ñı": 5275,
      "Ð³Ð¸Ð½": 5276,
      "Ð³Ð¸Ñı": 5277,
      "ĠÐ½ÐµÐ¿": 5278,
      "ĠÐ½ÑİÐ»ÑįÑģ": 5279,
      "ÑįÐ»Ð¸ÑĤÐ°": 5280,
      "Ð´Ð¸Ð»": 5281,
      "ÑĩÐµÐ³Ð¾": 5282,
      "ĠÐºÐ¾": 5283,
      "ĠÐºÑĢ": 5284,
      "ĠÐºÑĢÐ°": 5285,
      "ĠÐºÐ¾Ñģ": 5286,
      "ĠÐºÐ¸Ð±Ð°ÑĪÐ»Ñĭ": 5287,
      "ĠÐľÐŀÐ¡": 5288,
      "ĠÑģÑĥ": 5289,
      "ĠÑģÑĥÐ±": 5290,
      "ĠÑģÐµÐ½Ð¾": 5291,
      "ĠÑģÑĮÓ§": 5292,
      "ĠÑģÐ¸Ð·ÑĮÑĭÐ¼": 5293,
      "Ð¶ÐµÐ½Ð¸Ðµ": 5294,
      "Ð°Ð»Ð°Ð¹": 5295,
      "Ð°Ð½Ð½": 5296,
      "ĠÐ½Ð°Ð±": 5297,
      "Ð¿ÑĥÐ¼": 5298,
      "ÐµÐ½ÑģÐ¸Ñı": 5299,
      "ĠÐ¿Ð»Ðµ": 5300,
      "ĠÐ¿Ð¾Ð·": 5301,
      "ĠÐ¿ÑĢÐµÐ¼": 5302,
      "ĠÐ¯ÑĢÐ°": 5303,
      "ÐºÐ¾ÑĤÐµ": 5304,
      "ÐľÑĥ": 5305,
      "ÐµÑĤÑĭ": 5306,
      "ÐµÑĤÐ¾Ð¼": 5307,
      "ÑħÐ°": 5308,
      "ĠÐ¡ÐµÐ¼ÑĮÑı": 5309,
      "ĠÐ¡Ð±ÐµÑĢ": 5310,
      "ĠÐ¼Ð¾Ð¶": 5311,
      "ĠÐ¼Ð»Ð°Ð´": 5312,
      "ĠÐĴÐ¸": 5313,
      "ĠÐĴÐ¾ÑĢ": 5314,
      "ĠÐĴÐµÑĤ": 5315,
      "ĠÐĴÐ¾Ð»Ð¾Ð´Ñı": 5316,
      "ĠÐļÐ°Ð»": 5317,
      "ĠÐļÑĥÐ»ÑĮÑĤÑĥÑĢÐ°": 5318,
      "ĠÐķÐ´Ñĭ": 5319,
      "ÑİÑģÑĮ": 5320,
      "ÑİÑīÐ¸Ð¹": 5321,
      "Ð°ÑĤÐµÐ»Ð¸": 5322,
      "ĠÐ´Ðµ": 5323,
      "ĠÐ´Ð°ÑĢÑĤÑģ": 5324,
      "ĠÐĲÐ½Ñı": 5325,
      "ĠÐĲÐ»ÑĮÐ±ÐµÑĢÑĤ": 5326,
      "ĠÐ¾ÑĦÐ¸ÑĨ": 5327,
      "ĠÐĺÐ´Ð°": 5328,
      "ĠÐĺÑĪÐ¼Ð°ÑĤÐ¾Ð²Ð°": 5329,
      "ĠÐ¢Ð¾": 5330,
      "ĠÐ¢ÐµÑĢ": 5331,
      "ĠÐ¢Ð°ÑĤ": 5332,
      "ĠÐ¢ÐµÐ¿": 5333,
      "ĠÐ¢Ð²Ð¾ÑĢ": 5334,
      "ÐĲÑĤÐ°Ð¹": 5335,
      "Ð»Ð¾Ð±": 5336,
      "ĠÐĵÐµÑĢÐ°": 5337,
      "ĠÐĵÐµÐ½Ð½Ð°": 5338,
      "ĠÐĵÑĢÑı": 5339,
      "ĠÐĵÐ°Ð±": 5340,
      "ĠÐĵÐ¾ÑģÑĤÐ¸": 5341,
      "ĠÐĵÐ»Ð°Ð·Ð°": 5342,
      "ĠÐĵÐĲÐł": 5343,
      "ÐļÐ»Ð°": 5344,
      "Ð½Ð¸Ð¼": 5345,
      "ĠÐĳÐ°ÑĢ": 5346,
      "ĠÐĳÑĥÐ·": 5347,
      "ĠÐŁÑĢÐµ": 5348,
      "ĠÐŁÑĥÑĪÐºÐ¸Ð½": 5349,
      "Ð¾ÑģÐ»ÑįÑģÑĮ": 5350,
      "ÐĴÑĥÐ½": 5351,
      "ÐĴÐ°Ñħ": 5352,
      "ÐĴÐµÐº": 5353,
      "ĠÐ»Ð°Ð´": 5354,
      "ĠÐ»Ð¸ÑĨ": 5355,
      "Ð¾ÑĤÑĭ": 5356,
      "ÑĦÐ°": 5357,
      "ÑĦÐ¸Ñı": 5358,
      "ÑĢÐ¸Ð¸": 5359,
      "ÑĢÐ¸Ð¿": 5360,
      "Ð°Ð»ÐµÑİ": 5361,
      "ĠÑĪÑĤÐ°": 5362,
      "ĠÑĪÐ¾Ñĥ": 5363,
      "ÐķÐ¢": 5364,
      "ĠÐ±ÑĢÐ°": 5365,
      "ĠÐ±ÑĥÑģ": 5366,
      "ĠÐłÐ¾Ð·Ð°": 5367,
      "Ð¸ÑĤÐ°ÑĢÐ°": 5368,
      "Ð¸ÑĤÐ»ÐµÑĢ": 5369,
      "Ð¼ÐµÑĪÐ½Ð¾Ð¹": 5370,
      "ÑĬÑĳÑģÑĬÑı": 5371,
      "ĠÐĽÑĭ": 5372,
      "ĠÐĽÐµÑģ": 5373,
      "ĠÐĽÐ¸Ð»Ñı": 5374,
      "ĠÐĽÐ°ÑĢÐ¸": 5375,
      "ÐĽÑİ": 5376,
      "ÐĽÐ¯": 5377,
      "ĠÐŀÑĩ": 5378,
      "ĠÐŀÐ»Ñı": 5379,
      "ĠÐ°ÐºÑĤ": 5380,
      "ÐºÐ¾Ð²Ð¾Ð¹": 5381,
      "ÐºÐ¾Ð²Ð½Ð¸Ðº": 5382,
      "ÐµÑģÑıÐ¹": 5383,
      "Ð´ÐµÐ¼": 5384,
      "Ð´ÐµÐ»Ðµ": 5385,
      "ÑĢÑĥÐ¿Ð¿": 5386,
      "ÐŀÐł": 5387,
      "ĠÐĿÐ¸Ðº": 5388,
      "ĠÐĿÐ¸ÐºÐ¾Ð³Ð´Ð°": 5389,
      "Ð¡Ð²": 5390,
      "Ð¡Ó¥": 5391,
      "Ð¡Ð°Ð´": 5392,
      "Ð¡ÐºÐ°Ð»": 5393,
      "ÐĺÐ¡": 5394,
      "ÐĺÐ³Ð¾ÑĢÑĮ": 5395,
      "ĠÐ¡Ð°Ð´Ð¸": 5396,
      "ÐĿÐ°Ð´": 5397,
      "ĠÐ·Ð²": 5398,
      "Ð»ÑĭÐ¹": 5399,
      "ĠÑĩÑĥ": 5400,
      "ĠÑĩÐ¸Ð½": 5401,
      "ĠÐĶÐ¶": 5402,
      "ĠÐĶÐ°Ð¼Ñĭ": 5403,
      "ĠÐĶÐ°ÑĢÑĤÑģ": 5404,
      "ĠÐĶÐ¾ÐºÑĤÐ¾ÑĢ": 5405,
      "ÑīÐ°": 5406,
      "ĠÑĥÐ¶Ð°Ð»": 5407,
      "ÐµÐ¹Ð½": 5408,
      "ÐµÐ¹ÑĤÐµÐ½Ð°": 5409,
      "ĠÑĪÑĥÐ¾Ð½Ð¾": 5410,
      "ĠÐ¨Ð°ÐºÐ¸": 5411,
      "Ð¾Ð¶Ñĥ": 5412,
      "ĠÐ½ÐµÐ±Ñĭ": 5413,
      "ĠÐ§ÑĥÑĢÐ°": 5414,
      "Ð¾Ð½Ð¾Ð²Ð°Ð»Ð¾Ð²": 5415,
      "Ð°Ð´ÑĮ": 5416,
      "ÐŁÓ§": 5417,
      "ÐŁÑĥÐº": 5418,
      "ÐŁÐ¾Ð»Ð¸Ð½Ð°": 5419,
      "ÐŁÐµÑģÑıÐ½Ð°": 5420,
      "ÑĬÑıÐ²": 5421,
      "ĠÑĦÐ¾Ð½Ð´": 5422,
      "ĠÐ»Ð¾ÑĪÐ°Ð´ÑıÑħ": 5423,
      "ĠÐĲÐ»ÐµÐºÑģÐµÐµÐ²Ð°": 5424,
      "ÑĭÐ»Ð¾Ð²": 5425,
      "ÑĭÐ»Ð¼ÑĥÑĢÑĤ": 5426,
      "ĠÑħÑĥÐ´Ð¾Ð¶": 5427,
      "ĠÑħÐ¾Ð¶Ñĥ": 5428,
      "ĠÐļÐ¾ÑĢÐ¾Ð±": 5429,
      "ÐµÑĢÐ³ÐµÑģ": 5430,
      "ÑĥÑĤÐµÑĪ": 5431,
      "ĠÐºÑĥÐ½Ð¾Ðµ": 5432,
      "ĠÐĺÐ¶ÑģÑĤÐ°Ð»ÑĮ": 5433,
      "ĠÑĤÐ°Ð¼": 5434,
      "ĠÑĤÐ°Ð±": 5435,
      "ĠÐºÐ°ÑĢÐ¾": 5436,
      "ĠÐ²ÑĭÐ»ÐµÐ·": 5437,
      "ĠÐ²ÑĭÑģÑĤÑĥÐ¿": 5438,
      "ĠÐ²ÑĭÐ»ÑĭÐ¼ÑĤÑį": 5439,
      "ÑĥÐ´ÑĮ": 5440,
      "ÑĥÐºÑĪÐ¸": 5441,
      "ĠÐĲÑĢÑĤÐ¸": 5442,
      "ĠÐĲÑĢÑħ": 5443,
      "Ð°ÑħÐ°ÑĢ": 5444,
      "Ð°ÑħÑģÑĤÐ°Ð½": 5445,
      "ÑĭÑĪÐ»ÐµÐ½": 5446,
      "ÐłÐ°ÑĪ": 5447,
      "ÐĳÐ°Ð¹": 5448,
      "ÐµÐ½ÑĤÑģÑĤÐ²Ð¾": 5449,
      "Ð¸Ð´ÐµÐ½Ð¸Ðµ": 5450,
      "ÐµÐ»ÑĮÐµÐ²": 5451,
      "ÐµÐºÑĢÐµÑĤ": 5452,
      "ÐĶÐ°Ð½": 5453,
      "ÐĶÐµÐ½Ð¸Ñģ": 5454,
      "ÐĶÐ¸Ð¿Ð»Ð¾Ð¼": 5455,
      "ĠÐĲÐ½Ð³ÐµÐ»Ð¸Ð½Ð°": 5456,
      "ÐĹÐ°Ð³ÑĢÐµ": 5457,
      "ĠÐĹÐ°ÑħÐ°ÑĢ": 5458,
      "ĠÐĹÐ°ÑħÐ°ÑĢÐ¾Ð²Ð°": 5459,
      "ĠÑĥÐ´Ð¼ÑĥÑĢÑĤÑģÐºÐ°Ñı": 5460,
      "ÑĩÐ°ÑģÑĤÑĮ": 5461,
      "ĠÐļÐ°Ð¿": 5462,
      "ĠÑıÑĢÐ°ÑĤÑĭÑģÐ°": 5463,
      "ĠÐ¤Ð°ÑĢ": 5464,
      "ĠÐ¤ÑĢÐ°Ð½": 5465,
      "ÐŃÐ¼": 5466,
      "ÐµÐ»Ð¾ÑģÐ¸": 5467,
      "Ð¾Ð½Ð¾Ðº": 5468,
      "ĠÐ²ÐµÑĤÐµÑĢ": 5469,
      "ĠÐºÐ¾Ð½ÐµÑĨ": 5470,
      "ĠÐ´ÑĢÑĥÐ³Ð°Ñı": 5471,
      "ĠÑģÑĳÑĤ": 5472,
      "ĠÑģÑĳÑĤÓ¥ÑģÑĮÐºÐµ": 5473,
      "ĠÑĢÐµÐºÐµ": 5474,
      "ÑĤÐµÐ»Ð¸": 5475,
      "ÑĤÐµÐ¼Ð¸Ð¹": 5476,
      "ĠÑĤÐ¾Ð½ÑįÐ½": 5477,
      "ĠÐ³Ð¾Ð¶ÑĤÑĭÐ½Ñĭ": 5478,
      "ÐļÐ¸Ð½ÑĬÑĳÑģ": 5479,
      "ĠÐ°Ð´ÓŁÐ¸Ð·": 5480,
      "ÐºÐ°ÑĢÐ¾Ð²Ð°": 5481,
      "ĠÐ´ÑĭÑĢÑĭ": 5482,
      "ĠÐºÐ¾ÑĪÐºÑĭ": 5483,
      "ĠÐ¿Ð¾Ð¼Ð¾Ð¶": 5484,
      "ĠÐºÑĭÐ»Ó¥": 5485,
      "ĠÐĸÐ°Ð»ÐµÑİ": 5486,
      "ĠÐ°Ð²ÑĤÐ¾Ð²": 5487,
      "ĠÐ¡ÑĤÐ°Ð½Ð¸ÑģÐ»Ð°Ð²": 5488,
      "ĠÑĪÑĥÐ¼Ð¿Ð¾ÑĤÑį": 5489,
      "ĠÐ¸Ð³ÑĢÐ°Ð»Ð°": 5490,
      "ĠÐ¸Ð³ÑĢÐ°Ð»Ð¸": 5491,
      "ĠÑĪÐºÐ¾Ð»": 5492,
      "Ð§ÐµÑĢÐ½": 5493,
      "ĠÐŁÐµÑĢÑĪÐ¸Ð½": 5494,
      "ĠÐŁÐµÑĢÐµÐ¿ÐµÑĩ": 5495,
      "ĠÐºÐ¸Ð½Ð»Ñĭ": 5496,
      "ĠÐºÐ»Ð°Ð´": 5497,
      "ÑĬÑıÑģÑĮÐºÐ¾Ð½": 5498,
      "ĠÐºÑĥÑĢÑĥ": 5499,
      "Ð¾ÑĩÐºÐ°": 5500,
      "ÑĥÐ¼Ð°Ð½": 5501,
      "ÑĢÐ¾Ð¼ÑĭÑĪÐ»ÐµÐ½": 5502,
      "ÐµÐ»ÐµÐ½": 5503,
      "ĠÐļÐ¾Ð½ÐµÑĩÐ½Ð¾": 5504,
      "ĠÐĶÐ¼Ð¸ÑĤÑĢÐ¸ÐµÐ²": 5505,
      "Ð¼Ð°ÑĤÐ¾Ð²": 5506,
      "ĠÐŀÐ±ÑĬ": 5507,
      "ĠÐ²ÐµÑĢÐ½ÑĥÐ»Ð°ÑģÑĮ": 5508,
      "ĠÐĳÐ°Ð¹Ð´ÑĥÐ»Ð»Ð¸Ð½Ð°": 5509,
      "ĠÐ±Ð¾Ð»ÑĮÑĪÐ¸Ñħ": 5510,
      "ĠÑĤÑıÐ¼ÑĭÑģ": 5511,
      "ĠÐ¿ÑĢÐµÐ¿Ð¾Ð´Ð°Ð²Ð°ÑĤÐµÐ»ÑĮ": 5512,
      "ÑĢÐµÐ½Ð½Ð¸ÐºÐ¾Ð²": 5513,
      "Ð´ÑĥÐ°ÑĢ": 5514,
      "ĠÐĵÑĢÐ¸Ð³Ð¾ÑĢÑĮÐµÐ²Ð½Ð°": 5515,
      "Ð»ÐµÐºÑĤÐ¸Ð²": 5516,
      "ĠÐĴÐ¾ÑĤÐºÐ°": 5517,
      "ĠÐłÑĥÑģÑģÐºÐ¸Ð¹": 5518,
      "ĠÑĤÐµÐ°ÑĤÑĢÑĭÐ½": 5519,
      "ĠÐĴÐµÑĢÑĪÐ¸Ð½": 5520,
      "ĠÐĴÐµÑĢÐµÑīÐ°Ð³": 5521,
      "ĠÐķÑĢÐ¼Ð°ÐºÐ¾Ð²": 5522,
      "ĠÐļÐ°ÑĢÐ³ÑĥÑĢÑĤ": 5523,
      "ĠÐ±ÑĭÐ»Ð¾": 5524,
      "ĠÐ¼ÑĥÐ¶ÑĩÐ¸Ð½": 5525,
      "Ð²Ð°ÑĢÑīÐ¸": 5526,
      "ĠÑĨÐµÐ½ÑĤÑĢÐ°": 5527,
      "ĠÐ±Ð¸Ð¾Ð»Ð¾Ð³Ð¸": 5528,
      "ĠÐ±Ð¸Ð³ÐµÑĢ": 5529,
      "ĠÑģÐ¿ÑĢÐ¾ÑģÐ¸ÑĪÑĮ": 5530,
      "ĠÐ²ÑģÑĤÐ°Ð»": 5531,
      "ÐľÐ¸ÑħÐ°Ð¹Ð»Ð¾Ð²": 5532,
      "ĠÐ±ÑĥÐ´ÑįÐ¼ÑĭÐ½": 5533,
      "ĠÐĵÐ¾ÑĢÐ¾Ð´": 5534,
      "ÐĵÑĥÑĢÑĤÑĭÐ½": 5535,
      "ÐµÐ»ÑıÐµÐ²": 5536,
      "Ð±Ð¸ÑīÐµ": 5537,
      "ĠÑĤÐ¸ÑĪÐ¸Ð½Ð°": 5538,
      "ĠÐ¾Ð¿ÑĭÑĤ": 5539,
      "ĠÐ¾Ð¿ÑĢÐ¾ÑĤÐ¸Ð²ÐµÐ²ÑĪÐ¸Ñħ": 5540,
      "Ð¢Ð¾Ð»ÑģÑĤÐ¾Ð¹": 5541,
      "ĠÑĥÐ¶Ð°ÑģÑĮÐºÐ¾Ð´Ñĭ": 5542,
      "ĠÐŁÐ¸ÑģÐ°Ð½Ð¸Ñı": 5543,
      "ĠÐļÐ°Ð·Ð°ÑħÑģÑĤÐ°Ð½": 5544,
      "ĠÐĿÐ°Ð³Ð¾Ð²Ð¸ÑĨÑĭÐ½": 5545,
      "ĠÐĳÐ¾Ð»ÑĮÑĪÐ¾Ð¹": 5546,
      "ĠÑģÐ¿ÐµÐºÑĤÐ°ÐºÐ»Ñı": 5547,
      "ĠÐ»Ð¸ÑĤÐµÑĢÐ°ÑĤÑĥÑĢÐ¾Ð²ÐµÐ´": 5548,
      "ĠÑĥÐ¿Ð°Ð»Ð°": 5549,
      "ĠÑĥÐ¹ÑĤÐ¸": 5550,
      "ÐłÐ¾ÑģÑģÐ¸Ñı": 5551,
      "ĠÐ³Ð¾Ð»Ð¾Ð²Ñĥ": 5552,
      "ÐŁÑĢÐ¾ÐµÐºÑĤ": 5553,
      "ĠÐ£ÑĪÐ°ÐºÐ¾Ð²Ð°": 5554,
      "ĠÑĤÓ¥Ð»ÐµÐ´ÑĭÐ·": 5555,
      "ĠÑĢÐµÑģÐ¿ÑĥÐ±Ð»Ð¸ÐºÐ°": 5556,
      "Ð°ÑħÐ¼ÐµÑĤÐ¾Ð²Ð°": 5557,
      "ĠÑģÐ¿ÐµÑĨÐ¸Ð°Ð»Ð¸ÑģÑĤÐ¾Ð²": 5558,
      "ĠÓ§Ð¶Ñĭ": 5559,
      "ĠÐ´Ð¾ÐºÑĥÐ¼ÐµÐ½ÑĤÐ°": 5560,
      "ĠÐºÐ°ÑĦÐµÐ´ÑĢÐ°": 5561,
      "ÐµÐ»ÑĮÑģÐ¾Ð²ÐµÑĤ": 5562,
      "ÐļÐ¸Ð²Ð°Ð»ÑĤÓ¥ÑģÑĮ": 5563,
      "ĠÐŀÐ¿ÑĢÐ¾ÑĤÐ¸Ð²ÐµÐ²ÑĪÐ¸Ñħ": 5564,
      "ÑĭÐ¿ÐºÐ¸": 5565,
      "ĠÐŁÑĢÐ¸Ð²Ð¾Ð»Ð¶": 5566,
      "ĠÐ·Ð°Ð±ÑĭÐ»Ð¾": 5567,
      "ĠÐ¿Ð¸Ð¾ÑģÐ¼ÑĥÑĢÑĤ": 5568,
      "ĠÐĲÑĦÐ³Ð°Ð½Ð¸ÑģÑĤ": 5569,
      "ĠÐĵÐ¾Ð»Ð¾Ð²Ð°": 5570,
      "ĠÐĳÐ°ÑĪÐºÐ¸": 5571,
      "ĠÐ¿Ð¾ÑģÐµÐ»Ðµ": 5572,
      "ĠÐ¼ÑĥÐ½Ð¸ÑĨÐ¸Ð¿Ð°Ð»": 5573,
      "ĠÐĴÐµÐºÑĪÐ¸Ð½": 5574,
      "ĠÐĴÐ»Ð°Ð´ÑĭÐºÐ¸Ð½Ð°": 5575,
      "ĠÐºÑĥÐ½Ð¾Ð¾Ñģ": 5576,
      "ĠÐ½Ð°Ð·Ð²Ð°Ð»": 5577,
      "ĠÐ¼ÐµÐ´ÑģÐµÑģÑĤÑĢÐ°": 5578,
      "ĠÑĦÑĥÑĤÐ±Ð¾": 5579,
      "ĠÐ¿Ó§Ð·ÑĮ": 5580,
      "ÐľÑĥÐ·ÑĬÐµÐ¼": 5581,
      "Ð¾Ð½Ð¾Ð³ÑĢÐ°Ð¼Ð¼Ð°": 5582,
      "ĠÐ¿Ð°ÑģÑĮÐºÑĭÑĤ": 5583,
      "ĠÐ¼ÐµÐ´Ð¸ÑĨ": 5584,
      "ĠÐĴÐµÑģÐ½Ð°": 5585,
      "ĠÐĺÐ½ÑĤÐµÑĢ": 5586,
      "ĠÑĤÐµÐ»ÐµÐ²Ð¸Ð·Ð¾ÑĢ": 5587,
      "ĠÐĽÐµÐ±ÐµÐ´ÐµÐ²": 5588,
      "ĠÑģÑįÑĢÐµ": 5589,
      "ĠÐĿÑĭÐ½ÐµÑĪÐ½Ð¸Ð¹": 5590,
      "ĠÐłÑĥÐºÐ¾Ð²": 5591,
      "ĠÑĢÑĥÑģÑģÐºÐ¾Ð¹": 5592,
      "ĠÐºÐ¾Ð¼Ð°Ð½Ð´Ð¾Ð²Ð°Ð»": 5593,
      "ĠÑĤÑĢÐµÐ½Ð¸ÑĢÐ¾Ð²": 5594,
      "ĠÐķÑĦÑĢÐµÐ¼Ð¾Ð²": 5595,
      "ĠÐ´Ð¸Ð·Ð°Ð¹Ð½ÐµÑĢ": 5596,
      "ĠÐĶÐ¸ÑĢÐµÐºÑĤÐ¾ÑĢ": 5597,
      "ĠÑĢÑĥÑģÑģÐºÐ¸Ð¹": 5598,
      "ĠÐĵÐ°Ð½ÑĮÐºÐ¾Ð²Ð°": 5599,
      "ĠÐĳÐ°Ð»ÑĤÐ°": 5600,
      "ÐĽÑĭÐºÑĤÓ¥": 5601,
      "ĠÐļÐ¾ÑĤÐµÐ»ÑĮÐ½Ð¸ÐºÐ¾Ð²": 5602,
      "ĠÐ·Ð°Ð¿Ð¾Ð»Ð½": 5603,
      "ĠÐĲÐ½Ð°ÑĤÐ¾Ð»ÑĮ": 5604,
      "ĠÑĤÐµÑħÐ½Ð¾Ð»Ð¾Ð³Ð¸": 5605,
      "ĠÐľÑĭÐ½ÑĭÐ¼": 5606,
      "Ð»Ð¸Ð¼Ð¿Ð¸": 5607,
      "ÐºÑĤÑĥÐºÑĤÑĥ": 5608,
      "ĠÐ¿ÑĢÐ¸ÑħÐ¾Ð´Ð¸Ð»": 5609,
      "Ð®ÑĢÑĤÑĤÓ¥ÑģÐµÐ·": 5610,
      "ĠÐľÐ°ÐºÑģÐ¸Ð¼Ð°": 5611,
      "ÐĲÐ²ÑĤÐ¾Ð±ÑĥÑģ": 5612,
      "ĠÐĵÐ»Ð°Ð²Ð°ÑĤÑģÐºÐ¸Ñħ": 5613,
      "ĠÐ¢ÑĢÐ¾ÑĦÐ¸Ð¼Ð¾Ð²Ð°": 5614,
      "ÐļÐĴÐĺÐĿÐĲ": 5615,
      "ĠÑħÐ²Ð°Ð»ÑıÑĤ": 5616,
      "ĠÐ¢Ð¸Ð¼Ð¸ÑĢ": 5617,
      "Ð¸ÑĤÐºÐµÐ²Ð¸Ñĩ": 5618,
      "ÐĿÐµÑĦÑĤÐµÐºÐ°Ð¼ÑģÐº": 5619,
      "ĠÐĶÐ¾Ð½Ð´Ñĭ": 5620,
      "ĠÑİÐ±Ð¸Ð»ÐµÐ¹": 5621,
      "ĠÑĤÐµÐ½Ð½Ð¸": 5622,
      "ĠÐĺÑĤÐ°Ð»Ð¸": 5623,
      "ĠÐłÑĥÑĩÐºÐ¸Ð½Ð°": 5624,
      "ĠÐ¿Ð°Ð¼ÑıÑĤÐ½Ð¸Ðº": 5625,
      "ĠÐĵÐĺÐĽÐ¬": 5626,
      "ĠÐĶÑĥÑĪÐµÐ½ÐºÐ¾Ð²Ð°": 5627,
      "ĠÐ¢ÑĥÐ¹Ð¼Ð°ÑĤÐ¾Ð²": 5628,
      "Ð¨Ð°ÑĢÐºÐ°Ð½": 5629,
      "ĠÓŁÑĭÐ³ÑĭÑĢ": 5630,
      "ĠÐ¾ÑĢÐ³Ð°Ð½Ð¸Ð·Ð°": 5631,
      "ĠÑĢÐ°ÑģÐ¿ÑĢÐ¾ÑģÑĤÑĢÐ°Ð½Ð¸": 5632,
      "ĠÐºÐ°Ð½Ð¸ÐºÑĥ": 5633,
      "ĠÐĺÑĤÐµÑĪÐ¸Ð½Ð°": 5634,
      "ÑĦÑĥÑĤÑĥÑĢ": 5635,
      "ĠÐľÐŀÐ¡ÐļÐĴÐĺÐĿÐĲ": 5636,
      "ĠÐ¿ÑĢÐµÐ¼ÑĮ": 5637,
      "ĠÐ¡Ð±ÐµÑĢÐ±": 5638,
      "ĠÐĵÑĢÑıÐ·ÐµÐ²": 5639,
      "ĠÐĽÐ°ÑĢÐ¸Ð¾Ð½Ð¾Ð²Ð°": 5640,
      "ÐĿÐ°Ð´Ñı": 5641,
      "ĠÐ½ÐµÐ±ÑĭÐ²Ð°Ð»": 5642,
      "Ð°ÐºÐ¾Ð²": 5643,
      "Ð¾Ð»Ð°": 5644,
      "Ð¾ÐºÐ¾Ð»Ð°": 5645,
      "Ð¸ÐºÐµ": 5646,
      "Ð¸ÐºÐ°Ñı": 5647,
      "Ð½ÐµÐ¼": 5648,
      "Ð½ÑĥÐ»": 5649,
      "ÑĢÑıÐ½": 5650,
      "ÑĢÑĭÑĤ": 5651,
      "ÑģÐ½Ð¾": 5652,
      "ÑģÐ°Ð´": 5653,
      "ÑģÑĪÐ¸": 5654,
      "ÑĥÑĤÐ¸Ð½Ð°": 5655,
      "Ð²Ð¸Ñģ": 5656,
      "Ð²Ð°ÑĤÑĮ": 5657,
      "ÑĭÑĪÐµÐ²": 5658,
      "Ð½Ð°Ð¼": 5659,
      "ÑĮÑĭÐ½": 5660,
      "ÑıÐ»": 5661,
      "ÑĤÐ¸Ðº": 5662,
      "ÑĤÐ¸Ñĩ": 5663,
      "ÑĥÑĢÑĭÑĤ": 5664,
      "ĠÐ²ÑĤÐ¾ÑĢ": 5665,
      "ĠÐ²ÐµÐ»Ð¾ÑģÐ¸": 5666,
      "Ð·Ð¾ÑĢÐ¾Ð²": 5667,
      "ÑĢÐ°ÐºÐ°Ð½": 5668,
      "ÑĪÐºÑĭÐ»Ð¸": 5669,
      "ĠÐ½ÐµÑĢ": 5670,
      "ÑįÐ´": 5671,
      "ÑįÑĢÐ¾": 5672,
      "ĠÐ£Ð´Ð¼ÑĥÑĢÑĤÐ¸Ð»ÑįÐ½": 5673,
      "ĠÐºÐ°Ð¼": 5674,
      "ĠÐºÐ°ÑĪ": 5675,
      "Ð»ÑĮÐ¾Ð½": 5676,
      "ĠÑĤÐ¾Ð´Ð°": 5677,
      "ÐºÐ°ÑĢÐµ": 5678,
      "ÐºÐ°Ð·Ñĭ": 5679,
      "Ð¾ÑĢÑĥÑģ": 5680,
      "ĠÐľÑı": 5681,
      "ĠÐľÐ°Ð¹": 5682,
      "ĠÐľÐ¾ÑĤÐ¾ÑĢ": 5683,
      "ĠÐľÐ¸Ð»Ð¸ÑĤÐ¸Ð½Ð°": 5684,
      "ĠÑģÐ¸ÑĢ": 5685,
      "ĠÑģÐ»ÐµÑģÐ°ÑĢ": 5686,
      "ĠÑģÐ½Ð¾Ð²Ð°": 5687,
      "ĠÑģÐºÑĥÐ»ÑĮ": 5688,
      "ĠÑģÐ¼ÐµÐ½Ð°": 5689,
      "ĠÑģÐ´ÐµÐ»Ð°": 5690,
      "ĠÑģÓ§ÑģÑĭÑĢ": 5691,
      "Ð°Ð»Ð¾Ð²Ð°": 5692,
      "Ð°Ð»Ð»Ð¾": 5693,
      "Ð°Ð»ÑĤÑį": 5694,
      "Ð°Ð½ÑĤÑĭ": 5695,
      "ĠÐ½Ð°Ð³ÑĢÐ°": 5696,
      "Ð¿Ñĭ": 5697,
      "Ð¿Ð¸Ñģ": 5698,
      "Ð¿ÑĥÐ»": 5699,
      "ÐµÐ½ÐµÐ²": 5700,
      "ÐµÐ½Ð¸Ð½Ð°": 5701,
      "ĠÐ¿Ð°ÑĤ": 5702,
      "ĠÐ¿Ð¾ÑĢÑĤ": 5703,
      "ÐľÐ¸ÑĤ": 5704,
      "Ð»Ð°Ð¼Ð°": 5705,
      "ĠÐ¡Ð¾Ð²": 5706,
      "ĠÐ¡Ð¸Ð½": 5707,
      "ĠÐ¡ÑĭÑĢ": 5708,
      "ĠÐ¼ÐµÑĢÐµ": 5709,
      "ĠÐ¼Ð°Ð¼Ð°": 5710,
      "ĠÐ¼Ð¸Ð»Ð»Ð¸": 5711,
      "ÑģÑĤÐµÑĢ": 5712,
      "ÑģÑĤÑĢÐµ": 5713,
      "ÑģÑĤÑįÐ¼": 5714,
      "ĠÐĴÐµÑĩ": 5715,
      "ĠÐĴÐ¸ÐºÐ°": 5716,
      "ĠÐĴÐ°Ð½Ñı": 5717,
      "ĠÐĴÐ½ÑĥÐº": 5718,
      "ĠÐļÐ»Ðµ": 5719,
      "ĠÐļÐ¾Ñģ": 5720,
      "ĠÐļÐ£": 5721,
      "ĠÐļÐµÐ´": 5722,
      "ĠÐļÑĭÐ»": 5723,
      "ĠÐļÐ¾ÑģÑĤ": 5724,
      "ĠÐļÓ§Ð½Ñı": 5725,
      "ĠÐļÐ¸ÑĤÐ°": 5726,
      "ĠÐļÐµÐ´ÑĢÐ°": 5727,
      "ĠÐķÐĵÐŃ": 5728,
      "ĠÑĥÑģÐµÐ¼": 5729,
      "Ð°ÑĤÑįÐº": 5730,
      "ĠÐ¸Ð¼": 5731,
      "ĠÐ¸ÑģÐºÐ°": 5732,
      "ĠÐ¸ÑģÑĮÐºÐµÐ¼": 5733,
      "ĠÐĲÐ»Ð°": 5734,
      "ĠÐĲÐ»Ð¸": 5735,
      "ĠÐĿÐ¾Ð¼": 5736,
      "ÑĤÐ¾Ð·Ñĭ": 5737,
      "ÑĤÐ¾Ð·ÑĮ": 5738,
      "ÑĤÐ¾ÐµÑģÑĮ": 5739,
      "ĠÐ¢Ð°ÑĤÑĭÐ½": 5740,
      "ĠÐ¢ÑĥÐ½Ð½Ñį": 5741,
      "ĠÐ¢ÐµÑħ": 5742,
      "ÐĲÐ¨": 5743,
      "ÐĲÐ»ÑĮÐ±ÐµÑĢÑĤ": 5744,
      "ĠÐ³Ð¸Ð¼": 5745,
      "ĠÐ³Ð¾ÑĤÐ¾Ð²Ð°": 5746,
      "ĠÐ³ÑĥÐ¶ÐµÐ¼": 5747,
      "ĠÐ³Ð¾ÑģÑĤÑıÑħ": 5748,
      "Ð»Ð¾Ð¹": 5749,
      "ĠÐĵÐ°Ð»Ñı": 5750,
      "ĠÐĵÐ¸ÑĤÐ»ÐµÑĢ": 5751,
      "ÐļÐ¾ÑģÑĤÑı": 5752,
      "ÐļÑĥÐ»Ð°ÐºÐ¾Ð²Ð°": 5753,
      "Ð½Ð¸Ñĩ": 5754,
      "Ð½Ð¸ÑĨ": 5755,
      "ĠÐĳÐ¾Ð±": 5756,
      "ĠÐĳÐµÑħ": 5757,
      "ĠÐĳÑĢÐ°Ð½Ð³ÑĥÑĢÑĤÑĭÑģÑĮ": 5758,
      "ĠÐŁÐ¾ÑĤ": 5759,
      "ĠÐŁÐ°Ð´": 5760,
      "ĠÐŁÐ¾Ð»ÑĮ": 5761,
      "ĠÐŁÐ¾Ð»Ð¸": 5762,
      "ÐĴÐ¸": 5763,
      "ÐĴÐ»Ð°Ð´Ð¸": 5764,
      "ÐĴÐ¸ÑĤÐ°Ð»Ð¸Ð¹": 5765,
      "Ð¢Ð¾": 5766,
      "Ð¢ÑĢÐ°ÐºÑĤÐ¾ÑĢ": 5767,
      "ĠÐ»ÐµÐ³": 5768,
      "ĠÐ»ÑĥÑĩÑĪÐµ": 5769,
      "ĠÐ»ÐµÐ¹ÑĤÐµÐ½Ð°": 5770,
      "ÑĦÑĤÑĮ": 5771,
      "ÑĳÑģÑĭÐ½": 5772,
      "ÑĢÐ¸ÑĦ": 5773,
      "ĠÑĪÐºÐ¾Ð»Ð¾": 5774,
      "ÐķÐ»Ð¸Ð·Ð°Ð²ÐµÑĤÐ°": 5775,
      "ĠÐ±ÑĥÐº": 5776,
      "ĠÐłÐµÐ²": 5777,
      "ĠÐłÐŀ": 5778,
      "Ð¸ÑĤÐ¾ÑĢ": 5779,
      "Ð¸ÑĤÐ¾Ð½": 5780,
      "Ð¾Ð´ÑĭÐ½": 5781,
      "ÑģÐ¸Ð±": 5782,
      "ĠÑıÐ»ÑįÐ¼ÑĭÐ½": 5783,
      "ĠÐĽÐ°Ð²": 5784,
      "ĠÐĽÐµÑĤÐ¾Ð¼": 5785,
      "ĠÐŀÐ²": 5786,
      "ĠÐŀÑģÐ¸": 5787,
      "ĠÐŀÑĢÐ¸Ð½Ð°": 5788,
      "ĠÐŀÐ½ÐµÐ³": 5789,
      "ĠÐ°ÑĢÐµÐ·": 5790,
      "ÐºÐ¾Ð²ÐµÐ·": 5791,
      "ÐŀÑĢ": 5792,
      "ĠÐĿÐ¸ÑĩÐµÐ³Ð¾": 5793,
      "ÐĺÐ¾ÑģÐ¸ÑĦ": 5794,
      "ÐĺÐłÐŀ": 5795,
      "ĠÐ¡Ð°Ñħ": 5796,
      "ÐĿÐµÐ²": 5797,
      "ĠÐĹÐ°Ð½": 5798,
      "ĠÐĹÐ°ÑĤ": 5799,
      "ĠÐĹÐ°Ð±": 5800,
      "ÐºÑģÐ¿": 5801,
      "ĠÑĩÑĥÑĢÑĭÑĤ": 5802,
      "ÐµÐ¼ÐµÐ½": 5803,
      "ÐµÐ¼ÑĭÐ½": 5804,
      "ĠÐĶÐµÐ¼ÑĮ": 5805,
      "ÐĵÑĥÑĢ": 5806,
      "ÐĵÐ°Ð·ÐµÑĤ": 5807,
      "ĠÑĪÑĥÑĭÑģÐ°Ð»": 5808,
      "ĠÑįÐ½": 5809,
      "ÐµÐ¿Ð°Ð½Ð¾Ð²Ð°": 5810,
      "ÐµÐ¿ÑĭÑĩ": 5811,
      "Ð°Ð²ÑĤÐ¾": 5812,
      "Ð£Ð»ÑĮÑıÐ½Ð°": 5813,
      "ĠÐ¨Ð¾Ð½ÐµÑĢ": 5814,
      "ĠÐ¨Ð¸ÑĪÐºÐ¸Ð½": 5815,
      "ĠÐ¨Ð¾Ð»Ð¾ÑħÐ¾Ð²": 5816,
      "ĠÐ½ÐµÐ¼ÐµÑĨ": 5817,
      "ĠÐ§ÐµÐ»": 5818,
      "ĠÐ§ÐµÑĩ": 5819,
      "ÐµÐ´Ð¾Ð¼": 5820,
      "ÑĤÑĮÐµÐ²Ð¸Ñĩ": 5821,
      "ÑĤÑįÑģÑĮ": 5822,
      "ÑĬÑıÑģÑĮÐºÐ¾": 5823,
      "ÑģÑĮÐºÐ¾Ð´Ñĭ": 5824,
      "ĠÑĦÑĢÐ°Ðº": 5825,
      "Ð¾ÑĪÐ°Ñı": 5826,
      "ÑĭÐ»Ó¥Ð·": 5827,
      "ĠÐļÐ¾ÑĢÐ¾ÑĤÐ°": 5828,
      "ĠÐĿÐ°Ð´ÐµÐ¶": 5829,
      "ĠÐĿÐ°ÑĨÐ¸Ð¾Ð½Ð°": 5830,
      "ĠÐºÑĥÐ°ÑĤÑĮ": 5831,
      "ĠÐĺÐ¶ÑĭÐ½": 5832,
      "Ð½ÐµÐ½Ð°": 5833,
      "ĠÐºÐ°ÑĢÐ¸Ð·": 5834,
      "ÐľÐ°ÑĢÐ³Ð°ÑĢÐ¸ÑĤÐ°": 5835,
      "ÑĥÑĪÐ¸Ð½Ð°": 5836,
      "ĠÐ¾Ð±ÐºÐ¾": 5837,
      "ĠÐŃÐ´ÑĥÐ°ÑĢ": 5838,
      "ĠÐ¼ÐµÑĪÐ°": 5839,
      "ĠÐ¢ÑĥÐ±": 5840,
      "Ð°Ð·ÑĮ": 5841,
      "Ð¾ÑģÑĤÑĢÐ¾": 5842,
      "ĠÑĢÐ°Ð±Ð¾ÑĤÐ°ÐµÐ¼": 5843,
      "Ð¸Ð´Ð¶ÐµÐ¹": 5844,
      "Ð¾Ð»Ð¾ÑģÑĭ": 5845,
      "ĠÐľÐ°ÑĢÐºÑģ": 5846,
      "ĠÐľÐ°ÑĢÐºÐ¾Ð²Ð°": 5847,
      "ÐĶÑı": 5848,
      "ÐĶÐ¸Ñģ": 5849,
      "ĠÐĿÐ¸ÐºÐ¾Ð»Ð°Ñı": 5850,
      "ĠÐ¢ÑĥÐ³Ð°Ð½Ð°ÐµÐ²": 5851,
      "Ð»Ð¾Ð²Ð¾": 5852,
      "ĠÐĲÐ½Ð¶ÐµÐ»Ð¸ÐºÐ°": 5853,
      "ĠÐ²ÐµÑĢÐ°Ð¹": 5854,
      "ĠÐ²ÐµÑĢÐ°ÑģÑĮÐºÐµ": 5855,
      "ĠÐĲÐ»ÐµÐºÑģÐ°Ð½Ð´ÑĢÐ¾Ð²Ð½Ð°": 5856,
      "ÐĹÐ°Ð»": 5857,
      "ÐĹÐ£ÐĽÐĽÐĺÐĿÐĲ": 5858,
      "ĠÐ³Ð¾ÑĢÐ¾Ð´Ñį": 5859,
      "ĠÑĥÐ´Ð¼ÑĥÑĢÑĤÑģÐºÐ¾Ð³Ð¾": 5860,
      "ĠÐ°ÑĢÐ³Ð°Ð½": 5861,
      "ÑĩÐ°Ñģ": 5862,
      "ÐŃÐĿ": 5863,
      "Ð¸Ð¼Ð¾Ð½": 5864,
      "ĠÑģÑĤÐµÐ½": 5865,
      "ĠÐ²Ð¸ÑģÐ¸": 5866,
      "ĠÐ¥ÑĥÐ·Ð¸": 5867,
      "ĠÐ¥Ð£ÐĹÐĺ": 5868,
      "ĠÐ®Ð½Ð´Ð°": 5869,
      "Ð°ÑĪÐ¸Ð½Ð°": 5870,
      "ĠÑģÑĳÑĤÑĭ": 5871,
      "ĠÑģÑĳÑĤÑįÐ¼": 5872,
      "ĠÑĢÐµÐ·": 5873,
      "Ð³Ð¾Ðµ": 5874,
      "ĠÐ¿ÐµÑĢÐ²Ð°Ñı": 5875,
      "ĠÐ¿ÐµÑĢÐµÐ¿ÐµÑĩ": 5876,
      "ĠÐ¿ÐµÑĢÐµÐ¿ÐµÑĩÐ¸": 5877,
      "ÑįÐ½ÑĭÐ·": 5878,
      "ĠÐ¼ÑĥÐºÐµÑĤÑģÑį": 5879,
      "Ð°Ð³Ð¾Ð²": 5880,
      "ĠÐ½Ð°Ð¿Ð¸ÑĪ": 5881,
      "ÐµÐ»Ð¾Ð²Ð¾Ð´": 5882,
      "Ð´ÑĢÐµÑģ": 5883,
      "ÑİÑĤÑģÑı": 5884,
      "ÐľÐ¸Ð»Ðµ": 5885,
      "ÐľÐ¸ÐºÐ¾Ð»": 5886,
      "ĠÐ¿Ð¾Ð¼Ð¾Ð³Ð°": 5887,
      "ĠÐºÑĭÐ»ÑģÑıÑĢÑĭÑģÑĮ": 5888,
      "ĠÐ¸Ð½ÑĤÐµÑĢÐµÑģÐ½Ð°": 5889,
      "ĠÑĥÑģÑĮÑĤÑįÐ¼ÑĭÐ½": 5890,
      "ĠÐ½Ð¾Ð²Ð¾Ð³Ð¾": 5891,
      "ĠÐ¡ÑĤÑĥÐ´ÐµÐ½ÑĤ": 5892,
      "Ð¾Ð¿Ð°ÑĢ": 5893,
      "ĠÐłÐ°ÑģÐ¿": 5894,
      "ĠÑĥÑĢÐ¾": 5895,
      "ĠÑĤÐµÐ°ÑĤÑĢÐ°": 5896,
      "ĠÐ²ÑĭÐ±Ð¸ÑĢÐ°ÐµÑĤ": 5897,
      "Ð¥Ð¾Ð·ÑıÐ¹": 5898,
      "Ð®Ð»Ñı": 5899,
      "ÐµÐ½Ð°ÑĤ": 5900,
      "ÑĥÑĢÐ½Ð°Ð»Ð¸ÑģÑĤ": 5901,
      "ĠÓµÑĥÐºÐ°Ð·Ðµ": 5902,
      "ĠÑģÑİÐ»ÑįÐ¼Ñĭ": 5903,
      "Ð¾ÑĩÐ¸Ð½": 5904,
      "ĠÐ¢Ð°ÐºÐ¸Ñħ": 5905,
      "ĠÑĢÐ°Ð´ÑıÑĤÑģÑı": 5906,
      "ĠÑģÐµÐ¼ÑĮÑıÑĭÐ½": 5907,
      "ÑĢÐµÐ´Ð¸ÑĤ": 5908,
      "ĠÐŁÑĢÐ¾ÑĦÐµÑģÑģÐ¾ÑĢ": 5909,
      "ÑĩÐµÑģÐºÐ°Ñı": 5910,
      "ĠÑıÑĢÐ°ÑĤÓ¥ÑģÑĮÐºÐ¾Ð¼": 5911,
      "Ð»ÐµÐ´ÑģÑĤÐ²": 5912,
      "ĠÐ»ÑĭÐºÑĤÑĭ": 5913,
      "ĠÑĤÓ¥Ð»ÑıÐ´": 5914,
      "ĠÐ½Ð°ÑĥÑĩÐ¸ÑĤÑĮ": 5915,
      "ĠÐ³Ð°Ð·ÐµÑĤÐ»ÑįÐ½": 5916,
      "ĠÐ±ÐµÑĢÑĤÑį": 5917,
      "ĠÐ±ÐµÑĢÑĤÓ¥Ð·Ñĭ": 5918,
      "ĠÐ´Ð¾ÑĢÐ°Ð¼": 5919,
      "ĠÐ»ÑĭÐºÑĤÓ¥Ð·Ñĭ": 5920,
      "ĠÐļÑĥÐ½Ð°ÐµÐ²": 5921,
      "ĠÐ¿ÑĢÐµÐ¼Ð¸Ñı": 5922,
      "Ð¼ÐµÑĤÐ¾Ð²Ð°": 5923,
      "ĠÑģÐµÐ¼ÑĮÑİ": 5924,
      "ĠÐºÐ¾ÑĢÑĢÐµÐºÑĤÐ¾ÑĢ": 5925,
      "ĠÑĥÑĩÐµÐ±": 5926,
      "ĠÐłÑĥÑģÑģÐºÐ°Ñı": 5927,
      "ĠÐłÑĥÑģÑģÐºÐ¸Ðµ": 5928,
      "ĠÐ¿ÑĢÐ¾ÐµÐºÑĤÐµ": 5929,
      "ĠÐ¢ÑĢÐ¸ÑģÑĤÐ°Ð½": 5930,
      "ĠÐ±Ð¾ÑĢÐ´ÑĭÑģÑĮ": 5931,
      "ĠÐķÑĢÐ¼Ð°ÐºÐ¾Ð²Ð°": 5932,
      "ĠÐļÐ°ÑĢÐ¿Ð¾Ð²Ð°": 5933,
      "ĠÐļÐ°ÑĢÐ¸Ð¼Ð¾Ð²": 5934,
      "ĠÐĽÐµÐ¾Ð½Ð¸Ð´Ð¾Ð²Ð¸Ñĩ": 5935,
      "Ð¸Ð½ÑĭÑħ": 5936,
      "ĠÑģÑĤÑĥÐ´ÐµÐ½ÑĤÐ¾Ð²": 5937,
      "ĠÐ±Ð¸Ð±Ð»Ð¸Ð¾ÑĤÐµÐºÐ°ÑĭÐ½": 5938,
      "ĠÑħÐ¾ÑĢÐ¾ÑĪÐ¸Ðµ": 5939,
      "ĠÑĦÐ°Ð¼Ð¸Ð»Ð¸": 5940,
      "ĠÐ°ÑĢÑĤÐ¸ÑģÑĤÐºÐ°": 5941,
      "ĠÑģÐ¾Ð±Ð¾ÑĢ": 5942,
      "ĠÐ²Ð°Ð»ÑįÐºÑĤÐ¾": 5943,
      "ĠÐ²Ð°Ð¼ÑĭÑĪÑĤÓ¥": 5944,
      "ĠÐłÐ°Ð´Ð¾Ð²Ð°Ð»ÑģÑı": 5945,
      "ÐĲÑĢÑħ": 5946,
      "ĠÐ¿Ð¾Ð¹Ð¼Ñĥ": 5947,
      "ĠÐ¼Ð°ÑĪÐ¸Ð½Ðµ": 5948,
      "ĠÑıÑĢÐºÐ¾": 5949,
      "ĠÑıÑĢÐ¼Ð°ÑĢ": 5950,
      "Ð¡ÑİÐ»ÑįÐ¼Ñĭ": 5951,
      "ĠÐ»ÐµÑĤÐ¾Ð¼": 5952,
      "ĠÐ¿Ð¾Ð¼Ð¾Ð³ÑĥÑĤ": 5953,
      "ĠÑĪÐµÐ´ÑĮÑĤÓ¥": 5954,
      "ĠÑĪÐµÐ´ÑĮÑĤÑĭÐ½Ñĭ": 5955,
      "ĠÐļÐ°Ð·Ð°Ð½": 5956,
      "ÐļÐ¾Ð½ÑģÑĤÐ°Ð½ÑĤÐ¸Ð½": 5957,
      "ÐļÐ¾Ð½ÑĨÐµÑĢÑĤ": 5958,
      "ÐļÐ¾Ð½ÐºÑĥÑĢÑģ": 5959,
      "ĠÑĥÑģÑĮÑĤÓ¥ÑģÑĮÐºÐµ": 5960,
      "ÐĴÐ°ÑģÐ¸Ð»ÑĮ": 5961,
      "ĠÑĤÑĥÐ½ÑģÑĭÐºÑĬÑıÑģÑĮÐºÐ¸": 5962,
      "ÑĥÐ¿ÑĭÐ»ÑĮ": 5963,
      "Ð¢Ó¥Ð»ÐµÐ´": 5964,
      "ĠÐ¡ÐµÑĢÐ´ÑĨÐµ": 5965,
      "ĠÐĽÑİÐ´Ð¸": 5966,
      "ĠÐĽÑİÐ´Ð°": 5967,
      "ĠÑĢÐµÑģÐ¿ÑĥÐ±Ð»Ð¸ÐºÐµ": 5968,
      "ÐľÐ°Ð¸Ð·": 5969,
      "ĠÐ¢Ð¾Ð»ÑģÑĤÐ¾Ð¹": 5970,
      "ĠÐºÑĢÐ°ÑģÐ¾ÑĤÑĥ": 5971,
      "ÐĳÐ¾ÑĢÐ¸ÑģÐ¾Ð²": 5972,
      "ĠÐĿÐµÐ²ÑģÐºÐ¸Ð¹": 5973,
      "ÐĽÐµÐºÐ¾Ð¼": 5974,
      "ĠÐ¼ÑĭÐ½Ó¥Ð¼Ñĭ": 5975,
      "ÐºÐ¾Ð½Ð¾Ð¼Ð¸ÐºÐ°": 5976,
      "ÑģÐµÑĢÑĤÐ°": 5977,
      "ĠÐĺÐ³ÑĢÑĭ": 5978,
      "ÐļÐ¾ÑĪÐºÐ¸": 5979,
      "ĠÐ²ÑĭÐ¿Ð¾Ð»Ð½ÑıÑĤÑĮ": 5980,
      "ĠÐļÑĭÑĤÑĩÑĭ": 5981,
      "ĠÑĤÐ°ÑĤÑĭÑģÑĮ": 5982,
      "ĠÐ¼Ð°Ðµ": 5983,
      "ĠÐŁÑĢÐ¾ÐºÐ¾Ð¿ÑĮÐµÐ²": 5984,
      "ĠÐ¾ÑĤÐºÑĢÑĭÐ»Ð°": 5985,
      "Ð°Ð»ÑĭÐºÐºÑĥÑģÐ¿Ð¾": 5986,
      "ĠÑĥÐ¼ÐµÑĢÐ»Ð°": 5987,
      "ÐĴÐ¸ÐºÑĤÐ¾ÑĢÐ¸Ñı": 5988,
      "ĠÐľÐ¸ÑĢÐ¾Ð½Ð¾Ð²Ð°": 5989,
      "ĠÐ´Ð¸ÑģÐºÐ¾ÑĤÐµ": 5990,
      "ĠÐļÑĢÐµÑģÑĤÑĮÑıÐ½Ð¸Ð½Ð¾Ð²": 5991,
      "ĠÑģÑĤÐ°Ð½ÑĨÐ¸Ð¸": 5992,
      "ĠÑĢÐµÐ´Ð°ÐºÑĨÐ¸Ð¸": 5993,
      "ÑĩÐºÐ°ÑĪÑĥÑĢ": 5994,
      "Ð¨ÑĥÐ¼Ð¿Ð¾ÑĤÑĭÑģÐ°": 5995,
      "ÐĲÐ¥ÐĲÐł": 5996,
      "ĠÑģÑĤÐ°Ð´Ð¸Ð¾Ð½Ðµ": 5997,
      "ĠÐ»ÐµÑĩÐ°ÑĤ": 5998,
      "ÐĿÑĭÐ»ÐºÑĭÑĪÐ½Ð¾Ð¾Ñģ": 5999,
      "ÑįÑģÑĮÑĤÑĭÐ¼": 6000,
      "ĠÑģÐ±Ð¾ÑĢÐ½Ð¸Ðº": 6001,
      "ĠÐ¡Ð¾Ð±Ð¸Ð½Ð°": 6002,
      "ĠÑĥÐ¶Ð°Ð¼ÑĭÐ½": 6003,
      "ÐĿÐ¾ÐºÐ¸Ð½Ð»Ñĭ": 6004,
      "ĠÐľÐ¸ÑĤÑĢÐ¾ÑĦÐ°Ð½Ð¾Ð²": 6005,
      "ĠÐľÑĥÑģÐ°Ð»Ð¸Ð¼Ð¾Ð²": 6006,
      "Ð¿ÑĥÑģÐº": 6007,
      "ĠÐ¿Ð¾Ð²ÐµÑģÑĤÑĮ": 6008,
      "ĠÐĺÐ½ÑĤÐµÑĢÐ½ÐµÑĤ": 6009,
      "ĠÐ³ÑĢÐ°Ð½ÑĤ": 6010,
      "ĠÐ±ÑĢÐ¸Ð³Ð°Ð´Ð¸ÑĢ": 6011,
      "Ð¡Ð¿Ð¾ÑĢÑĤÑĬÑı": 6012,
      "ÐŁÑĥÐºÐ¸ÑģÑĮÐºÐ¾": 6013,
      "ĠÐºÐ°ÑĢÐ¸ÑģÑĮÐºÐ¾Ð¼": 6014,
      "ÐĹÐĺÐĹÐ£ÐĽÐĽÐĺÐĿÐĲ": 6015,
      "ĠÐ¡ÐµÑĢÐµÐ±ÑĢÑıÐ½": 6016,
      "ÐŀÐ´Ó¥Ð³ÐµÐ·": 6017,
      "ÐµÑĢÐ¸Ð½Ð°ÑĢ": 6018,
      "ĠÐ¢Ð¸Ð¼Ð¾ÑĦ": 6019,
      "ĠÐĵÐ°Ð½ÑĮÐºÐ¾Ð²": 6020,
      "ÐĴÐ¾ÐºÑģÑĳ": 6021,
      "ĠÑĢÐµÐ¿ÐµÑĤÐ¸": 6022,
      "ÐŁÐµÑĤÑĢÐ¾Ð²Ð»ÑįÐ½": 6023,
      "ĠÐ²Ó§Ð»Ð¼ÐµÐ¼ÑĭÐ½": 6024,
      "ĠÐ¯Ð¿Ð°ÑĢÐ¾Ð²": 6025,
      "ĠÐłÐµÑģÐ¿ÑĥÐ±Ð»Ð¸ÐºÐ°": 6026,
      "ĠÐŀÑĢÐ»Ð¾Ð²": 6027,
      "ĠÐ§Ð°Ð¹ÐºÐ¾Ð²ÑģÐºÐ¾Ð³Ð¾": 6028,
      "ĠÐļÐ°Ð¼Ð°ÑĪÐµÐ²Ð°": 6029,
      "ÑĬÑıÑģÑĮÐºÑĭÐ½Ñĭ": 6030,
      "ĠÐļÐ¾Ð½Ð´ÑĢÐ°ÑĤ": 6031,
      "ĠÐ³ÑĥÑĢÑĤÐ¾Ð¾Ñģ": 6032,
      "ĠÐ¿Ð°Ð»ÑįÐ½Ñį": 6033,
      "ĠÐĹÐ°ÑĢÐ¿Ð»Ð°": 6034,
      "ĠÐĿÐ°Ð¿ÑĢÐ¾ÑĤÐ¸Ð²": 6035,
      "ĠÑĨÐµÐ½Ñĥ": 6036,
      "ĠÑģÐµÐºÑĢÐµÑĤÐ°ÑĢÑĮ": 6037,
      "ĠÑĩÐµÐ¼Ð¿Ð¸Ð¾Ð½Ð°": 6038,
      "ĠÐĲÑĦÐ°Ð½Ð°ÑģÑĮÐµÐ²Ð¸Ñĩ": 6039,
      "ĠÐĲÑĢÐ·Ð°Ð¼Ð°Ð·": 6040,
      "ÐĿÐ¸ÐºÐ¸ÑĤÐ°": 6041,
      "ĠÐ±Ð¸Ð°ÑĤÐ»Ð¾Ð½Ð¸ÑģÑĤ": 6042,
      "ĠÐºÐ¾ÑģÑĤÑİÐ¼": 6043,
      "ĠÑĤÐ°Ð»Ð°Ð½ÑĤ": 6044,
      "ĠÐĲÐ¼ÐµÑĢÐ¸ÐºÐ°": 6045,
      "ĠÐ¢ÑİÑĢÐ¸Ð½": 6046,
      "ĠÐĳÐµÐ»ÑĭÑħ": 6047,
      "ĠÐ·Ð¾Ð¾Ð¿Ð°ÑĢ": 6048,
      "ĠÐĿÐ°ÑĥÑĩÐ¸Ð»Ð¸": 6049,
      "ĠÐŃÑģÑĤÐ¾Ð½Ð¸Ñı": 6050,
      "ĠÑģÑĤÑĥÐ´Ð¸Ð¸": 6051,
      "ĠÐ¿ÑĢÐ¾ÑĦÐµÑģÑģÐ¸Ð¾Ð½Ð°": 6052,
      "ĠÑģÑĤÐ¸Ð¿ÐµÐ½Ð´Ð¸": 6053,
      "ĠÐºÑĥÐ·ÑĮ": 6054,
      "ĠÐ¿ÑĢÐ°ÐºÑĤÐ¸ÐºÐ°": 6055,
      "ĠÐ²Ó§Ð·Ñĭ": 6056,
      "ĠÐ¿ÐµÑĩÐµÐ½Ð¸": 6057,
      "ĠÐ¡Ð°Ð¿Ð¾Ð¶Ð½Ð¸ÐºÐ¾Ð²Ð°": 6058,
      "ĠÐ¸Ð½ÑĤÐµÑĢÐ½ÐµÑĤÐµ": 6059,
      "ĠÐ¡ÐµÑĢÐ³ÐµÐµÐ²Ð½Ð°": 6060,
      "ĠÐ´ÑĢÐ°Ð¼Ð°ÑĤÑĥÑĢÐ³": 6061,
      "Ð´ÑĨÐ°ÑĤÑĮ": 6062,
      "ĠÐ¿Ó§Ð·Ðµ": 6063,
      "ĠÐ³Ð¾ÑģÑĤÐµÐ¹": 6064,
      "ĠÐĵÐĲÐĹÐĺÐĹÐ£ÐĽÐĽÐĺÐĿÐĲ": 6065,
      "ĠÐĳÑĢÐ¾Ð´ÑģÐºÐ¸Ð¹": 6066,
      "ĠÐŁÑĢÑıÐ¼ÑĥÑİ": 6067,
      "ĠÐ£ÑĢÐ°ÑģÑĮÐºÐ¸Ð½": 6068,
      "ĠÑĥÑĤÐ¸Ñħ": 6069,
      "ĠÐĲÑĤÐ°Ð¼Ð°Ð½Ð¾Ð²": 6070,
      "ĠÐłÐµÑĪÐµÑĤ": 6071,
      "ĠÐĹÐµÐ¼Ð»Ñı": 6072,
      "Ð¤ÐµÑĢÐ¼Ð°": 6073,
      "Ð¾Ð»ÐµÐ½ÐºÐ¾": 6074,
      "ĠÑģÐ¿ÐµÑĨÐ¸Ð°Ð»Ð¸ÑģÑĤÑĭ": 6075,
      "ĠÐ¿Ð°ÑģÑĮÐºÑĭÑĤÐ°": 6076,
      "ĠÐ¼Ð¸ÐºÑĢÐ¾ÑĢÐ°Ð¹": 6077,
      "ĠÐ¼Ð¾Ð¶Ð½Ð¾": 6078,
      "ÐļÐ»Ð°ÑģÑģ": 6079,
      "ÐłÐ°ÑĪÐ¸ÑĤ": 6080,
      "ÑĩÐ°ÑģÑĤÑĮÐµ": 6081,
      "ĠÐºÐ»Ð°Ð´Ð±Ð¸ÑīÐµ": 6082,
      "ĠÑĤÐµÐ½Ð½Ð¸Ñģ": 6083,
      "ÑģÑĪÐ¸ÑĢÑı": 6084,
      "ĠÑģÐºÑĥÐ»ÑĮÐ¿": 6085,
      "Ð°Ð»Ð»Ð¾Ð¾Ð±ÑĢÐ°Ð±Ð¾ÑĤÐºÐ°": 6086,
      "ÐĴÐ»Ð°Ð´Ð¸ÑģÐ»Ð°Ð²": 6087,
      "ĠÑĪÐºÐ¾Ð»Ð¾Ð¹": 6088,
      "ĠÐłÐŀÐľÐĲ": 6089,
      "ĠÐ¥ÑĥÐ·Ð¸Ð°ÑħÐ¼ÐµÑĤÐ¾Ð²Ð°": 6090,
      "ĠÐ¥Ð£ÐĹÐĺÐĲÐ¥ÐľÐķÐ¢ÐŀÐĴÐĲ": 6091,
      "ru": 6092,
      "Ð°Ð¾Ñģ": 6093,
      "Ð¾ÐºÐµ": 6094,
      "Ð¾Ð°Ð½Ð½": 6095,
      "Ð¸Ð°ÑĤ": 6096,
      "Ð¸Ð³ÑĥÑĢ": 6097,
      "Ð½Ð¼Ðµ": 6098,
      "ÑĢÐµÐ²": 6099,
      "ÑĢÑĤÐ°ÐµÐ²Ð°": 6100,
      "ÑĤÑĭÑĢ": 6101,
      "ÑĤÐµÑĢÐµÐ²": 6102,
      "ÑĤÐ´Ð¸Ð½Ð¾Ð²": 6103,
      "Ð»Ð°Ð½Ð¾Ð²Ð°": 6104,
      "ÑģÑĭÐ½": 6105,
      "ÑģÐºÑĭ": 6106,
      "ÑĥÑģÑĤÐ°": 6107,
      "Ð¼Ð¸Ð½Ð°": 6108,
      "Ð¼ÑĭÑģÑĮ": 6109,
      "Ð¼ÑĭÐ·": 6110,
      "Ð²ÑĪ": 6111,
      "Ð²ÑĭÐ»": 6112,
      "Ð²Ð°ÑĢÐ¾Ð²": 6113,
      "ÐºÐ»Ð¸Ð½": 6114,
      "ÐºÑĢÐ¸Ð¿": 6115,
      "ÑĭÐ»Ð¸": 6116,
      "Ð½Ð°Ð´": 6117,
      "Ð½Ð°Ð²Ð¸ÑģÑĤ": 6118,
      "ÑĤÐ¸Ð½Ðµ": 6119,
      "ÑĤÐ¸ÑĩÐµÑģÐºÐ¾Ð¹": 6120,
      "ÑĥÑĢÐ¸Ð½Ð°": 6121,
      "ĠÐ²Ð½ÑĥÑĩ": 6122,
      "ĠÐ²Ð¾Ð»Ð¾ÑģÑĭ": 6123,
      "Ð·Ñİ": 6124,
      "Ð·ÑıÐ½Ð¾Ð²": 6125,
      "ÑĢÐ°Ð½Ð¸": 6126,
      "ÑĢÐ°Ð½Ðµ": 6127,
      "ÑĢÐ°ÑĤÐ¾Ð²": 6128,
      "ÑĢÐ°Ð´Ð¾Ð²": 6129,
      "ÑĪÐºÐ°": 6130,
      "ÑĪÐµÑĢ": 6131,
      "Ð¹ÑĪÑĥÑĢ": 6132,
      "Ð±ÑĥÐº": 6133,
      "Ð±Ð°ÑĢÐ°": 6134,
      "ĠÐºÐ¸Ñģ": 6135,
      "ĠÐºÑĭÐ·": 6136,
      "ĠÐºÐ¸Ð»Ð¾": 6137,
      "ĠÐºÓ§Ñģ": 6138,
      "ĠÑĤÐ²": 6139,
      "ĠÑĤÐ°Ðº": 6140,
      "ÐºÐ°Ñħ": 6141,
      "ĠÐľÑĥÑĪ": 6142,
      "ĠÐľÐĺÐ¥": 6143,
      "ĠÑģÐºÑĥ": 6144,
      "ĠÑģÑĭÐ»": 6145,
      "ĠÑģÐ¸Ð´": 6146,
      "ĠÑģÐ¸Ð¼": 6147,
      "ĠÑģÐ»Ð¾Ð²Ð°": 6148,
      "ĠÑģÐ°Ð¼Ñĭ": 6149,
      "ĠÑģÑĥÐ´ÑĮÑı": 6150,
      "ĠÑģÐ¸Ð´ÑıÑĤ": 6151,
      "ĠÑģÐ²Ð°ÑĢÑīÐ¸": 6152,
      "Ð¾Ð½ÑĬÑĳÑģ": 6153,
      "Ð¾Ð½ÑįÐ·": 6154,
      "Ð¶Ð¾Ð²": 6155,
      "Ð¶Ð°Ð½ÑĤ": 6156,
      "ÐµÑĢÑĥÑģ": 6157,
      "Ð°Ð»Ð»Ð¸Ð½": 6158,
      "Ð°Ð»ÑĥÐ¹": 6159,
      "ÑģÑĮÐºÑĥ": 6160,
      "ÐµÐ²ÐµÐ´": 6161,
      "Ð¿Ð°ÑĤ": 6162,
      "Ð¿ÑĢÐµ": 6163,
      "Ð¿Ð¾ÑĤ": 6164,
      "Ð¿ÐµÑĢÐµ": 6165,
      "ÐµÐ½ÑĨÐ¸Ñı": 6166,
      "ĠÐ¿Ð°Ð¹": 6167,
      "ĠÐ¿ÑĢÐµÐ·": 6168,
      "ĠÐ¿Ð¸ÑĨ": 6169,
      "Ð°ÑĢÐµÐ²": 6170,
      "Ð°ÑĢÐµÐ²Ð°": 6171,
      "ÐľÐĺ": 6172,
      "ÐľÑĥÑģ": 6173,
      "ÐľÐ¸Ð»Ð¸": 6174,
      "ÐľÐ¸Ð»Ð¸ÑĤÐ¸Ð½Ð°": 6175,
      "ÐµÑĤÐµÐ½": 6176,
      "Ð»Ð°Ð·Ñĭ": 6177,
      "ĠÐ¡Ð¾Ð»Ð¾": 6178,
      "ĠÐ¡Ð²ÐµÑĤÐ»Ð°": 6179,
      "ĠÐ¡Ð»Ð°Ð²": 6180,
      "ĠÐ¡Ð¸Ð¿ÑģÐ¸Ðº": 6181,
      "ĠÐ¼Ð¸Ð½": 6182,
      "ĠÐ¼Ð°Ð¹": 6183,
      "ĠÐ¼ÐµÑĢÑĤ": 6184,
      "ĠÐ¼Ð¾Ð¶ÐµÑĤ": 6185,
      "ÑģÑĤÐ¾Ð²": 6186,
      "ÑģÑĤÑĢÐ¸": 6187,
      "ÑģÑĤÐ°Ð½Ð¾Ð²": 6188,
      "Ð¸Ð½ÑĬÑĳÑģ": 6189,
      "ĠÐļÑĢÑĥ": 6190,
      "ĠÐļÐ¾Ð·": 6191,
      "ĠÐļÑĢÑĭÐ»": 6192,
      "ĠÑĥÐ¿Ð°Ð»": 6193,
      "Ð°ÑĤÐµÐ»Ðµ": 6194,
      "ĠÐ´Ó¥": 6195,
      "ĠÐ´Ð¾Ð¶": 6196,
      "ĠÐĲÑĤÐ°Ð¹": 6197,
      "ĠÐĲÑĪÐ¸Ñħ": 6198,
      "ÑĤÐ¾Ð»ÑįÐ·": 6199,
      "ÑĳÑĤ": 6200,
      "ÑĳÐ·ÑĮ": 6201,
      "Ð»Ð¸Ðº": 6202,
      "ĠÐĺÐ²Ð°": 6203,
      "ĠÐĺÑģÐ°": 6204,
      "ĠÐ¢Ð¸ÑĤÐ¾Ð²": 6205,
      "ĠÐ³Ð»Ð°Ð²": 6206,
      "ĠÐ³Ð¾ÑģÑĤÑĮ": 6207,
      "ĠÐ³ÐµÑĢÐ¾": 6208,
      "ĠÐ³ÐµÐ½ÐµÑĢÐ°": 6209,
      "Ð»Ð¾Ñģ": 6210,
      "Ð»Ð¾ÑĢÐ°": 6211,
      "ĠÐĵÐ°Ð³": 6212,
      "ĠÐĵÐµÐ¾ÑĢÐ³Ð¸": 6213,
      "ĠÑĤÐµÑĢÐ°Ð¿": 6214,
      "ÐļÐµÐ»ÑĮ": 6215,
      "ÐļÐŀÐĴ": 6216,
      "ÐļÑĭÑĪÐ½Ð¾Ð¼ÑĥÑĢÑĤ": 6217,
      "ĠÐĳÐ¾ÑĤ": 6218,
      "ĠÐĳÐ¾Ð³": 6219,
      "ĠÐĳÐ»Ð¸Ð½": 6220,
      "ĠÐĳÐĲÐĻ": 6221,
      "ĠÐŁÐµ": 6222,
      "ĠÐŁÐ¾Ñģ": 6223,
      "ĠÐŁÑĢÐ¾Ñģ": 6224,
      "ĠÐŁÐ¸ÑĤÐºÐµÐ²Ð¸Ñĩ": 6225,
      "Ð¾ÑģÑĭÑģÑĮ": 6226,
      "Ð¾Ð¼Ð¾Ð½": 6227,
      "ÐĴÐ°Ð»Ðµ": 6228,
      "ÐĴÐ¸Ð½Ð¾Ð³": 6229,
      "ÐĴÐ°Ð¼ÑĭÑĪ": 6230,
      "ÐĴÑıÑĩÐµÑģÐ»Ð°Ð²": 6231,
      "Ð¢Ð£": 6232,
      "Ð¢ÐĶ": 6233,
      "ĠÐ»Ð¾Ð³": 6234,
      "Ð¾ÑĤÑı": 6235,
      "ÑĦÑĥ": 6236,
      "ÑĦÑĮ": 6237,
      "ÑĦÐ¸Ð»Ð¾": 6238,
      "ÑĦÐ¸Ð»ÑĮ": 6239,
      "ĠÐ½Ð¾Ðº": 6240,
      "ĠÐ½Ð¾ÑĥÑĤ": 6241,
      "Ð°Ð»ÐµÐºÑĤ": 6242,
      "ĠÑĪÐ°Ð¹": 6243,
      "ĠÑĪÐ°ÑħÐ¼Ð°ÑĤ": 6244,
      "ĠÑĪÐ°ÐµÑĢ": 6245,
      "ÐķÐł": 6246,
      "ĠÐ±Ð¾": 6247,
      "ĠÐ±ÑĢÐ¾Ð½": 6248,
      "ĠÐ±Ð»Ð¸Ð½": 6249,
      "ĠÐ±Ð°Ð½Ðº": 6250,
      "ĠÐłÑĭÐ»Ð¾Ð²Ð°": 6251,
      "Ð¸ÑĤÑĥÑĢÐ¸": 6252,
      "Ð¼ÐµÑĢÐ°": 6253,
      "ÑıÐ½Ð¾Ð²Ð½Ð°": 6254,
      "ĠÐĽÑĥ": 6255,
      "ĠÐĽÑı": 6256,
      "ĠÐĽÐµÐ²": 6257,
      "ĠÐĽÑĥÐº": 6258,
      "ĠÐĽÐ¾Ð±": 6259,
      "ÐĽÑİÐ±": 6260,
      "ÐĽÐŃÐĿ": 6261,
      "ĠÐŀÐºÐ¸": 6262,
      "ĠÐ°ÑĤÐ°": 6263,
      "ĠÐ°ÑĢÑĭÑģÑĮ": 6264,
      "Ð½Ð¾Ð¶": 6265,
      "Ð½Ð¾ÑģÑĤ": 6266,
      "ÐºÐ¾Ð²Ð»ÑįÐ½": 6267,
      "Ð¸ÑģÑģÐ°ÑĢ": 6268,
      "ÑĢÑĥÑĤÐ°": 6269,
      "ÐŀÐ¼ÑĭÑĢ": 6270,
      "ÐŀÐļÐŀÐĴÐĲ": 6271,
      "Ð¾Ð»ÑĥÐ±": 6272,
      "Ð¡Ð°Ð¹": 6273,
      "Ð¡Ð°ÑĪÐ°": 6274,
      "ÐĺÐ·": 6275,
      "ÐĺÐ¸ÑģÑĥÑģ": 6276,
      "ÑĤÓ¥Ð´": 6277,
      "ÑĢÐ¾Ð·": 6278,
      "Ð¼Ð¸ÑģÑĤ": 6279,
      "ÐĿÐŀÐĴ": 6280,
      "ÐĿÑĮÑĭÐ»ÑĮ": 6281,
      "ÐĿÐ°Ð³Ð¾Ð²": 6282,
      "ĠÐĹÐ°Ð³": 6283,
      "ĠÑĩÐ°Ð»": 6284,
      "ĠÐĶÐ°Ð²": 6285,
      "ĠÐĶÐµÐ¿ÑĥÑĤÐ°ÑĤ": 6286,
      "ĠÐĶÑĢÑĥÐ³": 6287,
      "ĠÑĥÐ¶ÑĬÑĳÑģÑĭÐ·": 6288,
      "Ð¸ÑĩÐ½Ð¾Ð¹": 6289,
      "ÐĵÐµÑĢ": 6290,
      "ÐĵÑĥÐ¶ÐµÐ¼": 6291,
      "ÑĭÑĢÐ¾Ð²": 6292,
      "Ð°Ð²Ð°": 6293,
      "Ð£ÐºÑģÑĳ": 6294,
      "ĠÐ¨ÐĺÐłÐŀ": 6295,
      "ÑĥÐ½Ð¾Ð²Ð°": 6296,
      "Ð¾Ð¶ÐµÐ½": 6297,
      "ĠÐ½ÐµÐ½Ð°Ð²Ð¸ÑģÑĤ": 6298,
      "ĠÐ§ÑĥÑĪ": 6299,
      "ĠÐ§Ð°Ð¹ÐºÐ¾Ð²ÑģÐºÐ¸Ð¹": 6300,
      "ÐµÐ´Ð¾Ð²": 6301,
      "Ð°Ð´Ñĭ": 6302,
      "ÐŁÐ°ÑģÑĮ": 6303,
      "ÑĥÐ»Ð¾Ð½Ð½Ð¸": 6304,
      "ĠÐļÐ¾ÑĢÐ¾ÑĤ": 6305,
      "ÑıÐ±Ð¸Ð½": 6306,
      "Ó§Ðº": 6307,
      "ĠÐºÐ°ÑĢÐ³ÑĥÑĢÑĤ": 6308,
      "ÑĨÐ¸Ð»ÑįÐ½": 6309,
      "ÐľÐ°ÑĢÐ¸Ñı": 6310,
      "ÑģÐºÐ¸Ð¼": 6311,
      "ÑģÐºÐ¸ÐµÐ·": 6312,
      "ĠÐĲÑĢÐ¸Ð½": 6313,
      "ĠÐµÐ¿Ð°ÑĢ": 6314,
      "ĠÐ¾Ð±ÑĢÐ°Ð´Ð¾Ð²Ð°": 6315,
      "ĠÐ¾Ð±ÑıÐ·Ð°ÑĤÐµÐ»ÑĮÐ½Ð¾": 6316,
      "ÑĩÐ¸Ðµ": 6317,
      "ĠÐ¼ÐµÐ¶": 6318,
      "ĠÐ£Ð¼": 6319,
      "ÑĭÐºÐ²Ð°": 6320,
      "ĠÑģÐºÐ°Ð·Ð°Ð½Ð¾": 6321,
      "ÐłÐ¾Ð¼": 6322,
      "ÐłÐ£": 6323,
      "ÑģÑĤÐ²Ð¾Ð·": 6324,
      "ÐĳÐŀÐļÐŀÐĴÐĲ": 6325,
      "Ð¾ÑģÑĤÐ¾Ð²": 6326,
      "ÐµÐ½ÑĤÑĭ": 6327,
      "Ð¾ÑĪÑĥÑĢ": 6328,
      "ĠÑĢÐ°Ð±Ð¾ÑĤÐ°ÐµÑĪÑĮ": 6329,
      "Ð¾Ð»Ð¾Ñģ": 6330,
      "ÐµÐºÑĢÐ°Ñģ": 6331,
      "ĠÐ¾ÑĤÑĢÑı": 6332,
      "Ð¢Ð°ÑıÐ·": 6333,
      "ĠÐĲÑĢÐºÐ°ÑĪ": 6334,
      "ĠÐĲÑĢÐºÐ°Ð´Ð¸Ð¹": 6335,
      "ĠÐĲÐ½Ð½Ð¾Ðº": 6336,
      "ĠÐ¿ÑĢÐ¾ÑģÑĤÐ¾": 6337,
      "ĠÐ¿ÑĢÐ¾Ð·Ð°": 6338,
      "ĠÐĲÐ»ÐµÐºÑģÐ°Ð½Ð´ÑĢÐ¾Ð²Ð°": 6339,
      "ĠÑĤÑĭÑģÑı": 6340,
      "ĠÑĥÐ´Ð¼ÑĥÑĢÑĤÑĬÑĳÑģÐ»ÑįÐ½": 6341,
      "ĠÐ°ÑĢÑĬÑĳÑģ": 6342,
      "ĠÑıÑĢÐ°ÑĤ": 6343,
      "ÐŃÐºÑģ": 6344,
      "ÑĥÐ±Ð¸Ð½": 6345,
      "Ð¸Ð¼Ð¾Ð²Ð¸Ñĩ": 6346,
      "ĠÑģÑĤÐ°ÑĤ": 6347,
      "ĠÑģÑĤÐ°ÑĤÑĮ": 6348,
      "ĠÐ¿ÑĢÐ¸Ð´ÐµÑĪÑĮ": 6349,
      "ĠÑĢÐ°Ð±Ð¾ÑĤÐ°ÐµÑĤÐµ": 6350,
      "ĠÐ®Ð±Ð¸Ð»ÐµÐ¹": 6351,
      "ĠÐ²ÐµÑĤÐ»ÑįÐ¼": 6352,
      "ÑĢÐ¾Ð²Ð¾Ð´": 6353,
      "ĠÐ·Ð°Ð²Ð¾Ð´Ð°": 6354,
      "ĠÐºÐ°Ð¿ÑĢÐ¸": 6355,
      "ĠÐºÐ°ÐºÐ¸Ðµ": 6356,
      "ÐºÑĭÑĤÑįÐ·": 6357,
      "ĠÐ¾Ð´Ð½Ð¾Ð¼": 6358,
      "ĠÐ¿ÐµÑĢÐµÐ´Ð°": 6359,
      "ĠÐ¿ÐµÑĢÐµÐ³Ð¾ÑĢ": 6360,
      "ĠÑĢÑĥÐºÐ¾Ð²Ð¾Ð´Ð¸ÑĤÐµ": 6361,
      "ÑĤÐ¸Ð²Ð½Ð¾Ðµ": 6362,
      "ĠÐ±Ð¾Ð»ÑĮÑĪÐ¾": 6363,
      "ĠÐ±Ð¾Ð»ÑĮÐ½Ð¸ÑĨÐ°": 6364,
      "Ð°Ð³ÑĭÑĢ": 6365,
      "ÑĤÓ¥ÑģÑĮÐºÐ¾Ð´": 6366,
      "ĠÐ¿ÑĥÐºÐ¸ÑģÑĮÐºÐ¾": 6367,
      "ĠÐķÐ²ÑĢÐ¾Ð¿": 6368,
      "ĠÓĿÑĭ": 6369,
      "ĠÓĿÑĥÐº": 6370,
      "ĠÐ´ÑĭÑĢÑĭÐ·": 6371,
      "ĠÐºÐ¾ÑĪÐºÐµÐ¼": 6372,
      "ĠÑĥÑģÑĮÑĤÑį": 6373,
      "ĠÐ´ÑĢÑĥÐ³Ð¸Ð¼": 6374,
      "ÑģÐºÑĭÑģÑĮ": 6375,
      "ĠÐ¾Ð³ÐºÑĭÐ»": 6376,
      "ĠÑĪÑĥÐ¼Ð¿Ð¾ÑĤÑĤÑį": 6377,
      "ĠÐ¸Ð³ÑĢÐ°ÐµÐ¼": 6378,
      "Ð§ÐµÐ±": 6379,
      "ĠÐ¼Ð¾Ð»Ð¾ÑĤÑĮ": 6380,
      "ĠÐ»ÑİÐ´ÑıÐ¼": 6381,
      "Ð¾Ð¿Ð¾Ð²Ð°": 6382,
      "Ð»Ð°Ð²Ð¸Ð°ÑĤ": 6383,
      "ĠÑĤÐµÐ°ÑĤÑĢÑĭÑģÑĮ": 6384,
      "ĠÐ¡Ð°Ð²ÐµÐ»ÑĮÐµÐ²": 6385,
      "ĠÐ¸Ð½Ð²Ð°Ð»": 6386,
      "Ð¥ÑĥÐ´Ð¾Ð¶Ð½Ð¸Ðº": 6387,
      "ĠÐºÐ»Ð°ÑģÑģÐ¸": 6388,
      "ÑĥÑĢÐ½Ð°Ð»Ð¸": 6389,
      "ĠÐºÑĥÑĢÐµ": 6390,
      "ĠÐ±Ð°Ð´ÓŁÑĭÐ¼Ð³ÐµÑģ": 6391,
      "ÑĢÐ°Ð½Ð³ÑĥÑĢÑĤ": 6392,
      "ĠÐļÐ¾Ð½Ñİ": 6393,
      "ÐľÑĭÐ½ÑįÑģÑĮÑĤÑĭÐ¼": 6394,
      "ÐļÑĥÐ¸Ð½ÐµÑĤÓ¥": 6395,
      "ĠÐ¼Ð°Ð»ÐµÐ½ÑĮÐºÐ¾Ð¹": 6396,
      "ĠÑıÑĢÐ°ÑĤÓ¥ÑģÑĮÐºÐ¾Ð´": 6397,
      "ÑĢÐ¾Ð½Ð¾Ð²": 6398,
      "ĠÐ»ÑĭÐ¶": 6399,
      "ĠÐ»ÑĭÐ¶Ð¸": 6400,
      "ĠÐºÐ»Ð°ÑģÑģÐ¾Ð²": 6401,
      "ĠÑħÐ¾Ð·ÑıÐ¹ÑģÑĤÐ²Ð°": 6402,
      "ĠÑħÐ¾Ð·ÑıÐ¹ÑģÑĤÐ²Ð¾Ð¼": 6403,
      "Ð²ÐµÑĢÐ´Ð¸Ð»": 6404,
      "ĠÐ¶ÑĥÑĢÐ½Ð°Ð»": 6405,
      "ĠÑģÐ¸Ñĳ": 6406,
      "ĠÐµÐ³Ð¸ÑĤÑĬÑĳÑģÐ»ÑįÐ½": 6407,
      "Ð¾Ð»ÐµÐ²Ð°": 6408,
      "ĠÐĳÐ°Ð¹Ð±ÐµÐºÐ¾Ð²Ð°": 6409,
      "ĠÑħÐ¾ÑĢÐ¾ÑĪÐ°Ñı": 6410,
      "ĠÐºÐ¾ÑĪÐºÐ¸Ð¼": 6411,
      "ĠÐºÐ¾ÑĪÐºÐ¸ÑģÑĮÐºÐ¾": 6412,
      "Ð±ÑĥÑĢÐ¾Ð²": 6413,
      "Ð±ÑĥÑĢÐ´Ð¾": 6414,
      "ĠÑĤÑıÐ¶ÐµÐ»Ð°": 6415,
      "ĠÐĿÐµÐºÐ¾ÑĤÐ¾ÑĢÑĭÐµ": 6416,
      "ĠÐ¼Ð°ÑĤÑĭÑģÑĮ": 6417,
      "ĠÐ·Ð°Ð±ÑĭÐ»Ð°": 6418,
      "ĠÐ¿Ð¾Ð½ÑıÐ»Ð°": 6419,
      "Ð´ÑĥÑģÑĤÑĢÐ¸": 6420,
      "ĠÐºÐ»ÑĥÐ±Ð¾Ð¼": 6421,
      "ĠÑģÐ¿Ð¾ÑĢÑĤÑĬÑı": 6422,
      "ĠÑģÐ¿Ð¾ÑĢÑĤÐºÐ¾Ð¼Ð¿": 6423,
      "ĠÑĤÐ¾Ð´Ð¼": 6424,
      "ĠÐ¿Ð¾Ð»Ð¸ÐºÐ»Ð¸Ð½": 6425,
      "ĠÐ¦ÐµÐ½Ð°": 6426,
      "ĠÑģÐ»ÑĭÑĪÑĥ": 6427,
      "Ð¼ÐµÐ·ÑĬÑı": 6428,
      "ĠÐ°ÑĢÑĤÐ¸ÑģÑĤÐ°": 6429,
      "ĠÐ²Ð¾ÐµÐ½": 6430,
      "ĠÐ²Ð¾ÐµÐ½Ð½Ð¾Ð¹": 6431,
      "ĠÐĺÐ²ÑĪÐ¸Ð½": 6432,
      "Ð³ÑĢÐ°Ð¼Ð¼Ð°": 6433,
      "ĠÐļÐ¸ÑĢÐ¸Ð»Ð»": 6434,
      "ÑĢÑĥÐ¶Ð¾Ðº": 6435,
      "ĠÑģÐ¿ÑĢÐ¾ÑģÑıÑĤ": 6436,
      "ĠÑħÐ¾Ð·ÑıÐ¹ÑģÑĤÐ²Ð¾Ñı": 6437,
      "ĠÐ¹Ó§Ð»": 6438,
      "ÐµÑĢÐµÐ¶": 6439,
      "ĠÑģÑĤÑĥÐ´ÐµÐ½ÑĤÐºÐ°": 6440,
      "ĠÐŁÐ¸ÐºÑĥÐ»ÐµÐ²": 6441,
      "ĠÐ»ÑĭÐºÑĤÑįÐ¼ÑĭÐ½": 6442,
      "ÑĭÑģÑĮÑĤÑĭÐ¼": 6443,
      "ĠÐ¼ÐµÐ´Ð°ÐºÐ°Ð´ÐµÐ¼Ð¸": 6444,
      "ĠÐ´ÑĥÐ½Ð½ÐµÑĭÐ½": 6445,
      "Ð³Ð°ÑĢÐ¸Ðº": 6446,
      "Ð³ÐµÐ»ÐµÐ²": 6447,
      "ĠÐĲÐ²ÑĤÐ¾ÑĢ": 6448,
      "ĠÐķÐ³Ð¾ÑĢÐ¾Ð²Ð¸Ñĩ": 6449,
      "ĠÑĢÐ¾ÑģÑĤ": 6450,
      "ĠÐ¿Ð¾Ð¹Ð´ÐµÑĪÑĮ": 6451,
      "ĠÐ°Ð·Ðµ": 6452,
      "ĠÐ°Ð·ÑıÐ¼": 6453,
      "ĠÐ°Ð·Ð²ÐµÑģÑĮ": 6454,
      "Ð»ÑĮÑĦÐ¸Ñı": 6455,
      "Ð¡ÑİÐ°Ð½": 6456,
      "ĠÐºÑĭÑĤÑĭÑģÑĮ": 6457,
      "ĠÐ¿ÑĮÐµÑģÑĥ": 6458,
      "ĠÐºÐ¾Ð»ÑħÐ¾Ð·Ðµ": 6459,
      "ĠÑģÐ°Ð¹ÑĤÐµ": 6460,
      "ĠÑĪÐµÐ´ÑĮÑĤÓ¥Ð·Ñĭ": 6461,
      "ĠÐºÑĭÐ»Ñĭ": 6462,
      "ĠÐĿÐ°Ð³Ð¾Ð²Ð¸ÑĨÐ¸Ð½Ð°": 6463,
      "ĠÐ²Ð¸Ð´ÐµÐ¾": 6464,
      "ĠÐ¿ÐµÐ½ÑģÐ¸Ð¾Ð½ÐµÑĢÑĭ": 6465,
      "ĠÐľÐ°ÐºÐ°ÑĢÐ¾Ð²Ð°": 6466,
      "ĠÐ¨Ð°ÑĢÐºÐ°Ð½Ð¾Ð²": 6467,
      "ĠÐ¿ÑĥÐºÑģÑĮ": 6468,
      "ĠÐ¿ÑĥÐºÑģÐ¸": 6469,
      "ĠÐ¾ÐºÐ½Ð°": 6470,
      "ĠÐ¾ÐºÑĢÑĥ": 6471,
      "ĠÑĤÐµÑħÐ½Ð¸ÐºÑĥ": 6472,
      "ĠÐºÑĢÐµÐ·ÑĮÐ³ÑĥÑĢÐ¾": 6473,
      "ĠÐ±Ð°ÑıÐ½": 6474,
      "ĠÐ±Ð°ÑģÑģ": 6475,
      "ĠÐ¾Ð³Ð½Ð°Ð´": 6476,
      "ĠÐ¾Ð³Ð½Ð°Ð·": 6477,
      "ĠÐ¿Ð¾Ð´Ð½ÑıÑĤÑĮ": 6478,
      "ĠÐ¿ÐµÑģÑıÐ½Ð°Ð¹": 6479,
      "ĠÐĳÐ°Ð»ÐµÐ·Ð¸Ð½Ð°": 6480,
      "ĠÐĽÑİÐºÐ¸Ð½": 6481,
      "Ð¾Ð³ÑĢÐ°ÑĦÐ¸": 6482,
      "ĠÐ¢Ð¾Ð»ÑģÑĤ": 6483,
      "ĠÐ¢Ð¾Ð»ÑģÑĤÑĭÐ¹": 6484,
      "ĠÑĦÐ¾ÑĤÐ¾Ð³ÑĢÐ°ÑĦ": 6485,
      "ĠÐ²Ð¾Ð´Ñĭ": 6486,
      "ÓŀÐµÑĩÐ±ÑĥÑĢÐµÑģÑĮ": 6487,
      "ĠÐ¿ÑĥÐ¼Ð¸ÑģÑĮÐºÐ¸Ð¼": 6488,
      "ĠÐ¿ÑĥÐ¼Ð¸ÑģÑĮÐºÐ¸Ð·Ñĭ": 6489,
      "ĠÐºÐ²Ð°ÑĢÑĤÐ¸ÑĢÐµ": 6490,
      "ĠÐ°Ð´Ð¼Ð¸Ð½Ð¸ÑģÑĤÑĢÐ°ÑĨÐ¸Ñı": 6491,
      "ĠÐ´Ð¾Ð±Ð°Ð²Ð¸ÑĤÑĮ": 6492,
      "ĠÐŁÑĢÑıÐ¼Ñĭ": 6493,
      "ÐŀÐ³ÐµÐ·": 6494,
      "ÐŀÐ³ÐºÑĭÐ»": 6495,
      "ÐļÐ¸Ð²Ð°Ð»ÑĤÓ¥ÑģÑĮÑĳÑģ": 6496,
      "ĠÐĳÑĥÑĢÐ°Ð½Ð¾Ð²": 6497,
      "ĠÑģÐ¿Ð¾ÑĢÑĤÐ°": 6498,
      "ĠÐ·Ð°Ð±ÑĥÐ´ÑĮ": 6499,
      "ĠÐ²ÑĭÐ¿Ð¾Ð»Ð½ÑıÐµÑĤ": 6500,
      "ĠÐ´ÐµÐ»ÐµÐ³Ð°ÑĤ": 6501,
      "ĠÐĲÐ¹ÑĤ": 6502,
      "ĠÐŁÐ¾Ð¿Ð¾Ð²Ð°": 6503,
      "ĠÐŀÐ´Ó¥Ð³": 6504,
      "ĠÑĦÐ¸Ð·Ð¸ÐºÐ°": 6505,
      "Ð¾ÑģÑĤÑĢÑĥÐµÐ²": 6506,
      "ĠÐ²ÐµÑĩÐµÑĢÐ¾Ð¼": 6507,
      "ÐłÐ¾ÑģÑģÐ¸Ð»ÑįÐ½": 6508,
      "ĠÐ¾ÑģÐµÐ½ÑĮÑİ": 6509,
      "ĠÐĴÐ¾ÑĤÐºÐ¸Ð½ÑģÐºÐµ": 6510,
      "ĠÐ¿Ð»Ð¾ÑħÐ¾Ð¹": 6511,
      "ĠÐĴÐ°Ð»ÐµÑĢÐ¸Ñı": 6512,
      "ĠÐĴÐ°Ð»ÐµÑĢÑĮ": 6513,
      "Ð§Ð°Ð¹ÐºÐ¾Ð²ÑģÐºÐ¸Ð¹Ð»ÑįÑģÑĮ": 6514,
      "ÐĵÑĢÐ¸ÑĪÐ°": 6515,
      "ÐĵÑĢÐ¸Ð³Ð¾ÑĢÐ¸Ð¹": 6516,
      "ĠÐĲÐ½Ð´ÑĢÐµÐµÐ²Ð°": 6517,
      "ĠÐºÐ°Ð¿ÐµÑĨ": 6518,
      "ĠÐ¡Ð¾ÑĦÑĮÑı": 6519,
      "ĠÐ¡Ð¾ÑĦÑĢÐ¾Ð½Ð¾Ð²": 6520,
      "ĠÑĥÐºÑĢÐ°": 6521,
      "ĠÐ¾Ð´ÐµÐ¶Ð´Ñĥ": 6522,
      "ĠÐĲÑĢÐ´Ð°ÑĪÐµÐ²": 6523,
      "ĠÐ²ÐµÑĢÐ°Ð¼ÑĬÑı": 6524,
      "Ð°ÑĢÐ°Ð»Ð¸Ð¼Ð¿": 6525,
      "ĠÐ»ÑĭÐºÑĤÓ¥Ð»Ð»ÑıÐ¼": 6526,
      "ĠÑĢÑĭÐ±Ð°": 6527,
      "ĠÐ¡ÑĤÐ¾Ð»": 6528,
      "ÑĬÑıÐ½Ð¾": 6529,
      "ĠÑįÐºÐ¾Ð½Ð¾Ð¼Ð¸ÐºÐ°": 6530,
      "ĠÐ±ÑĭÑĢÑĬÑĳÐ½": 6531,
      "ĠÐļÑĢÐ°ÑģÐ¸Ð»ÑĮÐ½Ð¸ÐºÐ¾Ð²Ð°": 6532,
      "ĠÐ³ÑĢÐ°Ð¶Ð´Ð°Ð½": 6533,
      "ĠÑĤÐµÐ»ÐµÐ²Ð¸Ð´ÐµÐ½Ð¸": 6534,
      "ĠÐľÑĥÐ¶ÑĩÐ¸Ð½Ñĭ": 6535,
      "ĠÐĿÑĭÐ½ÐµÑĪÐ½ÑıÑı": 6536,
      "ĠÐŁÑĩÐµÐ»Ð¾Ð²Ð¾Ð´": 6537,
      "ĠÐºÑĥÐ¸Ð½ÐµÑĤÓ¥ÐµÐ·": 6538,
      "ĠÐºÐ¾Ð¼Ð°Ð½Ð´Ð¾Ð²Ð°Ð»Ð°": 6539,
      "ĠÑģÐ²Ð°Ð´ÑĮÐ±Ð°": 6540,
      "ĠÑģÐ²Ð°Ð´ÑĮÐ±Ðµ": 6541,
      "ĠÐ¿Ð¾Ð»Ð¾Ð²Ð¸Ð½Ð°": 6542,
      "ĠÑĢÐµÐ´Ð°ÐºÑĤÐ¾ÑĢÐµÐ·": 6543,
      "ĠÑĢÑĭÑģÐºÐ°ÐµÑĤ": 6544,
      "ĠÐ½ÐµÐ½ÐµÐ³": 6545,
      "ĠÐ½ÐµÐ½Ð¾ÐºÑĥ": 6546,
      "ĠÐ¼ÑıÑģÐ¾": 6547,
      "ĠÐ¢Ð¸Ð¼ÑĥÑĢ": 6548,
      "ĠÐºÐ¾Ð¼Ð½Ð°ÑĤÐ°": 6549,
      "ĠÐ°ÑĢÐ¼Ð¸Ð¸": 6550,
      "ĠÐ¾Ð±ÑīÐµÐ¶Ð¸ÑĤÐ¸Ð¸": 6551,
      "ĠÑģÐ¾ÑģÑĤÐ°ÑĢÐ¸ÑĤÑģÑı": 6552,
      "ĠÑĦÐ¸Ð»ÑĮÐ¼": 6553,
      "ĠÐºÐ¾Ð¼Ð°Ð½Ð´Ð¸ÑĢ": 6554,
      "ÑĥÐ»ÑĮÑĤÑĦÐ¸Ð»ÑĮ": 6555,
      "ĠÐ´Ð¾ÐºÑĤÐ¾ÑĢÐ°": 6556,
      "ĠÐ´Ó¥ÑģÑĮÐºÑĥÑĤ": 6557,
      "ĠÐ³Ð°ÑĢÐ¼Ð¾Ð½Ð¸ÑģÑĤ": 6558,
      "ĠÐĿÐ°Ð·Ð°ÑĢÐ¾Ð²Ð°": 6559,
      "ÑĨÐ¸Ð¾Ð½Ð½Ð¾Ð¹": 6560,
      "ĠÐ¼ÑĥÐ½Ð¸ÑĨÐ¸Ð¿Ð°Ð»ÑĮÐ½Ð¾Ð³Ð¾": 6561,
      "ÐĳÑĭÑĢÐ¹Ð¸": 6562,
      "ĠÐ§ÐµÑħÐ¾Ð²": 6563,
      "ĠÐ¤Ð¸Ð½Ð»ÑıÐ½Ð´Ð¸Ð¸": 6564,
      "ĠÐ»Ð°Ð±Ð¾ÑĢÐ°ÑĤÐ¾ÑĢ": 6565,
      "ĠÐļÐ°ÑģÐ°ÑĤÐºÐ¸Ð½Ð°": 6566,
      "ĠÐĲÐ²Ð³ÑĥÑģÑĤÐ°": 6567,
      "ĠÐļÑĢÐ°ÑģÐ½Ð¾Ð³Ð¾ÑĢÑģÐº": 6568,
      "ĠÐ±ÑĥÐ¼Ð°Ð³Ð°": 6569,
      "ĠÐºÐ¾Ð½ÑĦÐµÑĢÐµÐ½ÑĨÐ¸Ð¸": 6570,
      "ĠÐľÐµÑĢÐ·Ð»Ñı": 6571,
      "ĠÐ¡Ð¸Ð´Ð¾ÑĢÐ¾Ð²": 6572,
      "ĠÑĥÐ»Ó¥Ð¼Ñĭ": 6573,
      "ĠÑĢÐµÐºÐ»Ð°Ð¼Ð°": 6574,
      "ĠÐĳÐµÐ»Ð¾Ð¼Ð¾ÑĢÑģÐºÐ¸Ð¹": 6575,
      "ĠÐľÐ¾Ð¸ÑģÐµÐµÐ²": 6576,
      "ÑģÐ»Ð°Ð¼Ð¾Ð²Ð°": 6577,
      "ÑıÑīÐµÐ½": 6578,
      "ĠÐļÐ¾Ð¶ÐµÐ²Ð½Ð¸ÐºÐ¾Ð²": 6579,
      "ÐļÐ¸ÑĢÐ¸Ð»Ð»": 6580,
      "ĠÐ±Ð¸ÑĩÐµÑĤ": 6581,
      "Ð¾Ð»ÑİÐ±Ð¾Ð²Ð°": 6582,
      "ĠÑħÐ¾ÐºÐºÐµÐ¹": 6583,
      "ĠÐŃÑĢÐºÐ¸ÑĪÐµÐ²": 6584,
      "ĠÐ¥Ð¾Ð´ÑĭÑĢÐµÐ²Ð°": 6585,
      "ĠÐ»Ð¸ÑĤÐµÑĢÐ°ÑĤÐ¾ÑĢÑĬÑĳÑģ": 6586,
      "ÑĢÐµÐ¶Ð´": 6587,
      "ĠÐłÐ°ÑĪÐ¸ÑĤÐ¾Ð²": 6588,
      "ĠÐŃÐ½Ð²Ð¸Ð»ÑĮ": 6589,
      "ĠÐĵÑĢÐ°ÑħÐ¾Ð²Ð¾": 6590,
      "ĠÐºÑĭÐ»Ð´ÑĭÑĤÑįÑĤÐ»ÑįÐ½": 6591,
      "ĠÐ¾Ð±ÑĢÐ°Ð´ÑĥÐµÑĤ": 6592,
      "ĠÐ²Ð¸ÑģÑĬÐµÑĤ": 6593,
      "ĠÐ¼Ð¾Ð´ÐµÐ»ÑĮ": 6594,
      "ĠÐ±Ð»Ð°Ð³Ð¾ÑĤÐ²Ð¾ÑĢ": 6595,
      "Ð¡Ð°ÑĢÐ°Ð¿ÑĥÐ»": 6596,
      "ÐĵÐ°Ð²ÑĢÐ¸Ð»Ð¾Ð²": 6597,
      "ĠÐ¿ÑĥÐºÑģÐµ": 6598,
      "ĠÐºÐ¸Ð½Ð¾ÑĤÐµÐ°ÑĤ": 6599,
      "ĠÐĳÐ°Ð¹Ð³ÑĥÑĢÐµÐ·ÑĮ": 6600,
      "ĠÐļÐ»Ð°Ð±ÑĥÐºÐ¾Ð²": 6601,
      "ĠÐºÑĢÐ¾Ð²ÑĮ": 6602,
      "ĠÐºÑĢÐ°ÐµÐ²ÐµÐ´": 6603,
      "ĠÐĵÐµÐ½Ð½Ð°Ð´ÑĮÐµÐ²Ð¸Ñĩ": 6604,
      "ÐĴÐ°ÑħÑĢÑĥ": 6605,
      "ÑĥÑĤÐµÑĪÐµÑģÑĤÐ²": 6606,
      "ĠÐĲÑĢÑĤÐ¸ÑģÑĤÑĭ": 6607,
      "ĠÐ¿Ð¾Ð¼Ð¾Ð¶ÐµÐ¼": 6608,
      "ĠÐľÐ¾ÑĤÐ¾ÑĢÐ¸Ð½Ð°": 6609,
      "ĠÐłÐµÐ²Ð¸Ð·Ð¾ÑĢ": 6610,
      "ĠÐŀÐ½ÐµÐ³Ð¸Ð½": 6611,
      "ĠÐ¡Ð°ÑħÐ°ÑĢ": 6612,
      "ÐĿÐµÐ²Ð¾ÑģÑĤÑĢÑĥÐµÐ²": 6613,
      "ĠÐĹÐ°Ð½Ð³Ð°ÑĢÐ¸Ðº": 6614,
      "Ð¸Ð³ÑĥÑĢÐ¸ÑģÑĤ": 6615,
      "ĠÑĤÐ°ÐºÑģÐ¸": 6616,
      "Ð°Ð»ÑĥÐ¹ÑģÑĤÐ°": 6617,
      "ÑģÑĮÐºÑĥÐºÐ¾Ð²": 6618,
      "ĠÐĲÑĪÐ¸ÑħÐ¼Ð¸Ð½": 6619,
      "ĠÑĤÐµÑĢÐ°Ð¿ÐµÐ²": 6620,
      "Ð¢ÐĶÐĺÐĿ": 6621,
      "ÐĿÐ°Ð³Ð¾Ð²Ð¸ÑĨ": 6622,
      "ĠÐ¨ÐĺÐłÐŀÐĳÐŀÐļÐŀÐĴÐĲ": 6623,
      "ĠÐ§ÑĥÑĪÑĬÑı": 6624,
      "ÐŁÐ°ÑģÑĮÐºÑĭÑĤ": 6625,
      "ĠÐµÐ¿Ð°ÑĢÑħ": 6626,
      "ĠÐºÐ°Ð¿ÑĢÐ¸Ð·": 6627,
      "ĠÐ¿ÐµÑĢÐµÐ³Ð¾ÑĢÐ¾Ð´": 6628,
      "ĠÐ±Ð¾Ð»ÑĮÑĪÐ¾Ðµ": 6629,
      "ĠÑĤÑıÐ¶ÐµÐ»Ð°Ñı": 6630,
      "ĠÑģÐ¿Ð¾ÑĢÑĤÐºÐ¾Ð¼Ð¿Ð»ÐµÐºÑģ": 6631,
      "ur": 6632,
      "ĠÐĻ": 6633,
      "ĠÐ£Ð´Ð¼ÑĥÑĢ": 6634,
      "Ð°ÑĨÐ¸Ñı": 6635,
      "Ð¾Ð»ÐµÐ²": 6636,
      "Ð¸Ð³Ð°": 6637,
      "Ð¸Ð¼Ð¸Ñı": 6638,
      "ÐµÐµÑĤ": 6639,
      "ÐµÑģÑĤÐ²ÐµÐ½": 6640,
      "Ð½Ð¾Ñģ": 6641,
      "ÑĢÑİ": 6642,
      "ÑĢÑĭÐ½": 6643,
      "ÑĤÑĭÐ½": 6644,
      "Ð»Ð»ÐµÑĤ": 6645,
      "ÑģÐ°Ð½": 6646,
      "ÑģÑĨ": 6647,
      "ÑģÐ¾ÑİÐ·": 6648,
      "ÑĥÐºÐ¾": 6649,
      "ÑĥÐºÐ¾Ð²": 6650,
      "Ð´ÑĥÑĢ": 6651,
      "Ð´Ð¾Ð¹": 6652,
      "Ð´Ð½Ð¾Ð¹": 6653,
      "Ð¼ÑĥÑħÐ°Ð¼": 6654,
      "ÐºÐ½": 6655,
      "ÑĭÐºÑĤÑĭ": 6656,
      "Ð½Ð°ÑĢÐ¾Ð´": 6657,
      "ÑıÑħ": 6658,
      "ÑıÑĤÐ¾Ð¹": 6659,
      "ÑĤÐ¸ÑģÑĤ": 6660,
      "ĠÐ²Ð¸ÑĤÑĮ": 6661,
      "ĠÐ²Ð»Ð°ÑģÑĤÑĮ": 6662,
      "Ð·Ñı": 6663,
      "ÑĢÐ°Ð»ÑĮ": 6664,
      "ÑĪÑĤ": 6665,
      "ÑĪÐ»Ð¸": 6666,
      "ĠÐ½ÑĥÐ½Ð¾": 6667,
      "Ð±Ð¸Ð»Ð¸": 6668,
      "ÑĩÑĥ": 6669,
      "ÑĩÐºÐ¸": 6670,
      "ÑĩÐ¾Ðº": 6671,
      "ÑĩÑĥÑĢÐ¸Ð½Ð°": 6672,
      "ĠÐºÑĢÐµ": 6673,
      "ĠÐºÐµÐ¼": 6674,
      "ĠÐºÑĭÑĢ": 6675,
      "ĠÐºÐ¸Ð½Ñį": 6676,
      "ĠÐºÐ¾ÑĤÐ¾": 6677,
      "ĠÐºÐµÐ·ÑĮ": 6678,
      "ĠÐºÐ¾ÑĢÐ°": 6679,
      "ĠÐºÐ¸Ð´ÑĭÑģ": 6680,
      "ĠÐºÑĢÐµÐ´Ð¸ÑĤ": 6681,
      "ĠÐºÐ°Ð»ÑĭÐºÐºÑĥÑģÐ¿Ð¾": 6682,
      "Ð»ÑĮÐ½ÑĭÐµ": 6683,
      "ĠÑĤÑĥÐ»": 6684,
      "ĠÑĤÐ¾Ð¶Ðµ": 6685,
      "ÐºÐ°ÑĤ": 6686,
      "ÐºÐ°ÑģÑĮ": 6687,
      "Ð¾ÑĢÐ¾Ð²Ð°": 6688,
      "Ð¾ÑĢÐ¼Ð°": 6689,
      "Ð¾ÑĢÐ¾Ðº": 6690,
      "Ð¾ÑĢÑĤÐ°Ð¶": 6691,
      "ĠÐľÐµÑĤ": 6692,
      "ĠÐľÑĥÐ·": 6693,
      "ĠÐľÐ¸ÑĢÐ°": 6694,
      "ĠÐľÐĺÐĿ": 6695,
      "ĠÐľÐ§": 6696,
      "ĠÑģÐ»Ðµ": 6697,
      "ĠÑģÑĥÐ½": 6698,
      "ĠÑģÐ¸ÑģÑĤ": 6699,
      "ĠÑģÐ¾ÑĤÐ¾Ð²": 6700,
      "ĠÑģÐµÐ»Ð¸": 6701,
      "ĠÑģÐ¼ÐµÑĪÐ½Ð¾Ð¹": 6702,
      "ĠÑģÑĥÐ¿ÑĭÐ»ÑĮ": 6703,
      "Ð¾Ð½ÑĭÐ½": 6704,
      "Ð¶ÑĭÐ½": 6705,
      "ÐµÑĢÑĭ": 6706,
      "ÐµÑĢÐ¾Ð²": 6707,
      "ÐµÑĢÐ¶": 6708,
      "ÐµÑĢÐ¾Ð¼": 6709,
      "Ð°Ð»Ð¸Ð·Ð¼": 6710,
      "ÑģÑĮÑı": 6711,
      "ĠÐ½Ð°ÑĪÐ»Ð¸": 6712,
      "Ð¿Ð°Ð½": 6713,
      "Ð¿Ð°Ð»ÑĮÐ½Ð¾Ð¹": 6714,
      "Ð¿ÑĭÑĢÑĭ": 6715,
      "Ð¿Ð¾Ð·Ð¸": 6716,
      "ĠÑĢÐ°ÑģÑĪÐ¸ÑĢÑı": 6717,
      "ÐµÐ½Ð´Ð°": 6718,
      "ÐµÐ½ÑĭÐ¼": 6719,
      "ĠÐ¿ÑĤÐ¸": 6720,
      "ĠÐ¯Ð½Ð°": 6721,
      "Ð¸Ð½Ð°ÑĨÐ¸Ñı": 6722,
      "ÐºÐ¾Ð¼Ð¸": 6723,
      "ÐľÐ¾ÑĢ": 6724,
      "ÐľÐµÐ½": 6725,
      "ÐľÐµÑĤ": 6726,
      "ÐľÐµÑħ": 6727,
      "ÐľÐµÐ´Ð²ÐµÐ´ÐµÐ²": 6728,
      "ĠÐ¡ÐµÐ¼": 6729,
      "ĠÐ¡Ð¿Ð¾ÑĢÑĤ": 6730,
      "ĠÐ¡Ð½ÐµÐ³": 6731,
      "ĠÐ¼Ð°Ð»": 6732,
      "ĠÐ¼Ð¾ÑĤÐ¾": 6733,
      "ĠÐ¼Ð°Ð½ÑģÐ¸": 6734,
      "ĠÐ¼ÑĥÐ»ÑĮÑĤÑĦÐ¸Ð»ÑĮ": 6735,
      "ÑģÑĤÐ¾Ð¿": 6736,
      "ĠÐĴÑģÑĤ": 6737,
      "ĠÐĴÐµÐ´": 6738,
      "ĠÐĴÐ¾ÑĢÐ³Ð¾ÑĢÐ¾Ð½": 6739,
      "Ð¸Ð½ÑĮÑı": 6740,
      "ĠÐļÑĢÐ°": 6741,
      "ĠÐļÐ¾Ð±": 6742,
      "ĠÐļÐ¾Ð¿": 6743,
      "ĠÐļÐ°Ð»Ð¸Ð½": 6744,
      "ĠÐļÑģÑİÑĪÐ°": 6745,
      "ĠÐķÐºÐ°ÑĤÐµÑĢ": 6746,
      "ÑİÑģÐµÑĢ": 6747,
      "ĠÐ´Ñı": 6748,
      "ĠÐ´Ð¾Ñģ": 6749,
      "ĠÐ´Ð¾ÑĢÐµ": 6750,
      "ĠÐ´Ð¶Ð¸Ð½": 6751,
      "ĠÐ¸Ñİ": 6752,
      "ĠÐĿÐĲÐļ": 6753,
      "ĠÐ¾Ð´ÐµÐ¶Ð´Ð°": 6754,
      "ĠÐ¾Ð¼ÑĭÑĢ": 6755,
      "ĠÐ¾Ð³Ð°Ð·": 6756,
      "ÑĤÐ¾Ðº": 6757,
      "ÑĤÐ¾Ð»ÑįÐ·ÑĮ": 6758,
      "ÑĳÐ½": 6759,
      "Ð»Ð¸Ñĩ": 6760,
      "Ð»Ð¸ÑĨÑĭ": 6761,
      "ĠÐĺÐ¾Ð°Ð½Ð½": 6762,
      "ĠÐĺÐµÑĢÑĥÑģ": 6763,
      "ĠÐ¢Ð¾ÑĢ": 6764,
      "ĠÐ¢ÐµÐ»Ðµ": 6765,
      "ĠÐ¢Ð°ÑĢÑĤÑĥ": 6766,
      "ÐĲÐĴ": 6767,
      "ÐĲÐŀ": 6768,
      "ĠÐ³Ðµ": 6769,
      "ĠÐ³Ð»Ð°Ð·": 6770,
      "ĠÐ³Ð°ÑĢÐ°": 6771,
      "ĠÐ³Ð¾ÑģÐ¿Ð¸ÑĤ": 6772,
      "ĠÐ³Ð¾Ð»Ð¾Ð²Ð°": 6773,
      "ĠÐ³Ð»Ð¾Ð±": 6774,
      "Ð»Ð¾Ð·": 6775,
      "Ð»Ð¾Ð³Ð°": 6776,
      "Ð»Ð¾Ð±Ð¸Ð½": 6777,
      "ĠÐĵÐ°Ð¹": 6778,
      "ĠÐĵÐ¸ÑĢ": 6779,
      "Ð´Ð°Ð¼": 6780,
      "Ð´Ð°Ð¿": 6781,
      "ÐļÐĺÐĿÐĲ": 6782,
      "ÐļÐ¾Ð¶ÐµÐ²": 6783,
      "ÐļÐĽÐ¯": 6784,
      "ĠÐĳÐµÐ³": 6785,
      "ĠÐĳÐµÑĢÐµÐ·": 6786,
      "ĠÐĳÐµÑģÑĤÐ¾Ð»ÐºÐ¾Ð²Ð¾": 6787,
      "ĠÐŁÑĥÐº": 6788,
      "ĠÐŁÐ¾Ðº": 6789,
      "ĠÐŁÐ¾Ð²Ð°ÑĢ": 6790,
      "ÐĴÐ°ÑĢ": 6791,
      "ÐĴÐ¾Ð¶": 6792,
      "ÐĴÐ°Ð»Ñį": 6793,
      "ÐĴÐµÐ½Ð¸Ð°Ð¼Ð¸Ð½": 6794,
      "ÐĴÐ¾Ð»Ð¾Ð´Ñı": 6795,
      "Ð¢ÑĢÐ¾": 6796,
      "Ð¢ÐµÐ»Ðµ": 6797,
      "Ð¢ÐµÑħ": 6798,
      "Ð¢ÑĭÐ½Ð°Ð´": 6799,
      "Ð¢ÐłÐļ": 6800,
      "ĠÐ»Ðµ": 6801,
      "ÑĦÐ¾ÑĢÐ¾Ð²": 6802,
      "Ð°Ð»ÐµÐ·Ð¸Ð½Ð¾": 6803,
      "ĠÑĪÐµÑĢÑĪÐµÐ½ÑĮ": 6804,
      "ÐķÐĽ": 6805,
      "ÐķÐĶ": 6806,
      "ÐķÐķÐĴÐĲ": 6807,
      "ĠÐ±Ð»Ð°": 6808,
      "ĠÐ±Ð°ÐºÑĩÐ°": 6809,
      "ĠÐ±ÐµÑģÑĤÐ¾Ð»ÐºÐ¾Ð²Ð¾": 6810,
      "ĠÐłÑĭ": 6811,
      "ĠÐłÐµÐ³": 6812,
      "ĠÐłÐ¸ÑĤÐ°": 6813,
      "ÑģÐ¸Ð±Ð¾": 6814,
      "ĠÐĽÑĥÑĪÐ°": 6815,
      "ÐĽÐ¾Ð¶": 6816,
      "ÐĽÑĥÑĪÐ°": 6817,
      "ÐĽÐ¸Ð·Ð°": 6818,
      "ĠÐŀÐ³Ð¾ÑĢÐ¾Ð´": 6819,
      "ĠÐŀÑģÑĤÑĢÐ¾Ð²": 6820,
      "ĠÐ°Ð»": 6821,
      "ĠÐ°Ð³ÑĢÐµ": 6822,
      "ĠÐ°ÑįÑĢÐ¾": 6823,
      "Ð´ÐµÐµÐ²Ð°": 6824,
      "ÐŀÑģ": 6825,
      "ÐŀÐ»ÐµÐ³": 6826,
      "ÐŀÐºÑģÐ°Ð½Ð°": 6827,
      "Ð¡Ð¬": 6828,
      "ÐĺÐ»ÑĮ": 6829,
      "ÑĤÓ¥Ð¼Ñĭ": 6830,
      "ĠÐ¡Ð°Ð¹": 6831,
      "ĠÐ¡Ð°Ð±": 6832,
      "ĠÐ¡Ð°Ð±ÑĥÑĢÐ¾Ð²": 6833,
      "ĠÐĹÐ¸Ð½Ð°": 6834,
      "ĠÐĹÐĲÐ¥ÐĲÐł": 6835,
      "ÐºÑĥÐ»Ð¾Ð²": 6836,
      "ÐºÑĥÐ½Ð¾Ð²": 6837,
      "ĠÐĶÐµÐ»Ð°": 6838,
      "ÑīÐ¸Ð½Ð°": 6839,
      "ÑīÑĥÑİ": 6840,
      "ÑīÐµÐ½ÐºÐ¾": 6841,
      "ĠÑĥÐ¶Ð°Ð»Ð¾Ð·": 6842,
      "ÐµÑĢÐ°Ð¿": 6843,
      "ÐµÑĢÐ°ÑĦ": 6844,
      "Ð¸Ð·Ð¾Ð½": 6845,
      "Ð¸ÑĩÐ¸Ñı": 6846,
      "ĠÑįÑģÑĤÑĢÐ°": 6847,
      "Ð¾Ð³ÐµÐ½": 6848,
      "Ð°Ð²Ð¸ÑĨÐ°": 6849,
      "Ð£ÑĪ": 6850,
      "ÐºÑĤÐ°": 6851,
      "ĠÐ¨ÑĥÐ´": 6852,
      "ĠÐ¨ÐļÐĽÐ¯": 6853,
      "Ð¾Ð¶Ð¾": 6854,
      "ĠÐ½ÐµÐºÐ¾ÑĤÐ¾ÑĢÑĭ": 6855,
      "ĠÐ½ÐµÐºÐ¾ÑĤÐ¾ÑĢÑĭÐµ": 6856,
      "ĠÐ§Ð°Ð¹": 6857,
      "ĠÐ§ÑĥÑĤ": 6858,
      "Ð¼ÑĭÑĪ": 6859,
      "ÐŁÑĢÐµ": 6860,
      "ÐŁÐ¸Ñģ": 6861,
      "ÐŁÐ¾Ð·": 6862,
      "ÐŁÓ§Ð»": 6863,
      "ÐŁÐ¾Ñĩ": 6864,
      "ÐŁÐµÐ½ÑģÐ¸": 6865,
      "ÐŁÑĢÐµÐ·Ð¸Ð´ÐµÐ½ÑĤ": 6866,
      "ÐŁÑĥÑĪÐºÐ¸Ð½": 6867,
      "ĠÐĿÐ¸ÐºÐ¸ÑĦÐ¾ÑĢÐ¾Ð²": 6868,
      "ĠÑĦÐµÐ»ÑĮ": 6869,
      "ĠÑĦÐ¸Ð»Ð°ÑĢÐ¼Ð¾Ð½": 6870,
      "ĠÑĦÑĢÐ°Ð½ÑĨÑĥÐ·": 6871,
      "ĠÑĦÐ¸Ð³ÑĥÑĢÐ¸ÑģÑĤ": 6872,
      "ĠÑħÐ¸ÑĤ": 6873,
      "ĠÑħÐ¾ÑĤÑĮ": 6874,
      "Ð¾Ð¹Ð½Ð°": 6875,
      "ÐµÑĢÐ³ÐµÑĤÐ¸": 6876,
      "ĠÐĿÐ°Ð´Ð¸": 6877,
      "ĠÐĿÐ°Ð±Ð¸": 6878,
      "ÑıÐ±ÑĢÑı": 6879,
      "ÑĥÑĤÑģÑı": 6880,
      "ÑĭÑĤÐ¾Ð²": 6881,
      "ĠÐºÑĥÐ°ÑĢ": 6882,
      "ĠÐºÑĥÐ°ÑĤ": 6883,
      "ĠÐºÑĥÐ±Ð¸": 6884,
      "Ð½ÐµÐµ": 6885,
      "ĠÐºÐ°ÑĢÑĤÑį": 6886,
      "ÑĨÐ¸Ðµ": 6887,
      "ÑĨÐ¸ÐµÐ¹": 6888,
      "ĠÐ²ÑĭÑģÑĤÐ°Ð²": 6889,
      "ÑĥÐ´Ð°ÑĢÐ¸": 6890,
      "ÑĥÑĪÐ¸Ð½": 6891,
      "ÑĭÐ¼ÑĤÑį": 6892,
      "ĠÐ¾Ð±Ñĥ": 6893,
      "ĠÐ¾Ð±Ð»Ð°": 6894,
      "ĠÐ¾Ð±ÑĬ": 6895,
      "ĠÐ¾Ð±Ð»Ð°ÑģÑĤÑĮ": 6896,
      "ĠÐ¾Ð±ÑĬÑıÐ²": 6897,
      "ĠÐ¿Ð¾ÐµÐ·Ð´Ðµ": 6898,
      "ĠÐŃÐ¼": 6899,
      "ĠÐŃÐ»ÑĮ": 6900,
      "ĠÐŃÑĪÑĪÐ¾": 6901,
      "ĠÐ£Ð»Ð¸ÑĨÑĭ": 6902,
      "ÐłÐµÑģÐ¿ÑĥÐ±Ð»Ð¸": 6903,
      "ÐĳÐ¸": 6904,
      "ÐĳÐ¾ÑĢ": 6905,
      "ÐĳÐ°ÑĤ": 6906,
      "ÐĳÐµÐ·": 6907,
      "ÐĳÐ¾Ð»ÑĮ": 6908,
      "ÐĳÐ°ÐºÑĩÐ°": 6909,
      "Ð°Ð·Ð°ÑĢÑĮ": 6910,
      "Ð¾ÑģÑĤÐ½Ð¾": 6911,
      "Ð¸Ð´Ð¾ÑĢ": 6912,
      "ĠÑģÐºÐ°Ð·Ð°Ð»Ð¾": 6913,
      "ÐµÐºÐ¾Ð½": 6914,
      "ĠÐ¾ÑĤÐ´ÐµÐ»": 6915,
      "ĠÐľÐ°ÑĢÐº": 6916,
      "Ð¨Ð¾ÑĢ": 6917,
      "Ð¨ÐºÐ»Ñı": 6918,
      "ÐĶÐ¸": 6919,
      "ÐĶÐ¾ÐºÑĥ": 6920,
      "ÐĶÐ°ÑĪÐ°": 6921,
      "ÐĶÐ¸Ð¼Ð°": 6922,
      "ĠÐ¼Ð¾Ð½ÑįÐ½": 6923,
      "ĠÑĥÐ³Ð¾Ð»": 6924,
      "ĠÐĲÐ½ÑĤÐ¸": 6925,
      "ĠÐ·Ð°ÑıÐ²": 6926,
      "ĠÐ¿ÑĢÐ¾ÐºÑĥÑĢÐ¾ÑĢ": 6927,
      "ĠÑĥÐ´Ð¼ÑĥÑĢÑĤÐ¾": 6928,
      "ÐĹÐ°ÑĢ": 6929,
      "ÐĹÐ°Ð²Ð¾Ð´": 6930,
      "ĠÐ»ÑİÐ±Ð¸ÑĤÑĮ": 6931,
      "ĠÐļÐ°ÑĩÐºÐ°ÑĪÑĥÑĢ": 6932,
      "ĠÑıÑĢÐ°ÑĤÓ¥Ð·": 6933,
      "ĠÑıÑĢÐ°ÑĤÑĭ": 6934,
      "ĠÐ¤ÑĢ": 6935,
      "ĠÐ¤Ð»Ð¾ÑĢÐ°": 6936,
      "ÐŃÐº": 6937,
      "ÐŃÑĤÐ½Ð¾": 6938,
      "ĠÐ´ÐµÐ»Ð°ÐµÐ¼": 6939,
      "ĠÐ´ÐµÐ»Ð°ÐµÑĪÑĮ": 6940,
      "ĠÐ¿ÑĢÐ¸Ð´": 6941,
      "ĠÐ¿ÑĢÐ¸Ð¼ÐµÑĢ": 6942,
      "ĠÐ¥Ð°Ð±": 6943,
      "ĠÐ¥ÑĥÐ´Ð¾Ð¶Ð½Ð¸Ðº": 6944,
      "ÑĢÐµÐ¼Ð»ÑĮ": 6945,
      "ÑĢÐµÐ¼ÐµÐ½": 6946,
      "ĠÐºÐ¸Ð²Ð°Ð»ÑĤÐ¾Ð·": 6947,
      "ÑĢÐ¾Ð²ÐºÐ°": 6948,
      "ĠÐºÐ°ÑĢÐ°": 6949,
      "ĠÐºÐ°ÐºÐ¾Ð¼": 6950,
      "ĠÐºÐ°ÐºÐ¸Ñħ": 6951,
      "ĠÐºÐ°ÐºÑĥÑİ": 6952,
      "ĠÐ´ÑĢÑĥÐ³Ð¾Ðµ": 6953,
      "ÑģÑģÑį": 6954,
      "ĠÑĢÐµÐ¹": 6955,
      "ĠÑĢÐµÑĨÐµÐ¿": 6956,
      "Ð¸Ð»Ð°ÑģÑĮ": 6957,
      "ÑįÐ·ÑĬÑı": 6958,
      "ĠÐ¿ÐµÑĢÐ²ÑĭÑħ": 6959,
      "ĠÑģÐµÐ¼Ñı": 6960,
      "ÐºÐ¸Ð½Ð»ÑįÐ½": 6961,
      "ĠÐľÐ¸Ð½Ð¸ÑģÑĤ": 6962,
      "ĠÐľÐ¸Ð½Ð½Ð¸ÑıÑħ": 6963,
      "Ð¾ÑĢÑĤÐµÐ¿": 6964,
      "ĠÐ¿ÑĥÐ¼ÑĭÐ½": 6965,
      "Ð°Ð»ÑĮÐ½ÑĭÐ¹": 6966,
      "Ð°Ð»ÑĮÐ½ÑĭÐµ": 6967,
      "ÑĢÐ°Ð·Ñĥ": 6968,
      "ĠÐ³Ð¾Ð¶ÑĤÐ¾": 6969,
      "ĠÐ°Ð´ÑıÐ¼Ð¸Ð»ÑįÐ½": 6970,
      "ÑĥÑħÐ¾Ð²Ð°": 6971,
      "Ð¸Ð¿Ñĭ": 6972,
      "ĠÑģÐµÑĢÐ¶Ð°Ð½ÑĤ": 6973,
      "ĠÐºÐ¾ÑĪÐº": 6974,
      "Ð±Ð°ÐµÐ²Ð°": 6975,
      "ĠÐ¸Ð½ÑĤÐµÑĢÐµÑģÑĥÐµÑĤ": 6976,
      "ĠÐĸÐµÐ½Ð°": 6977,
      "ĠÑĪÑĥÐ¼Ð¿Ð¾ÑĤÑĭ": 6978,
      "ĠÑĪÑĥÐ¼Ð¿Ð¾ÑĤÑĤÐ¾": 6979,
      "ĠÑĪÑĥÐ¼Ð¿Ð¾ÑĤÑĭÑģÐ°Ð»": 6980,
      "Ð¤Ð°": 6981,
      "ÐĲÐ½Ð¶ÐµÐ»Ð¸ÐºÐ°": 6982,
      "Ð»ÑİÐºÐµÑĤ": 6983,
      "ĠÐ¸Ð½Ð²Ðµ": 6984,
      "ĠÐ¸Ð½ÑĦÐ¾ÑĢÐ¼Ð°": 6985,
      "ĠÐ´ÑĭÑĪÐµÑĤÓ¥Ð·Ñĭ": 6986,
      "ĠÐ¼ÑĥÐ·Ð¾Ð½": 6987,
      "Ð»Ð¾Ð½Ð¸ÑĤÑĮÑģÑı": 6988,
      "ĠÐºÑĥÑĢÐ´Ð°": 6989,
      "ĠÑģÑİÑĢ": 6990,
[...]
